#version: 0.2
Ä ±
a r
e r
Ã ¼
a n
i n
Å Ł
Ġ b
e n
Ä± n
i l
i r
Ä Ł
Ġ k
Ã §
Ġ d
Ġ s
a l
Ġ y
a k
l ar
Ġ g
Ã ¶
e k
e l
Ġ v
Ġ o
e t
m a
l a
Ġ t
Ġ i
d a
u n
d e
l er
Ġv e
e s
Ġ h
o r
a y
i y
i z
a t
i m
i k
e m
o n
Ä± r
Ġb ir
u r
a s
â Ģ
Ġ B
e d
Ġ m
Ã¼ n
l Ä±
Ġo l
Ġ Ã§
u l
a ÅŁ
Ġ A
Ã¼ r
i s
a m
a p
e y
Ġ K
Ä± m
Ä °
i t
i ÅŁ
Ġ a
Ä± l
l e
Ġ il
Ä± ÅŁ
Ġ S
Ġ Ã¶
u m
a h
Ġ T
Ä± z
Ġd e
a z
Ä± k
l i
âĢ Ļ
Ġ p
d an
a b
Ġ M
Ġi Ã§
y a
Ä±n da
s t
Ġ f
l an
a ÄŁ
Ġ al
Ã¼ z
a d
Ġg Ã¶
o k
Ġ D
lar Ä±n
in de
e v
in i
Ġy ap
in e
o l
lar Ä±
Ġ n
d i
Ġ ÅŁ
d Ä±
Ġ ar
d u
e c
d en
Ġ Ä°
Ġ Ã
es i
Ġb u
Ġ E
ma s
Ã¼ k
Ġ Y
ler i
u z
Ġ H
Ġ 1
u y
Ġ G
il er
el er
Ã¼ m
ĠiÃ§ in
al ar
m ak
Ġ 2
Ġd a
t i
Ġil e
Ä± y
iy or
a f
Ä±n Ä±
Ġ z
. .
c ak
Ġ r
e ÄŁ
Ã¼ l
ĠgÃ¶ r
in in
ÅŁ t
Ġ ed
l ik
Ġb aÅŁ
d ir
Ä± s
Ä±n a
Ġ et
u t
o ÄŁ
iy e
Ġ P
c e
Ġ an
e Ã§
il m
Ġs on
il ir
Ã¶ n
Ġv er
Ġk ar
u k
u s
Ġg er
ek t
Ġg el
d Ä±r
t Ä±
in iz
lÄ± k
Ġ O
Ã¼ y
e z
ĠÃ¶ n
ÄŁ Ä±
e b
lar ak
Ġ (
t a
l en
Ġk on
a v
r o
Ġol du
Ġ in
Ġo larak
Ġ c
i p
Ġt ar
Ġ ay
ÄŁ i
i b
Ġ en
e ÅŁ
Ġb il
c Ä±
Ġ F
mas Ä±
Ä±n dan
m an
t Ä±r
la y
Ġ âĢ
Ġde ÄŁ
Ġi ÅŁ
Ġ C
Ġy er
Ã¼r k
l em
Ġol an
r a
¿ ½
ï ¿½
an Ä±
u ÅŁ
m Ä±ÅŁ
ĠÃ§ ok
Ã¼ ÅŁ
Ġb ul
o p
ah a
Å ŀ
t an
ed i
Ġk ul
un u
im iz
0 1
as Ä±
s e
l u
Ġk al
Ġi st
o m
Ã¶ r
Ä±n Ä±n
t e
i h
Ġk ad
ĠB u
Ä±y or
Ġg Ã¼n
y on
en i
c a
Ġo r
Ã¶ y
Ġa Ã§
Ġk ur
Ġkul lan
il i
ĠÃ ĩ
ib i
a ma
e de
al Ä±ÅŁ
ar k
Ġs Ã¼r
is i
Ġ R
Ġy Ä±l
ak i
Ġh er
t ir
ler in
al Ä±
la ÅŁ
ek i
Ġd aha
Ġ uy
Ġoldu ÄŁ
m e
0 0
âĢ Ŀ
Ġb el
Ġ N
k i
ÄŁ r
Ġ ma
ĠT Ã¼rk
Ġg eÃ§
Ġv ar
ĠÃ ĸ
il en
ĠÃ§ alÄ±ÅŁ
i c
Ä± lÄ±
ĠÃ§ Ä±k
am an
Ġy aÅŁ
er s
el i
Ġk en
e h
Ġy ar
s an
Ġ Ã¼z
Ġg ibi
a Ã§
ĠâĢ ľ
Ä±m Ä±z
o s
m alar
a da
Ġbul un
la ma
m et
m ek
Ã¼ t
is t
Ġ 3
ed en
ĠÃ¼z er
k en
ec ek
l et
r u
er i
Ġ V
Ġo n
un da
Ã¶ z
ey e
ĠÃ¶ z
Ã¶ l
Ġ el
iy et
Ä±l an
Ġger ek
Ġs aÄŁ
m iÅŁ
Ġ Åŀ
Ä±n Ä±z
s a
l Ã¼
g i
e p
Ġ ek
in den
Ġs ay
iy le
Ã ¢
d aki
ĠA n
o y
Ġkad ar
.. .
' d
e f
Ġy Ã¶n
o t
a c
Ġ L
Ġk ay
Ġs or
Ġ2 01
Ġz aman
Ġy az
Ġp ro
an s
Ġt ek
a de
as Ä±nda
aÅŁ k
Ġd ur
ar ak
Ġ u
lar a
Ġtar af
Ġo la
Ã¼ c
ay a
Ġkar ÅŁ
Ã¼y Ã¼k
Ġt op
i d
Ġde v
Ġa d
m en
ed ir
Ġh al
Ġ -
Ġo y
Ġson ra
i f
er k
Ġk at
o c
un un
Ġ ak
Ġk ap
Ġuy g
Ġs ah
Ġd oÄŁ
et im
Ġ U
ar t
larÄ±n Ä±
ĠÃ ľ
Ġd Ã¼ÅŁ
Ġ Ã¼r
er ek
ma y
ma ya
Ġa ma
aÄŁ Ä±
u ÅŁt
ĠÅŁ ek
Ã¼ Ã§
i Ã§
es t
Ġi se
Ġy an
la m
Ġ "
dÄ± ÄŁ
Ġd Ã¶n
ar Ä±
n in
d eki
Ġb en
Ġs iz
Ġbel ir
Ġ l
Ġal an
ar a
Ġve ya
ler ini
Ġh ay
Ġ ev
dÄ± ÄŁÄ±
i v
Ä±y la
eler i
y i
s iniz
el ik
Ġh ak
ĠÃ¶ ÄŁr
Ã¼ s
d Ã¼r
t ad
Ġ at
uy or
Ġ 4
k in
Ġy ak
ĠÃ¶z el
ec eÄŁ
c i
es inde
s el
r am
ab ilir
Ġ 5
Ġger Ã§
iz met
Ġd Ã¼z
d Ä±m
ĠA l
Ä±s Ä±
Ä± la
ĠTÃ¼rk iye
Ġt ak
Ġy eni
lar da
Ġk iÅŁ
Ġg ir
l ey
il di
Ġ uz
ler e
un a
t er
iy at
Ġg en
im i
Ġy Ã¼z
Ġs ev
Ġil g
Ġken d
tad Ä±r
i ÄŁ
o d
Ġb Ã¼yÃ¼k
ekt edir
st er
an lÄ±
Ġd en
ĠA r
em iz
ĠB ir
Ġor t
c u
Ġb ak
Ġ es
iÅŁ tir
Ġn e
a cak
Ġtaraf Ä±ndan
Ġy ol
t r
Ġb Ã¶l
Ġin san
ÅŁt ir
Ġy Ã¼k
ĠÃ¶n em
Ġil k
Ġo k
ĠaÃ§ Ä±k
Ä± p
mak tadÄ±r
Ġb aÄŁ
ÄŁ u
Ġh em
ĠgÃ¶r e
Ġtar ih
s un
Ġb iz
ĠB aÅŁk
Ġh izmet
Ġd o
ĠÅŁek il
Ġ eÄŁ
Ġk o
la t
a at
Ã ľ
Ġh ar
Ġs er
ĠdeÄŁ il
Ġdur um
Ġf ark
le ÅŁ
Ġs Ã¶y
Ġi z
ĠgerÃ§ ek
as yon
li ÄŁi
ĠgÃ¶ ster
b ilir
uÅŁt ur
ey i
Ġ as
en in
larÄ±n Ä±n
u h
r an
Ġs eÃ§
m esi
ar et
Ġk i
t en
Ġ I
iler i
b ir
ĠolduÄŁ u
Ġd er
it im
Ġi yi
ÄŁ ini
eb ilir
ĠK ur
Ġy et
o z
t ik
et ir
d ur
u p
Ä±m Ä±
Ã¼ v
ĠkarÅŁ Ä±
al Ä±k
an Ä±n
Ġal t
Ġy a
t Ä±k
Ġm il
Ã¼ st
Ġi h
Ġp ar
ist em
ĠÃ¶ÄŁr en
Ã¼z el
n Ä±n
Ġbil g
Ġo t
r e
Ġs an
Ġol ma
Ġt Ã¼m
ĠÅŁekil de
r Ä±
ay an
Ġy ok
ol o
n Ä±
r et
Ġg etir
r af
Ġilg ili
Ä± cÄ±
Ġs Ä±r
le ÅŁtir
b ul
Ġ Ã¼l
ĠA y
larÄ±n a
Ġn eden
ler de
Ġm Ã¼
ĠE r
iÄŁ er
erk ez
Ġyap Ä±l
Ġt ut
ĠgÃ¶ z
ab er
Ġ 6
Ġs Ã¶z
ul u
Ġsah ip
Ġ Z
oc uk
d er
es ine
Ġd Ã¼n
Ġh as
t ar
ĠdeÄŁ er
ĠÃ§ ek
Ġa z
Ġdev am
Ġ1 9
Ġk az
ay Ä±n
k a
ĠdÃ¼z en
Ġi s
ĠÄ° l
h an
p or
Ã¼v en
o b
len dir
Ġh az
st an
d Ä±k
la h
Ġb in
ler inin
s i
Ġt aÅŁ
ĠÄ° n
olo j
ĠÅŁ ey
iyor um
s iz
Ã§ e
Ġet ti
Ġs u
ĠÃ¶nem li
us u
ĠB el
ĠdÃ¼ÅŁ Ã¼n
Ã¼y or
ĠolduÄŁ unu
Ġf az
Ã ĸ
il ik
Ġs at
ĠÃ¼l k
Ġt er
Ġal Ä±n
eh ir
ler ine
es ini
âĢ ¦
lar Ä±nda
ĠiÃ§ er
Ġbir lik
en iz
ĠiÃ§ inde
Ġson u
s Ä±z
Ġb as
i g
d Ã¼
Ã¼n de
lÄ± ÄŁ
s ek
iÅŁ im
g ram
stan bul
Ġs un
Ġg Ã¼zel
Ġet m
Ġar asÄ±nda
Ġ ede
Ġs it
Ġfaz la
Ġk Ä±s
u la
Ġhay at
al an
2 01
Ġd uy
Ã§ a
Ġt es
Ġi ki
Ġa da
ĠÃ¶n ce
alar Ä±
az Ä±
ay Ä±
Ġs istem
ĠÃ¼r Ã¼n
Ġk or
ĠbaÅŁ la
Ä±n daki
d ik
g Ã¼n
Ġ 7
ĠÃĸ z
lar dan
es in
Ġd Ä±ÅŁ
i de
ĠB ak
ĠG en
Ġ aÅŁ
Ġz or
Ġol ur
Ġhaz Ä±r
ma z
Ã¶y le
Ġar k
lik le
Ġk ab
Ġh at
Ġt an
il ecek
Ġhak k
ru p
Ġt em
ĠÃ¶ l
li ÄŁ
b et
ilm esi
di ÄŁi
ĠM Ã¼
Ġh iÃ§
ey en
Ġb ek
mÄ±ÅŁ tÄ±r
Ġyap tÄ±
Ġi m
n e
E R
iv ers
lÄ± ÄŁÄ±
ul an
Ã ĩ
u b
B u
os y
ĠA k
Ġd iÄŁer
t Ã¼r
Ġgel en
ivers it
Ġkon u
Ġd iye
Ġm es
Ġol mak
Ã¼ p
ĠdÃ¶n em
eÄŁ i
ade ce
Ġoy un
Ġk im
Ġbirlik te
u v
l edi
y e
Ġet k
as Ä±l
Ġa ÄŁ
em ek
ekt ir
ĠK ar
Ġb ur
Ġyap Ä±lan
c el
Ġfark lÄ±
ĠÃ¶ r
Ġs aat
Ġay nÄ±
Ġd ik
Ġed en
iler in
Ġk Ã¶
as ar
Ġb oy
lar la
d ar
Ġ1 0
Ã¼n Ã¼
Ġ 8
Ġbelir t
ĠiÅŁ lem
ol u
y or
o ÅŁ
Ġ eÅŁ
ler inde
iy on
Ġd il
Ã ½
m ektedir
ĠE n
A N
Ġola cak
Ġkaz an
Ġd edi
Ã¼t Ã¼n
k et
ĠÃ§ ocuk
Ġi f
Ġy at
A R
malar Ä±
Ġil iÅŁ
Ġg Ã¼ven
ĠÄ° stanbul
h ur
ĠgÃ¶r ev
an a
ĠE ÄŁ
Ġd est
o g
ada ÅŁ
Ġm al
ik a
ĠP ro
n et
k Ã¼
Ġt ama
ĠbÃ¶l g
ĠdoÄŁ ru
Ġk an
Ġ Ã¼st
Ġ ,
mas Ä±nÄ±
ÄŁ Ã¼
or t
n un
Ġt el
ic i
ĠÃ¶n c
Ä± t
m eye
n a
iyor uz
lay an
l uk
Ġ :
Ġh af
k an
ĠÃ§Ä±k ar
ĠK on
k at
Ġm od
r ak
Ġken di
ĠgÃ¶r Ã¼n
ĠBaÅŁk anÄ±
or m
l ak
Ġbulun an
e g
lar Ä±mÄ±z
mas Ä±na
Ä±z Ä±
ek et
ĠdeÄŁ iÅŁ
Ġtek n
is inde
Ġs adece
Ġkar ar
Ġt Ã¼r
um hur
iy as
at Ä±
il eceÄŁ
Ġm ak
Ġk it
s am
Ã¼n e
Ġs en
Ġk am
Ġm ut
m uÅŁ
Ġn asÄ±l
ĠB il
Ġh av
abilir siniz
Ã ®
ekt Ã¶r
ah at
em e
ĠO r
Ġma d
Ġs Ä±k
Ġf iyat
es inin
ĠBel ed
Ġ 0
ĠÃľ n
l Ã¼k
Ġf ir
ĠeÄŁ itim
Ġt ab
Ġih t
ĠÄ° s
Ġ er
Ġuyg un
m alÄ±
Ġkur ul
m i
en d
in g
Ġda v
Ġu laÅŁ
Ġs al
dÄ±ÄŁ Ä±nÄ±
ĠÄ° ÅŁ
Ä±r ak
la ÅŁt
s Ä±
ler den
c aÄŁ
ĠA v
us unda
Ġg it
ec e
Ġg id
Ġ 9
Ġyar dÄ±m
di ÄŁ
b ar
Ġark adaÅŁ
Ġ ce
Ġb un
ok t
Ġ W
Ġpro j
Ġk r
Ġol uÅŁtur
g u
Ġed er
ac aÄŁ
lan an
ĠgÃ¶ n
Ġs av
g il
t Ã¼
ĠÃ§ ev
Ġar t
Ġ J
ĠGen el
u ma
Ġ em
un uz
v an
Ġpro gram
Ġb it
ĠÃ¼zer e
Ġol masÄ±
ĠyÃ¼k sek
ĠgerÃ§ek leÅŁtir
Ä± ÄŁ
Ġoldu k
osy al
h al
t al
Ġb ah
Ġb Ä±rak
en k
o v
Ġdik kat
Ġy Ã¼r
s al
Ġi k
Ġm et
or um
Ġgen el
lerin den
may Ä±
lem e
il iyor
Ġg Ã¼Ã§
ir ket
iniz i
ler le
Ġkad Ä±n
du ÄŁu
eler in
ĠÃ¼zer ine
an da
ĠM il
Ġ2 00
Ġ Ã¼y
f a
Ġm erkez
Ġp ay
may an
Ġd em
Ã¼m Ã¼z
Ġed ilm
oÄŁ lu
len en
ĠyÄ±l Ä±nda
r i
ĠMÃ¼ dÃ¼r
k Ä±
larÄ±n dan
Ġt e
g el
ĠâĢ ĺ
ab a
aÅŁ tÄ±r
Ġbir i
en t
ĠÃ¼zer inde
g e
Ġ '
Ġkon uÅŁ
ĠE k
Ġkay n
Ġol uÅŁ
on om
a j
l um
ur t
et i
ĠB aÅŁ
Ġ1 5
Ġdest ek
ler imiz
Ġf a
rÄ± ca
Ġk aÃ§
ĠgeÃ§ ir
ĠÃľn iversit
um uz
Ä±l Ä±r
v ur
Ġsor un
Ġb Ã¼tÃ¼n
ĠT ek
Ġd in
Ä±r Ä±m
al i
Ġh Ä±z
Ã§ Ä±
Ġhar eket
ĠÃ§ Ã¶z
an t
ef on
ĠbÃ¶l Ã¼m
Ġuz un
ed ik
ti f
ĠY Ã¶n
Ġbil e
la s
Ã§ i
ĠE s
Ġhakk Ä±nda
il e
el im
Ġko lay
Ġf ilm
Ġtama m
Ġt asar
Ġiht iy
Ġm uh
Ä±l dÄ±
Ġt am
Ġan lam
man Ä±n
r ar
Ġk Ä±z
a cÄ±
Ä±l masÄ±
r ik
ĠC umhur
Ä±la cak
Ġr es
t Ä±m
Ġb azÄ±
g an
Ä±lÄ± m
Ġkab ul
ĠK an
Ġy ay
Ġ Ã¼n
Ġt eÅŁ
az ar
ĠAl lah
m er
ĠbaÅŁ ka
Ġk om
Ġk es
an k
ĠsaÄŁ la
Ã¼l tÃ¼r
Ġy as
ĠB ur
Ġoy n
ĠS on
Ġort aya
Ġs Ä±
Ã¼Ã§ Ã¼k
Ã¼n kÃ¼
Ġ Ã¼Ã§
anlÄ± ÄŁÄ±
ak at
d um
Ġif ade
Ä±n Ä±r
y la
ĠÃ¶ÄŁren c
ĠB Ã¶l
v er
ĠG Ã¼n
Ġm ev
ĠbaÅŁ ar
is tan
g Ä±
Ġ un
Ġs eb
in deki
m eler
Ã§ ok
Ġk oy
ĠgÃ¶r Ã¼ÅŁ
ĠÃ¼r et
Ġson r
s iyon
ĠB en
Ġ2 0
Ġgel iÅŁ
Ã¶ k
d Ä±ndan
Ġed iyor
oÄŁ raf
ma m
m in
Ġbil gi
Ġp lan
r es
Ġhas t
Ġed ilen
ĠyaÅŁ am
eÅŁ it
Ġb ey
ĠdÃ¼n y
Ġkap sam
ar asÄ±
Ġ w
Ġ1 2
Ġh ep
Ġ #
ĠyÃ¼z de
s uz
o h
tr ol
er n
ĠS an
Ġ /
ĠgÃ¶n der
t em
Ġy ayÄ±n
b er
Ġt ah
san Ä±z
ĠkiÅŁ i
ĠE v
c om
Ġh aber
Ġp ol
Ġz iy
ĠY ar
E T
s in
edi ÄŁ
Ġh an
is ini
Ġm i
Ġh es
Ġr ahat
Ġay r
n de
iz e
ĠÃ§alÄ±ÅŁ malar
miÅŁ tir
Ġar aÃ§
b ol
Ġyak Ä±n
ĠA t
Ġyap an
k ara
Ġkal it
Ġtel efon
as Ä±na
Ġ |
Ġo lay
du ÄŁ
g in
ĠT ar
Ġ am
m ir
Ġ %
Ã¼c ret
ĠA ma
Ġt al
is ine
p er
Ġola bilir
Ġuyg ula
Ġben im
ĠiÃ§er isinde
ĠY ap
n da
d im
Ġkur um
T Ã¼rk
Ġ Ã¼cret
ma dan
Ġyer ine
ĠD ev
ĠP ar
ĠÅŁ irket
Ġter c
ter net
ek li
ti ÄŁ
un dan
ĠbaÅŁ vur
t ur
ĠdeÄŁer lendir
ede f
da v
m ez
ĠÅŁ u
Ġk av
Ġt ur
Ä ŀ
Ġyak laÅŁ
ĠdÃ¼n ya
Ġkon usunda
lan dÄ±r
) ,
ĠY Ä±l
ĠA B
rup a
ĠsaÄŁ lÄ±k
oÄŁ an
Ġan cak
Ġsonu Ã§
Ã¼k Ã¼m
ĠM erkez
u ÄŁ
ĠÃľniversit esi
Ġar dÄ±ndan
Ġ la
Ã¼ ÅŁt
Ġbil in
el e
ĠE l
Ġdo lay
c ek
E N
Ä±yor um
d et
Ġb Ã¶yle
tÄ± ÄŁ
Ġ erk
ekt e
ĠÃ§ eÅŁit
L Ä°
s ik
iler e
ĠH er
Ġb Ã¼y
ĠA s
Ã¼n Ã¼n
ĠbaÄŁ lÄ±
Ġvar dÄ±r
ekt en
ĠEÄŁ itim
ama z
et men
az et
Ġk Ä±r
Ġan lat
. âĢĿ
ĠS er
iy esi
er li
Ġmil yon
us lar
ul uk
ley en
Ġin an
Ġet mek
er j
al iyet
ya cak
Ä±ÅŁ Ä±
Ġi ti
n ek
Ġis im
ï¿½ ï¿½
lÄ± yor
Ġser v
Ġ201 8
Ġa it
ĠB Ã¼yÃ¼k
Ġs ektÃ¶r
Ġziy aret
im di
Ġdev let
Ã¼ b
Ä± da
Ġyar at
u st
ĠAn cak
un ca
Ġada m
B ir
' t
Ġbu gÃ¼n
Ġm ey
1 9
ak k
oÄŁ u
s il
Ġm an
Ġb er
ĠÃĸz el
Ġd iy
Ġin dir
ek k
Ġm er
Ġgen Ã§
um u
Ġs es
ar i
ĠÃ¶ de
ĠgÃ¶r Ã¼l
Ġtop lan
Ġmod el
Ġbir Ã§ok
ĠâĢ ĵ
1 0
l im
ilm iÅŁ
Ġy en
uy u
Ġkon trol
Ä±l mÄ±ÅŁ
Ġk ez
ĠgÃ¼n Ã¼
oÄŁ un
Ġterc ih
Ġgel iÅŁtir
ĠyÃ¶n etim
l o
al t
Ġiti bar
Ġt at
Ġgel ir
Ä±nÄ± f
as t
Ġar tÄ±k
Ġgel di
Ġv ur
ĠB iz
uÅŁt u
ob il
y Ä±
Ġsiz e
ĠyaptÄ± ÄŁÄ±
Ġol up
lÃ¼ ÄŁÃ¼
oloj i
ĠkÄ±s a
Ġhem en
Ġh edef
Ġ1 8
tÄ± ÄŁÄ±
Ġd ers
kin ci
h e
Ġy anÄ±
ĠT em
Ġpay laÅŁ
Ġv at
Ġd ah
Ġd iz
ĠM ah
ĠT op
in ce
Ġin cel
Ġar aÅŁtÄ±r
k Ã¼n
an lar
ad Ä±
ebilir siniz
Ã¼s Ã¼
ot oÄŁraf
Ġ [
Ã¼c ad
laÅŁt Ä±r
ĠH al
ĠaÃ§Ä±k la
Ġm em
Ġ e
ĠgeÃ§ en
Ġkayn ak
sun uz
Ġyap mak
Ġalt Ä±nda
A K
Ġil Ã§
ĠD Ã¼n
ĠD r
- -
Â Ĵ
Ġk ol
Ġt av
u d
al ama
Ġy ine
ĠsÃ¶y ledi
du k
Ġk ir
S Ä°
Ġh is
ĠAv rupa
m em
Ġtop lum
ĠyaÅŁ an
Ġs osyal
Ä±na v
Ġt emiz
ĠseÃ§ im
Ġs Ä±nÄ±r
Ġt r
Ġek onom
Ġger i
Ġol sun
iy i
Ä±yor uz
ed im
Ġk il
z a
A L
Ä± ma
ĠmÃ¼ ÅŁt
al e
ab an
. "
as Ä±nÄ±
Ġmad de
Ġ Â
o st
is yon
Ġher k
Ġk Ã¼Ã§Ã¼k
g Ä±n
Ġm Ã¼m
ĠO n
ĠT L
b aÅŁk
ti v
ĠÄ° Ã§
A n
Ġy aÄŁ
is inin
ec ektir
ĠH az
Ġm Ä±
Ġzaman da
ĠÃĸ ÄŁr
ĠyÃ¶n et
ĠÄ° z
Ġz ar
ĠhiÃ§ bir
ab Ä±
Ġil et
Ġm ark
Ġf Ä±r
b u
Ġ mas
ĠsÃ¼r e
Ġd ir
Ġma Ã§
Ġok ul
Ġ1 1
anda ÅŁ
Ġn um
Ġi d
Ġ li
Ġon un
Ġben z
Ġs ab
Ġkit ap
Ġfa aliyet
Ġgerek en
am p
han gi
ilm ek
ĠÃ¼zer inden
Ġb ar
Ġr enk
Ġsor u
b r
Ġb unu
Ġc ev
ti ÄŁi
Ġbil dir
Ġu Ã§
Ä±n tÄ±
Ġtak Ä±m
Ġver en
as Ä±nÄ±n
c Ã¼
ĠdeÄŁiÅŁ ik
imiz in
c h
el en
Ġerk ek
Ġet kin
Ġm Ã¼z
um lu
d Ä±n
Ġt anÄ±
man Ä±z
Ġp ara
a g
uslar arasÄ±
er Ã§
t im
ĠÃĸ n
dan a
Ġhal k
ay et
f or
Ġuyg u
Ġp ek
Ġd ak
d in
Ġan la
5 0
f er
Ġolduk Ã§a
Ġad et
Ġ1 4
mas Ä±nÄ±n
uy la
ĠO k
ĠK al
ÅŁt e
ĠAn kara
t in
ĠmÃ¼m kÃ¼n
lem ek
Ġs ak
ĠÃ¼r etim
Ä±s Ä±nda
A T
ã ģ
ĠdeÄŁ iÅŁtir
Ġhaf ta
y an
ĠÃ¶zel lik
Ġtak ip
l Ã¼l
ĠiliÅŁ kin
ĠÃ§alÄ±ÅŁ an
Ġm u
Ġes ki
Ġber aber
Ġn okt
Ġs ey
Ġ ul
r im
b ak
ĠE y
Â Ń
ĠÅŁ eh
Ġp er
malÄ± dÄ±r
Ġ .
Ġyap Ä±
ĠyÃ¶n elik
alar Ä±n
Ã¼m Ã¼
d oÄŁan
Ġel e
Ġm Ã¼cad
âĢ ľ
ĠK ay
Ġs iyas
o la
Ġh Ã¼kÃ¼m
ĠÃ§ aÄŁ
ĠiliÅŁ k
iyet i
r on
larÄ± yla
Ġtek rar
Ġkal dÄ±r
ĠÃ¶l Ã§
00 0
Ġuyg ulan
Ġsav aÅŁ
im de
Ġbir az
Ġbir bir
Ġor ta
n i
s man
Ġen gel
m uz
Ġneden iyle
Ġmil let
lÃ¼ ÄŁ
Ġkon usu
ĠK o
ĠK as
Ġtem el
Ġ1 3
eler e
Ġuz ak
ĠV e
ĠBaÅŁk an
ĠÃ§alÄ±ÅŁ ma
Ġ1 6
Ġbiz im
ĠAB D
Ġan laÅŁ
ĠaÄŁ Ä±r
Ġal mak
ĠT ur
es el
o f
Ġver m
r at
Ġm ik
Ġon u
Ä° N
Ġ3 0
Ġy orum
Ġol uyor
y le
l ek
im e
es inden
Ġk esin
ĠsÄ±r a
r en
1 2
Ġb ana
eler ini
uk uk
imiz i
ĠbaÅŁla dÄ±
Ã¼ f
Ġf ay
k er
Ġte dav
ey in
Ġb or
Ġt Ã¼k
v et
iz m
m uÅŁtur
ta j
al at
ĠK om
eler de
iler ine
Ġs por
t u
Ġist em
ĠaÅŁ aÄŁÄ±
an i
de ÅŁ
Ġs ek
Ġher hangi
Ġb ay
oh bet
ĠÃ¶zel likle
ĠK ul
I N
ekk Ã¼r
az i
ĠB unun
Ġ201 7
Ġel de
b i
Ġvat andaÅŁ
Ġgerek li
p r
ĠyÃ¶n tem
s Ä±nÄ±z
Ġed ildi
Ġma h
Ġgir iÅŁ
iler ini
ĠBeled iye
lar dÄ±r
ĠU y
al Ä±m
Ġot ur
it ik
Ġin ternet
eÄŁ in
Ġs ar
ĠO y
Ġsan at
ĠH ay
Ġb unun
ĠY eni
ic aret
L ER
al et
ĠB ay
Ã¼n den
s at
Ġko ÅŁ
Ġb oz
ÅŁ ehir
ap or
iniz e
Ġb oÅŁ
d ak
if t
Ġda ir
Ġs il
ler iyle
Ã¼c Ã¼
imiz e
Ġgen iÅŁ
ĠK ad
Ġkapsam Ä±nda
Ã¼l t
ĠB ey
Ġyat Ä±rÄ±m
in ci
Ġol mayan
Ġort am
an y
Ġf otoÄŁraf
H P
is ay
v e
ĠÅŁ ehir
ĠG Ã¶r
ĠAy rÄ±ca
ĠÅŁek l
Ġpar Ã§
on u
ilm ektedir
Ġl is
Ġgerek ir
Ġay rÄ±
ĠH as
ĠÃ¶r g
af a
Ġada y
Ġy al
Ġyeni den
et ay
ey im
v ek
Ġk ut
c ut
ĠTek n
Ġbel g
Ġk Ã¼ltÃ¼r
Ġa dÄ±
Ã¼ ÄŁ
Ġort ak
Ġg ez
av aÅŁ
TÃ¼rk iye
M A
Ã »
Ġg rup
c aÄŁÄ±
Ġel ekt
o w
ef er
ec i
m eli
Ġar as
Ġsat Ä±ÅŁ
Ġdolay Ä±
ĠdeÄŁil dir
ĠÃ§Ä±k an
Ġm ed
Ġek ip
Ġsay f
ĠS ay
Ġama Ã§
Ġ1 7
ĠbaÄŁ lan
Ġn er
ĠÃ§ iz
ĠÃ§ev r
Ġa il
d Ã¼l
Ġd ol
Ġor an
Ġd ok
ĠÅŁ art
Ġr aÄŁ
Ġr ek
Ġo da
dÃ¼ ÄŁ
ĠÄ°n gil
ĠdÄ±ÅŁ Ä±nda
ĠA h
Ġg ec
Ġc ih
ers on
Ä° R
ma tik
ĠÃ§Ã¶z Ã¼m
Ġihtiy aÃ§
ĠÅŀ ub
2 0
ĠyÃ¼k sel
b e
Ġin ÅŁ
c an
k il
ĠA K
ark en
mas Ä±nda
1 1
larÄ±n Ä±z
Ä±s Ä±ndan
Ġbak Ä±m
Ġa c
es iyle
Ġyar ar
ma t
ÅŁ am
Ġyan i
ĠK ap
Ġal Ä±ÅŁ
lan dÄ±
ĠS aÄŁ
Ġist eyen
Ġv ide
ĠÃ¶n er
ĠhÄ±z lÄ±
Ġi kinci
Ġb ayan
en ek
ĠYÃ¶n etim
Ġkay Ä±t
Ġhes ap
anlÄ± ÄŁ
Ġhal inde
Ġm ek
z em
at en
s u
Ġama c
ĠgerÃ§ek leÅŁ
ĠÃĩ Ã¼nkÃ¼
Ġbur ada
ĠsÃ¼r dÃ¼r
Ġb ilm
Ä±lÄ± yor
Ġuz man
ĠraÄŁ men
Ġkurul uÅŁ
l Ä±nda
Ġsu Ã§
ĠBeled iyesi
ĠDev let
l is
Ġgid er
iz i
isay ar
Ġtal ep
ĠO t
en c
Ġtarih i
ĠKur ulu
3 0
E K
Ġor gan
Ġtekn ik
Ġc in
ĠA d
ĠaÃ§Ä±k lama
ĠT r
it e
ĠH av
Ġsiz in
Ġk ah
c Ä±sÄ±
te p
Ġyap Ä±lacak
uv ar
ĠÃ§eÅŁit li
Ġsal dÄ±r
em in
Ä±r Ä±
aban cÄ±
ĠN e
ĠEr doÄŁan
ĠU z
ĠD o
Ġd ayan
ĠE m
p it
Ġs ok
Ġc an
Ġid di
cÄ± lÄ±k
Ġkullan Ä±cÄ±
ak l
m al
Ä±r ken
Ġ2 4
ĠG el
mÄ±ÅŁ tÄ±
Ä±ÅŁ tÄ±r
de m
edi ÄŁi
ĠÄ°l k
Ġ ...
l uluk
ĠkÄ±s m
) .
ĠiÅŁ let
ĠbaÅŁ k
Ġhis s
ĠDÃ¼n ya
Ã¶r t
l k
is k
ĠO sman
Ġy oÄŁun
n Ä±z
Ġh ey
ir a
Ġtop lam
l ilik
Ġed il
Ġboy unca
m eyi
ĠH ar
Ġver di
ĠtÃ¼r lÃ¼
Ġsay esinde
Ä±n ca
Ġist er
ĠM eh
Ġt Ä±k
Ġ2 5
ab ileceÄŁ
Ġen erj
ãģ Ĥ
s Ä±n
ĠÃ§ ar
Ġkullan Ä±l
ĠyardÄ±m cÄ±
Ġsay Ä±lÄ±
ĠD aha
tal ya
Ġm ez
ĠM ar
er e
Ġp at
Ġuygu lama
ãģĤ ãģĤ
Ġist iyor
ĠteÅŁ ekkÃ¼r
ad de
ad olu
Ġed in
ut bol
Ġk Ã¶y
Ġb eni
Ġola b
Ġs Ä±nÄ±f
m eden
Ġsah ibi
Ġy emek
Ä±y Ä±
Ġmev cut
lu ÄŁ
eler inin
Ġhav a
ĠM uh
Ġt eh
Ġs Ä±nav
em i
Ġver ilen
at e
Ġs ohbet
Ġun ut
Ġk as
oloj ik
Ġ ï¿½
ĠsÄ± cak
Ã¼l en
la dÄ±
ĠsÃ¼r ekli
g un
ĠU l
Ã¼ ler
Ġu ÄŁr
ĠD em
Ġzar ar
u an
b o
Ġ201 6
ĠY Ã¼k
Ã ¾
ĠS u
ĠyaklaÅŁ Ä±k
Ġdurum da
l Ã¢
iler inin
t aÅŁ
ĠS ur
Ġbiz e
Ġol sa
Ġed erek
t ay
b a
E M
Ä±nÄ±z Ä±
et in
Ġ ey
ti ÄŁini
Ġa v
A S
ĠD eÄŁ
Ġkor k
Ġb iÃ§
Ġan da
Ġal dÄ±
Ġd ar
A l
en er
y ar
ĠyÃ¼r Ã¼t
ĠMil let
c ort
a ir
ĠY ayÄ±n
asyon u
201 8
Ġtasar Ä±m
ĠdoÄŁ r
ĠKas Ä±m
Ġ le
alar da
Ġs aÃ§
i j
Ġo f
Ġs t
Ġdah il
Ä±ÅŁ ma
ĠA Ã§
ĠdÃ¶n Ã¼ÅŁ
Ġ j
Ġm en
mak ta
Ġad Ä±m
ĠPar ti
m esini
Ġyan Ä±nda
Ġtarih inde
Ä±ÅŁ Ä±k
ir an
im leri
Ġhan gi
ĠA li
Ġs ez
eb ek
Ġtes pit
Ġhal e
us al
Ġv ak
Ġi y
Ġg iy
ĠA b
U R
ĠdoÄŁ al
Ġolacak tÄ±r
A Y
Ġmak in
Ġd etay
li f
da m
A B
f ak
l Ã¼m
Ġseb ep
Ġp azar
ĠS Ã¶z
ĠR us
E L
s ak
f et
ĠÃĸ r
Ġneden le
ĠMÃ¼dÃ¼r lÃ¼ÄŁÃ¼
Ġdav ran
ay i
m el
ev i
ĠMerkez i
ili ÄŁi
Ġtem sil
Ġb ab
Ġg azet
Ġkullan Ä±m
Ġyap tÄ±r
l iyor
ĠD oÄŁ
Ġy Ä±k
Ġserv is
Ġmes aj
Ġ1 00
Ġkar deÅŁ
ĠsaÄŁ lan
Ġt ep
Ġi p
Ġist ediÄŁ
ĠTem muz
Ġetti ÄŁi
ĠD ern
iler ek
ĠÅŁekl inde
Ġn it
Ġbilg iler
Ġcev ap
Ġan a
ĠR es
Ġad Ä±na
b ah
l in
Ġy urt
Ġilet iÅŁim
m esine
ĠH at
eler ine
ĠM ay
Ġon a
Ã¼ le
ĠBak anlÄ±ÄŁÄ±
Ġkam p
Ġc anlÄ±
emiz de
ĠÃ¼n iversit
Ġr ak
Ġma ÄŁ
ir i
okt or
Ġkam u
Ġhat Ä±r
alar Ä±nda
Ġtan Ä±m
ab ilecek
ĠEy lÃ¼l
Ġil er
f es
ĠmÃ¼ÅŁt er
Ġcih az
ĠAl man
caÄŁ Ä±nÄ±
ĠMeh met
at if
Ġan n
Ġv Ã¼c
ot or
ĠbaÅŁvur u
Ä±s Ä±yla
t Ã¶r
ĠA mer
Ġbek len
ust afa
os u
ĠÃľ r
ĠdÃ¼zen lenen
k aÃ§
Ġc am
w w
ĠK or
u cu
Ġ ef
lÄ± ÅŁ
Ġp art
Ġar tÄ±r
Ġr apor
ed iye
ĠYar dÄ±m
g isi
raf ik
ĠÃ¶r nek
la mak
Ä±s Ä±nÄ±
ĠaÃ§ Ä±sÄ±ndan
ĠB un
Ã¢ n
Ġf ik
Ġkonu da
ĠÃ¶z g
Ġs ig
Ġa h
Ã¼n cÃ¼
ĠAn adolu
ĠCumhur baÅŁk
Ä° n
Ġkullan Ä±lan
is el
Ġi t
Ġkal an
ĠsÄ±r asÄ±nda
lay arak
iz yon
Ġh ik
ĠM al
i i
1 5
O N
eceÄŁ i
Ġl ist
Ġgerek iyor
Ġyaz Ä±
Ġkal k
dÄ±ÄŁ Ä±mÄ±z
Ġbel li
Ġede b
in c
Ġitibar en
len di
lan mÄ±ÅŁ
s er
m ey
B en
an Ä±ÅŁ
Ġtar t
Ġter Ã¶r
Ġc id
orm al
Ġgel iyor
lu ÄŁu
ĠÅŁ Ã¶yle
Ġb az
ilm iÅŁtir
Ġsistem i
men in
A r
am ak
L AR
ed er
Ġbil im
in d
Ġsiz i
Ġr uh
aÅŁ Ä±
Ġnum ar
Ġsonu cu
ĠH ak
ĠÄ° st
A D
al l
mam Ä±z
y um
Ġn et
m eleri
l ine
ĠyaptÄ± ÄŁ
ĠbaÅŁar Ä±lÄ±
ĠV er
ra c
ĠD er
Ġp erson
ĠS por
ĠÃ§ oc
ĠEk im
is an
ili ÄŁ
Ġce z
ĠEÄŁ er
m eyen
g am
ĠÃ¶ÄŁr etmen
Ġil an
Ġson unda
maya cak
ĠkiÅŁ inin
ĠiÅŁ aret
Ġd al
o da
Ġkon uÅŁtu
Ġa b
Ġkap at
Ġzor unda
ov a
S T
Ġk Ä±
eler inde
am Ä±z
ark Ä±
Ġo per
Ġbulun duÄŁu
k em
Ġ201 5
s iy
ĠT ak
ĠkarÅŁ Ä±la
Ä° M
elik le
ĠO l
Ġvar dÄ±
m Ã¼ÅŁ
Ġiz in
O R
Ġg iz
ĠÃ¶rg Ã¼t
uk arÄ±
A M
Ġherk es
Ġkat Ä±lÄ±m
Ġw eb
Ġd iyor
ĠF ak
ĠE t
bilir siniz
.. ..
ĠÃĩ alÄ±ÅŁ
Ġoyun cu
Ġmal zem
ĠM es
Ġk ey
ĠM art
vek ili
d Ä±z
Ġede cek
ans Ä±
Ġ19 9
ĠgeÃ§ miÅŁ
Ġyap tÄ±k
Ġder ece
aÅŁ a
Ġok u
ĠkÃ¶ tÃ¼
at Ã¼rk
ĠÅŁ imdi
Ġp iyas
Ġs ur
Ġamac Ä±yla
Ġde p
ĠK at
ac aÄŁÄ±
ĠÄ°z mir
em al
ler ce
Ġg ece
ĠÅŁ ah
eÅŁ il
Ġs in
ĠyÄ±l lÄ±k
Ä±m da
h end
Ä±l dÄ±ÄŁÄ±
Ġd on
ĠsÃ¼r eÃ§
Ä±s Ä±na
Ġist iyorum
Ġed ilir
ĠK it
Ġkay bet
ĉ Ċ
lÄ±k la
c eÄŁ
Ġh am
Ġyal nÄ±z
Ġm is
ĠM ak
Ġk elim
f en
len mesi
Ġmey dana
em ez
ĠB ah
ĠÃ§Ä±k tÄ±
ĠHaz iran
Ġ5 0
Ġh ukuk
Ġ aÅŁk
D E
Ġb es
ĠH izmet
ĠTar ih
Ġtes lim
Ä±la b
ĠS iz
Ġ Ä±s
Ġyer de
ĠMil li
o ya
al a
Ġf in
ĠgÃ¼ven lik
ĠG Ã¼ven
Ġak tar
Ġinsan lar
en ler
imiz de
im ler
dÃ¼ ÄŁÃ¼
alar a
Ġkat kÄ±
Ġetk il
ĠM ustafa
ĠsÃ¶z leÅŁ
Ġist en
et ler
Ġy Ä±lÄ±
ĠY az
Ġhay van
Ä±la bilir
an lÄ±k
a dan
dÄ±k larÄ±
li ÄŁini
ade m
. )
ĠI n
Ġhizmet i
Ġy um
ĠgÃ¼Ã§ lÃ¼
dÄ±ÄŁ Ä±nda
Ġ201 4
Ġar acÄ±
ĠoluÅŁ an
Ġtama men
im li
Ä±nÄ±z a
Ġaras Ä±ndaki
L I
2 00
Ġh oÅŁ
ĠMay Ä±s
on e
ĠB ar
Ġy em
Ġal dÄ±ÄŁÄ±
Ġolma z
u ar
Ġfay d
u Ã§
Ġbulun maktadÄ±r
ĠK r
ĠyÃ¼z den
Ġhast alÄ±k
Ġsor um
en gin
ĠL is
at i
d Ã¼k
Ġekonom ik
Ġg i
b lem
l ulu
Ġsez on
i ir
g a
ĠÃĩ ok
Ġas ker
in a
Ġan lay
ĠBÃ¶l Ã¼m
Ġs ol
Ġ2 1
h a
Ġt ip
Ġseb eb
Ä±l ma
Ġ )
ler dir
erÃ§ ev
ĠM ec
Ä±nÄ±z da
ĠÃĩ ocuk
ĠT er
Ġvide o
Ġbilg isayar
Ä±mÄ±z a
lÄ±k lÄ±
ĠgÃ¼n cel
g o
Ġot el
ĠS istem
Ġek ran
ĠÃ§ ift
Ġk af
Ã¼s lÃ¼m
Ġay ak
Ġg ru
un an
Ġ2 2
ĠT ab
A y
Ġvar sa
uv vet
ĠÄ°n san
ĠkarÅŁÄ± laÅŁ
ĠdÃ¼ÅŁÃ¼n Ã¼yor
Ġkay b
Ġt ec
Ġi c
Ġkim s
ĠKur ul
iÅŁ i
ĠÃ§ Ã¼nkÃ¼
Ġsiz lere
Ġhas tan
ildi ÄŁi
ĠY aÅŁ
ĠÄ°ngil iz
ĠBak anÄ±
Ġ2 3
Ġtekn oloj
eg or
ĠD eniz
lak a
Ġver ir
ĠYÃ¼k sek
Ġes er
Ġtes is
z er
im in
s en
ĠÃ¶ yle
Ġsil ah
Ġf akat
Ġver diÄŁi
g esi
Ġyok tur
ey gam
Ġkalit eli
Ã¼n Ã¼z
m ar
Ġgel ecek
Ã¼m e
ĠkiÅŁ iler
ĠPro j
Ġiz le
alar Ä±nÄ±
Ġsat Ä±n
iniz de
k ar
ĠtÃ¼k et
tan d
ĠkoÅŁ ul
Ġbulun du
ad Ä±ÄŁ
Ġim k
Ġfir malar
Ġbu la
Ġy abancÄ±
ĠPro f
Ä±mÄ±z Ä±
Ġkend ini
Ġf or
Ġhal ine
Ġsev iy
U L
Ġk Ä±y
ĠA f
ur u
Ġkur t
ĠsÃ¶y l
ÅŁ Ä±
Ġay rÄ±ca
Ġs tr
Ġpol is
Ġp uan
it al
Ġs ik
man Ä±
Ġyer e
ad aki
Ġen d
ĠbaÅŁ layan
Ġbir kaÃ§
for man
ĠK Ã¼r
Ġdak ika
ĠgÃ¼n lÃ¼k
Ġpol itik
ĠPro gram
1 8
Ġken t
Ġkar t
ĠdÃ¼z ey
ĠÃ¼lk e
Ġkap Ä±
an Ä±m
iniz in
ĠGen Ã§
et ik
Ġal Ä±yor
Ġv az
as a
ĠO cak
r esi
ĠM er
mas Ä±yla
m ed
Ã¶ v
ĠS en
Ġbas Ä±n
lÄ±ÄŁ Ä±nÄ±
Ġyan lÄ±ÅŁ
Ġcid di
y o
Ġz aten
ĠK Ã¼ltÃ¼r
al tÄ±
ĠB as
ĠS el
l og
ĠÃ¶l dÃ¼r
Ġmik tar
eygam ber
am Ä±
Ġsonr asÄ±
ĠbaÅŁ arÄ±
ĠT el
Ġ *
ĠN isan
ĠBÃ¼yÃ¼k ÅŁehir
Ġg ar
ĠbaÅŁ lat
Ġbah is
Ã¼ÅŁt Ã¼r
dÄ±k tan
ĠalÄ±n an
Ġdurum u
in Ã§
ĠG ir
Ġf utbol
Ã¶r en
Ġtop rak
Ġb eÄŁ
Ġmem nun
Ġak ÅŁam
amp iyon
A Åŀ
Ġet miÅŁ
ĠS ev
Ġyap ar
hend is
g en
Ġ ir
E n
Ġn ok
Ġek sik
r as
aÄŁÄ± t
ĠbaÄŁ Ä±m
m Ä±yor
on s
Ġkar ak
ĠB Ã¶yle
ĠS osyal
Ġden iz
ed ek
lar Ä±m
r ol
ĠÃ§ erÃ§ev
Ġd Ã¶rt
Ġdo lar
Ð µ
ĠT Ã¼m
ĠCumhur iyet
ab il
ver iÅŁ
ĠdÃ¶nem de
ek siyon
uz ey
ÄŁu st
Ġad res
Ġboy ut
Ġyap Ä±yor
Ġo ÄŁ
ist ik
Ġmut lu
ers iz
Ġak Ä±l
ĠsÃ¼r ec
ĠgerÃ§ ekten
Ġd ek
ilen dir
lik leri
ĠG eÃ§
ĠmÃ¼z ik
tiÄŁ imiz
h at
Ġar aya
Ġyet erli
lama ya
Ġas lÄ±nda
Ġk uÅŁ
ra da
Ġi dar
Ġsonu c
ĠAt atÃ¼rk
g ar
Ġb i
mas Ä±ndan
Ġmil yar
Ġsav un
ĠM an
ak et
Ġalt Ä±na
Ä±mÄ±z Ä±n
ĠgÃ¶ tÃ¼r
Ġpro blem
Ġuy ar
Ġtar if
ĠA ÅŁ
Ġil aÃ§
am et
ÄŁust os
ĠdÃ¼ny anÄ±n
y as
Ġhat ta
st a
ĠgÃ¼n de
ĠH aber
em en
ĠÃ¶nc eki
h t
ĠyaÅŁ ayan
Ġad lÄ±
Ġinsan larÄ±n
ĠbaÅŁ Ä±na
Ġver mek
alar Ä±nÄ±n
Ġyan a
E SÄ°
dÄ±ÄŁ Ä±m
le v
Ġsay Ä±sÄ±
ĠiÃ§ ine
ĠAh met
r ek
Ġb eÅŁ
ĠFak Ã¼lt
ĠS ar
Ġtek lif
Ġon lar
ĠA ÄŁ
Ä° T
f i
Ġyar Ä±ÅŁ
Ä° K
ĠeÄŁ len
iz ik
ĠS al
al iz
an an
ĠAl t
Ġar ada
Ð °
Ġ emek
ul t
Ġdo st
Ġdurum unda
Ġar ay
Ġed ilmesi
Ġyet k
Ġal ma
Ġmed ya
Ã¼p h
Ġder ec
Ã °
Ä° L
Ġmer ak
ĠdÃ¼ÅŁ Ã¼k
Ġmerkez i
Ä±s Ä±nÄ±n
Ġmek an
eli dir
aÄŁ a
h ar
Ä±mÄ±z da
g ili
ĠiÃ§ eri
ĠÄ°s lam
k u
Ġd u
Ġtar z
Ġes as
Ġet tik
ĠÃ¼cret siz
ĠÃ§ar p
g eÃ§
n ak
ĠAr alÄ±k
Ġyaz ar
ĠB ul
z u
Ġ201 3
Ġ2 8
Ġkad ro
Ġul uslararasÄ±
Ġay Ä±nda
acak tÄ±r
s iye
Ġalan Ä±nda
yon el
Ġb una
ĠsÃ¶y lem
Ġtart Ä±ÅŁ
ĠY ak
r in
Ġz engin
c il
z Ä±m
ĠmÃ¼cad el
may Ä±n
ĠYÃ¶n et
ĠF akat
Ġim z
ĠKul lan
adÄ± ÄŁÄ±
Ġyol u
ĠMÃ¼dÃ¼r Ã¼
Ġbulun uyor
Ġes cort
ĠDern eÄŁi
cÄ± lar
Ġs oÄŁ
t aki
at Ã¶r
len me
Ġn ef
ĠÃ¶l Ã¼m
2 3
E S
Ġd oktor
Ġn akl
Ġes n
it imi
ĠK az
l isi
Ġ um
lan masÄ±
1 6
Ġol muÅŁ
Ġed iyorum
ĠS Ã¼r
ĠyapÄ±l Ä±r
ĠY ani
Ġay ar
ĠY er
1 4
Ġd aÄŁ
n eÄŁin
len miÅŁ
Ġf ak
eb ilecek
Ġf orm
ĠmÃ¼cad ele
fes yonel
ĠD ers
Ġtr ans
Ġperson el
Ġ4 0
Ġm in
tand art
ad Ä±k
ĠÃ¶ dÃ¼l
Ġmut laka
lama z
Ġper forman
ĠV E
da y
ĠaraÅŁtÄ±r ma
rat ik
len ir
ĠyapÄ±l masÄ±
Ġgir iÅŁim
Ġol un
n iyet
ĠF ir
an ka
Ġsit esi
Ġm otor
s im
2 5
ĠÃ§ at
Ġd osy
ĠbaÅŁ lan
âĢ ĺ
Ġdil e
ĠK Ä±r
p ar
ĠDem ir
Ġtoplan tÄ±
ĠdÃ¼ÅŁÃ¼n c
Ġp an
Ġil eri
Ġsab ah
Ġbah s
y Ä±l
Ã¶ ÄŁr
u c
ĠBir liÄŁi
id det
ĠG azet
Ġdev r
ĠÃ¶ÄŁrenc iler
ĠsaÄŁla mak
t on
Ġal Ä±r
li ma
Ġm obil
Ġ2 7
ĠD Ã¶n
b ur
s eniz
ĠS am
acaÄŁ Ä±z
ĠOsman lÄ±
Ã¼l Ã¼
Ġbir ey
Ġn ormal
Ġyap ma
Ã¢ r
k e
Ġden eyim
Ġat eÅŁ
ĠbaÅŁ Ä±nda
h i
ĠÃ§ev ir
Ġm Ã¼k
et e
Ġma hal
un larÄ±
Ġhay al
Ġz ev
ul lah
ĠsaÄŁ lar
t eki
Ġetk ili
Ã¼n y
Ġfiyat larÄ±
ĠÃ§oc uÄŁ
iÅŁ leri
ĠbaÅŁ kan
ur um
ĠB aÄŁ
Ġres mi
es iz
Ġar a
Ġart Ä±ÅŁ
ĠA ÄŁustos
Ãľ R
Ġ &
Ġt est
Ġkend isine
Ġnok ta
m iyor
Ġelekt rik
eceÄŁ ini
ĠseÃ§ enek
ĠÃ¶n Ã¼nde
iÃ§ ek
Ġdak ik
Ä° stanbul
Ġn ot
ĠS t
Ġbey az
ĠA lan
Ġb eri
Ġenerj i
ĠSaÄŁ lÄ±k
Ġd Ã¶k
ĠÃ§alÄ±ÅŁ malarÄ±
Ġs efer
Ġp oz
ĠSan at
Ġ201 2
ĠP ol
iy im
Ġkur al
p ek
Ġr e
Ġc il
Ġkr edi
ð Ł
eler den
Ġgerek mektedir
Ġalan da
Ġoper asyon
Ġyan dan
iy di
ĠTÃ¼rk Ã§e
o man
Ġtedav i
Ġ2 6
ron ik
Ġy ada
Ġon ay
ĠD Ä±ÅŁ
Ġay Ä±r
ev izyon
y en
Ġsonr asÄ±nda
ĠSur iye
dÄ±ÄŁ Ä±nÄ±z
ed eki
f orm
Ġsay Ä±da
ĠF ilm
alÄ± ÄŁ
ĠÄ° ÅŁte
H er
ey n
Ġb al
ĠdeÄŁer li
A P
Ġyaz Ä±lÄ±
esin deki
Ġhal de
ĠHal k
Ġbiz i
Ġsiyas i
ul masÄ±
ĠdeÄŁiÅŁik lik
ed iy
men iz
da sÄ±
ĠfÄ±r sat
Ġde fa
Ġh Ã¢
Ġal acak
Ġyarar lan
2 4
y al
m Ä±zÄ±
Ġyer i
E D
ĠÃ§ al
al im
bak an
Ã¼mÃ¼z de
Ġdol dur
eb ileceÄŁ
ĠTekn ik
ĠK Ä±
Ġu c
n dan
Ġkar arÄ±
ĠÃ¶zg Ã¼r
Ġn es
Ġner ede
Ġce p
Ġproj e
ĠiÅŁ Ã§
m ekte
Ġg ay
ĠsÃ¶y ley
Ġr ol
Ġar ama
Ġteh lik
ĠB ank
Ġ X
Ã¼y le
ĠD air
Ġr isk
ab et
ip ar
ĠFakÃ¼lt esi
ĠKad Ä±n
en Ã¼z
eli ÄŁ
1 7
Ġbelir ten
Ġd olu
ĠtaÅŁ Ä±ma
Ġay lÄ±k
Ġsen e
ĠM Ã¼z
ĠK emal
ĠK am
ĠÃĸzel likle
Ġolma dÄ±ÄŁÄ±
Ġkan al
ĠÃ¼n lÃ¼
Ġ2 9
ĠY al
Ä±z a
as Ä±yla
ĠK im
Ġb ed
b est
ĠsaÄŁlÄ±k lÄ±
Ġgerek tiÄŁini
Ġetti ÄŁ
ĠRus ya
201 7
larÄ±n Ä±zÄ±
Ġolma dÄ±ÄŁÄ±nÄ±
n am
Ġmad d
Ã¼p er
ledi ÄŁi
laÅŁt Ä±
Ġil gi
um suz
ĠAr aÅŁtÄ±r
Ġbilg ileri
ĠgÃ¶ster en
ĠD iÄŁer
ans Ä±z
Ġar asÄ±
s ay
r Ã¼b
uz ur
Ġt as
Ġyay Ä±m
Ġder in
Ġl ira
Ġhik ay
ĠS or
Ġon larÄ±n
Ä±l maz
Ġdav et
Ġf on
sÄ±z lÄ±k
b ay
Ġm ar
Ġtab i
ĠT aÅŁ
ma dÄ±
ul tan
1 3
t ak
g er
or n
ĠK Ã¶
Ġyer leÅŁ
ĠhazÄ±r lan
ĠbeÄŁ en
Ġbel ki
Ġt icaret
alar Ä±na
Ġde f
Ã¼t fen
Ġbenz er
Ġot o
Ġbit ir
ĠF at
Ġetkin lik
uk lu
Ġsay Ä±
ĠÅŁey ler
Ġal anÄ±
lar dÄ±
Ġg ol
ey le
ĠP art
Ġrek lam
ĠM Ã¼slÃ¼m
ĠiÃ§ i
ĠÅŀub at
ĠP er
s es
g Ã¶r
S on
ĠtaÅŁ Ä±
ĠyaÅŁan an
it esi
Ġon larÄ±
Ġs em
tep e
Ġyap arak
Ġ eg
ĠyaÅŁ Ä±nda
liÄŁ inde
bo ok
Ġkon um
ĠC HP
Ġk op
ter n
eceÄŁ iz
Ġb ank
ĠiÅŁ i
Ġyaz Ä±lÄ±m
ate j
Ä±l mÄ±ÅŁtÄ±r
ĠgÃ¶rÃ¼n t
Ġey lem
ĠAy nÄ±
Ġkay de
Ġev e
K ar
Ġb at
Ġal arak
lay Ä±n
da ÄŁ
I M
Ġhey ec
Ġk ok
Ġyap acak
t Ä±sÄ±
ĠsÄ±r ada
on ya
ĠsaÄŁ layan
ĠF ran
uyor um
ĠT es
ĠT icaret
Ġy avaÅŁ
lat form
ĠsÄ±k Ä±ntÄ±
Ġ ?
Ġhaf t
i a
ir ler
d al
ĠCumhurbaÅŁk anÄ±
ĠOr ta
eÅŁ ik
I R
Ġtak dir
Ġce za
ĠmÃ¼ da
as Ä±ndan
Ġuygula malar
ĠÃ§ ab
Ġaz al
Ġif ad
ĠH akk
en e
im ar
Ä±n ma
ĠbaÅŁ ta
Ġp o
Ġd el
ĠdÄ±ÅŁ Ä±
Ġoy unu
dik leri
ĠMah all
duÄŁ unu
Ġs oy
ĠS at
ĠgÃ¶rÃ¼n tÃ¼
ĠHas tan
ĠAn talya
ĠK end
Ġkarak ter
Ġy ukarÄ±
Ġs Ã¼t
Ġdem ok
ah im
Ġver iyor
er r
ĠBil g
Ġla zÄ±m
Ġg ide
art esi
ĠAÃ§ Ä±k
ĠS ah
Ġet tir
Ġk eÅŁ
Ã¢ h
br Ä±s
iv il
edi ÄŁini
ĠÅŁ eyi
ĠT ay
Ġli der
ĠÃ¼rÃ¼n leri
Ġtemsil c
ĠÃ ¢
Ġhal a
ĠF a
lÄ±ÄŁ Ä±n
Ġtal eb
ĠA ra
Ġiz ley
Ġot om
ildi ÄŁ
ĠeÄŁ er
Ġs el
Ã¶ÄŁr etim
ĠÃ¶ÄŁren ci
ĠÃ¶ ÄŁ
ĠT an
Ġkullan arak
in al
Ġd am
ĠS eÃ§
ab z
m Ã¼r
Ä± larak
d iler
Ġkat egor
ĠÃĩ in
Ġolur sa
Ġh Ã¼c
Ġp as
Ġedilm iÅŁ
ul ur
las yon
ek im
ken in
g ula
Ġs ap
s as
Ġyap mÄ±ÅŁ
Ġyer leÅŁtir
es tiv
Ġ =
ĠBu gÃ¼n
uyor uz
e x
lÄ±ÄŁ a
miÅŁ ti
ĠÃ¶ den
h aba
ĠS ayÄ±n
Ã½ n
ĠMillet vekili
. ,
Ġbelirt ilen
Ġzor un
Ġm ec
og le
lÄ±k larÄ±
Ġduy ur
liÄŁ e
Ġk Ã¼r
Ġol muÅŁtur
Ġn eler
Ġol mas
Ġd uvar
Ġserv isi
Ġtec rÃ¼b
ĠÅŁ iddet
Ġhayat a
s ine
ilm e
8 0
ĠdÃ¼zen lem
an ya
Ãĸ z
ĠG Ã¼l
ĠmÃ¼ dÃ¼r
ĠY et
ĠÃĩ ev
Ġkor un
Ä±lÄ± ÅŁ
larÄ±mÄ±z Ä±n
Ġtat il
âĢ¦ ]
Ġa ÄŁr
ĠAlman ya
E r
lan ma
en di
il ebilir
6 0
ĠbaÅŁ lar
ĠÃľr Ã¼n
Ġf il
Ġed iyoruz
al lah
ĠtaÅŁ Ä±y
Ġd Ã¼ÄŁ
Ġkav ram
ĠkarÅŁ Ä±sÄ±nda
ĠgÃ¶r mek
ra il
Â ´
ed iler
Ġbul uÅŁ
ĠL ig
Ġbir isi
Ġg Ã¼c
ĠgÃ¶r Ã¼yor
rac at
ĠC an
Ġprogram Ä±
ĠÃ¶de me
d ro
ĠUl uslararasÄ±
Ġmet in
Ġn edir
ĠdÃ¶nem inde
Ġetm ektedir
s on
Ġb ebek
r em
t iler
s por
ĠD Ã¼z
Ġart tÄ±r
Ġpro fesyonel
Ġsahip tir
ler inizi
ĠH an
Ġg Ã¼l
Ġ +
ĠsaldÄ±r Ä±
Ã Ħ
ĠiÅŁ e
Ġp iÅŁ
eler inden
Ġt ed
Ã¼ÅŁt Ã¼
Ġb ol
ÄŁ er
Ġol maya
Ġhaf if
liÄŁ in
o ogle
ĠKur um
ma da
ab iliyor
lÄ±k lar
s inin
Ġsonuc unda
ĠEs ki
Ġtav siye
ter e
z e
uz u
ãģĤãģĤ ãģĤãģĤ
B ur
Ġle z
Ġkim se
ĠaÅŁaÄŁÄ± daki
y ap
ĠSer v
da t
Ġz am
Ġd iÅŁ
h er
ĠC am
Ġh uzur
Ġk uvvet
p p
Ġzev k
ĠG Ã¶k
d Ã¼m
M er
in k
Ġyer inde
Ġik ti
Ġbor Ã§
Ġt a
k eri
Ġhay Ä±r
el t
eler le
ay la
Ġihtiy ac
Ġisim li
Ġlis ans
en g
ĠG Ã¶
ĠyÄ±l larda
il im
lan Ä±r
Ġv b
Ġtah min
Ġa ile
ĠyÃ¶net ic
Ġres im
Ġh ap
om et
Ġg az
ĠgÃ¶r en
ĠE ÅŁ
Ġ[ âĢ¦]
Ġs tandart
d it
Ġeder im
ĠdÃ¼nya da
ĠgÃ¼n eÅŁ
Ġol m
B iz
Ġn amaz
ĠaÃ§Ä±klama da
s ini
Ġel em
em mel
ĠtaÅŁ Ä±n
Ġkesin likle
ĠM ut
iy ah
la masÄ±
Ġ: )
Ġele ÅŁtir
Ġkam er
ad i
ĠyÄ±l dÄ±r
Ġkur tar
Ġtut ar
c ilik
ĠG azi
Ġh enÃ¼z
Ġn Ã¼f
iyat ro
Ġduy gu
Ġver ilm
ĠbaÄŁlan tÄ±
ĠYardÄ±m cÄ±sÄ±
Ġbun dan
Ġbir inci
ener bah
ĠÃ¶n Ã¼ne
Ġok uy
ĠAy dÄ±n
ĠalÄ±ÅŁ veriÅŁ
diÄŁ imiz
Ġay dÄ±n
Ġkend ine
ĠKan un
ma il
Ã§ esi
ab ilmek
emiz in
ĠmÃ¼ÅŁt eri
at a
Ġt Ã¼rk
ey iz
Ġan ne
Ġkil o
ĠK Ä±z
U N
ĠD av
A k
Ä±yor du
ĠYayÄ±n larÄ±
or k
Ġmod ern
Ġg al
ĠÅŁ Ã¼ph
Ġkey if
ĠÃ¼y e
dik ten
Ġol umsuz
Ġhayat Ä±nÄ±
O S
ot o
a ca
er ler
Ġhiss et
ĠÅŁ iir
ĠistediÄŁ iniz
ĠÅŁ ik
un daki
ĠBur sa
Ġkazan dÄ±r
t p
ĠmÃ¼da hal
Ġhizmet leri
leÅŁ me
Ġd ay
Ã§ ak
ĠÅŀ imdi
um ak
ipar iÅŁ
Ġdavran Ä±ÅŁ
ar e
ĠiÃ§er ik
laÅŁ ma
Ã¼st Ã¼
ÅŁt Ä±r
Ġ201 1
ĠyapÄ±l dÄ±
Ġyap Ä±m
Ġhes ab
Ġal tÄ±
da ÅŁ
r um
ek il
Ġsonr aki
Ġd emek
Ġvaz geÃ§
Ġar ac
Ġbun lar
ĠG Ã¶z
Ġal mÄ±ÅŁ
ĠsÃ¼r esi
iz asyon
alÄ± ÄŁÄ±
Ġede ceÄŁ
ĠAmer ika
ĠB al
Ä° Y
ĠN o
l iler
is e
Ġanlam da
l edik
ĠsÃ¼r ede
Ġon lara
ĠBaÅŁk anlÄ±ÄŁÄ±
b al
Ġser t
Ġm eÅŁ
z et
ĠÃ¶ÄŁr etim
at ur
Ġt az
Ġsok ak
Ġk Ä±l
G Ã¼n
ĠÄ°l Ã§e
Ġal Ä±p
Ġyet iÅŁtir
or ta
Ã¼n deki
Ġmes el
ic ari
ĠS avaÅŁ
Ġbas it
Ġem in
Ġinsan Ä±n
or e
Ġp sik
di ÄŁini
ĠÃ§ ap
Ġ6 0
t is
Ġi b
ĠÅŁ arkÄ±
Ġyok sa
Ġf izik
K K
Ġo d
ar Ä±m
Ġyer el
ĠM od
ĠkiÅŁ isel
r aman
t o
Ġl im
Ġfik ir
ez i
ĠV ak
m ur
gu lama
4 0
Ġa cÄ±
Ġson a
ers in
Ġyol c
ĠKit ap
o ca
ĠÃľ y
ĠK Ã¶y
la dÄ±ÄŁÄ±
ĠÄ° yi
Ġ ap
ĠiÅŁ bir
Ġbelirt erek
c o
Ġperforman s
Ġp op
ĠB or
/ /
Ġas la
Ġ Ä±sÄ±
Ġbelirt ti
Ġgir en
Ġkit ab
larÄ±mÄ±z Ä±
M E
ĠdÃ¼ÅŁ Ã¼r
m Ä±
liÄŁ ine
ĠSan ayi
ĠilÃ§ esinde
Ġyay gÄ±n
ĠY at
ĠY Ã¼z
ul du
y se
Ġkend isini
ĠaÃ§ Ä±
ed eni
Ġtan e
acaÄŁ Ä±nÄ±
is inden
ĠB azÄ±
tÄ±ÄŁ Ä±nÄ±
2 7
h am
Ġsal on
ĠdeÄŁ iÅŁim
ĠM ur
ĠM ev
ĠD iy
lar ca
ĠdÃ¼zen len
lay Ä±p
Ġbun larÄ±n
ĠEl ekt
Ġim za
Ġkon ut
Ġcin sel
Ġd Ã¶v
ĠV al
ce book
ĠKÄ± brÄ±s
Ġhakk Ä±
Ä±s Ä±r
ĠY ol
ĠBur ada
Ġt on
ib er
Ġfir ma
Ġ >
er ken
Ġama cÄ±
eÅŁik taÅŁ
ĠdoÄŁ um
Ġkur ulu
ĠÃ¼Ã§ Ã¼ncÃ¼
Ġgi den
Ġ us
Ġk od
Ġp ark
ĠD en
ama ya
Ġyet iÅŁ
ĠH af
ĠÃ¶n e
Ġy ola
Â Ķ
Ġb Ã¼t
ĠI I
Ġo dak
Ġs enin
m eni
Ġk lima
âĢĿ ,
ĠB r
ĠÃ§Ä±k Ä±ÅŁ
ar d
Ġ3 1
Ġh us
ĠgÃ¼n lerde
siz lik
t arÄ±
i ÄŁi
ĠH z
Ġkar Ä±ÅŁ
Ġkat Ä±ldÄ±
anÄ±ÅŁ man
lerimiz i
ĠMahall esi
Ġi ÅŁte
ĠÅŁ if
ĠyaÅŁ Ä±ndaki
Ġr ad
Ġed ip
ĠÄ° k
ĠÃľ st
ĠeÅŁ y
Ġb ec
Ġger ektir
eÄŁ ini
ĠyÄ±l da
y Ã¼z
ĠT e
an larÄ±
Ġfa iz
ers eniz
iy er
ĠR ec
ĠÃ§ oÄŁu
Â ±
Ġ ez
Ġsek s
Ġ Ä±ÅŁÄ±k
Ġer ken
Ġim kan
Ä° ÅŁ
ĠdÄ±ÅŁ arÄ±
ik let
Ġam el
ĠgeÃ§ erli
Ġf el
ledi ÄŁ
ayÄ± f
ĠinÅŁ aat
Ġk ans
ĠB unu
Ġt Ã¶ren
ey ecek
iyor du
g al
ĠKÃ¼r t
Ġk em
ost a
em iÅŁ
Ġbaz en
Ġkay det
Ġo rada
ĠeÅŁ it
Ġbas kÄ±
Ġyap maya
Ġser best
ĠuÃ§ ak
Ä±m Ä±n
lay Ä±cÄ±
ĠkiÅŁ ilerin
Ġy or
Ġmes lek
' '
Ġver ildi
oy u
ÄŁ an
LER Ä°
ob Ã¼s
ĠÄ°ngiliz ce
ro s
ĠD ur
Ġs p
ĠBay ram
ĠÄ° m
ĠOy un
ĠdoÄŁr ult
st ik
: //
s Ã¼z
O L
Ġk m
Ġb eden
Ä° Z
G en
Ġy iy
ĠSam sun
Ġbilin en
Ġol masÄ±na
ĠinÅŁ a
eÄŁ e
y et
ĠD oÄŁu
ad Ä±r
Ġkat Ä±l
Ġgenel likle
Ġk Ä±ÅŁ
t uk
Ġyas ak
Ġor anÄ±
ĠÃľ lk
v i
h is
Ġbu y
ĠT V
Ġp aket
ĠP azar
enerbah Ã§e
k Ã¶y
Ä±lÄ± Ã§
Ġm on
ĠÃ¶zel liÄŁi
ĠG Ã¼zel
alat asar
Ġtrans fer
Ġn in
Ä±n dÄ±r
Ġdah i
Ġet me
B aÅŁ
im den
ĠH em
Ġev de
Ġden etim
ĠS in
lÄ±ÄŁ Ä±na
han e
ĠÃ¶lÃ§ Ã¼
b ey
ĠÃ§ ay
alatasar ay
is iyle
Ġkar Ä±ÅŁtÄ±r
Ġen f
t eÅŁ
Ġar z
ĠkÃ¶ ÅŁ
Ġc en
ey tin
Ġyet er
k iler
ĠK ir
Ġalt Ä±n
Ġmodel leri
Ġtem in
ĠN ur
Ġkal dÄ±
d ek
ak a
Ġpro t
g r
ĠK Ä±s
b an
Ġpar Ã§a
Ġkap alÄ±
ĠâĢ ¦
n u
ĠbiÃ§ imde
Ġbun larÄ±
ĠC h
Ġa van
ĠGÃ¼ven lik
Ġyar alan
Ġal b
Ġh oc
ĠolduÄŁ una
ĠÂ ĵ
Ġkend isi
Y eni
P ro
Ġiddi a
n den
ĠyÃ¼r Ã¼y
f at
ij ital
Ġd edim
ĠSon ra
ĠCumhur iyeti
Ġb alÄ±k
Ã¼l ey
Ġsor umlu
Ġb ilir
ĠyanÄ± t
201 6
caÄŁ Ä±z
ler iniz
Ġtekn oloji
Ġetm eye
bet te
Ã§ iler
2 2
ĠA z
ĠS ultan
ĠÃ¶nc esi
Ġmark a
Ġsor unu
ĠmÃ¼k emmel
ĠÃ¶nemli dir
ab rik
Ä±yor lar
s ur
Ġi de
Ġkan un
us unu
ĠÃ§ek en
diÄŁ inde
Ġkamp any
ĠÃ¼l kenin
diÄŁ im
Ġsan a
ak ar
ĠbaÄŁÄ±m sÄ±z
D ev
ĠT asar
ĠK ah
ĠÅŁ ar
Ġkap as
Ġmes af
umhur baÅŁk
ĠdoÄŁrult usunda
ĠÅŀ ehir
n er
k ek
Ġgid erek
ĠiÅŁlem i
Ġmil li
Ġdiy erek
ĠD il
Ġis m
Ġyet kil
ĠK Ã¼Ã§Ã¼k
Ġb e
7 0
Ġek ley
Ġar ab
Ġavan taj
a i
mem iÅŁ
y er
Ġanlay Ä±ÅŁ
Ġon line
ĠÄ° ran
Ġgel iÅŁim
ĠÅŁeh it
ah met
Ġstr atej
ok ul
ati on
Ġsah n
dÄ±r Ä±m
Ġol umlu
Ä±n ar
Ġet raf
Ġnit elik
af ir
Ä° s
Ġp latform
ĠÃ¼rÃ¼n ler
Ġkal p
Ġbir im
Ġb Ã¼ny
ĠgÃ¶n Ã¼l
Ġc iv
Ġist ik
o u
ĠP eygamber
ĠiÃ§er en
ĠB una
Ġbulun ma
diÄŁ iniz
Ġd es
Ġgetir en
Ä± b
ĠÅŀ ah
ĠÃ¶ÄŁr et
ĠkiÅŁ ilik
ĠYÄ±l maz
Ġyak al
Ġyat ak
Ġf Ä±k
ĠM ed
la cak
ĠsaÄŁla yacak
Ġp la
Ä±s Ä±z
ileceÄŁ i
gÄ± Ã§
Ġt ez
9 0
ĠÃ§ iÃ§ek
ĠGÃ¼n ey
ĠV ar
Ä± c
tern atif
p t
ĠBen im
Ġotom obil
Ġ201 0
Ġet ik
ĠÃ¼zer indeki
la malar
ĠÅŁ ans
Ġvak it
il li
ĠdoÄŁru dan
ĠÄ°n ÅŁ
Ġsey ahat
ĠBÃ¶yle ce
Ġorta dan
Ġort alama
ÅŁ Ä±k
Ġb anka
Ġh ac
Ġol masÄ±nÄ±
Ġben de
E V
ĠK ara
Ġ Ð
Ġc m
Ġ19 8
es s
b in
Ġist ek
Ġrahat sÄ±z
Ġs unu
ĠG Ã¼r
ĠKan unu
ĠgÃ¶r m
Ġist ih
ĠÄ°l iÅŁ
Ġkullan Ä±mÄ±
Ġkah v
ĠÃ§ocuk lar
I L
ĠH ol
g az
ĠÃ§erÃ§ev esinde
de v
Ġtel evizyon
Ġmal iyet
Ġc Ã¼m
mak tan
ĠgÃ¶ Ã§
ĠsÃ¶yl Ã¼yor
Ġy eÅŁil
Ġtat lÄ±
A H
ĠÃ¶zellik leri
ĠB er
d Ã¼z
Ġy ans
ĠL i
Ġpar ti
Ġal Ä±m
ul muÅŁ
ez er
Ġs ivil
Ġyas al
Ġ5 00
ĠyapÄ±l mÄ±ÅŁ
Ġb a
Ġb on
lendir me
lÄ±ÄŁ Ä±yla
ĠR o
br ahim
ir ken
Ġip tal
Ġtarih li
Ġ3 5
Ġden ey
Ġt ad
ĠG erÃ§
ĠyÄ±l Ä±n
Ã¶y l
Ġn edeni
ĠS Ä±nav
Ġm o
ĠÅŀ irket
y ip
an et
A V
Ä±nÄ±z Ä±n
ĠU n
Ġi tir
Ġas Ä±l
est or
Ġyat Ä±r
Ġs uyu
ĠF il
ĠH am
Ġet mesi
ĠÃ¶n lem
Ġkullan Ä±lÄ±r
Ġak tif
ĠM ark
ik an
ĠkÄ±sm Ä±
Ġhar ika
Ġbir ik
ĠgÃ¼ven li
ĠK ol
ur ken
Ä±na cak
r ika
ĠÃ¼y esi
Ġtop lu
Ġduy g
ĠR ab
Ä±s Ä±nÄ±z
dÄ±k larÄ±nÄ±
Ġmez un
Ġsor uÅŁtur
b aÅŁ
ĠMÃ¼slÃ¼m an
Ġ ;
ĠOk ul
Ġgel in
ĠAr ap
Ãľ N
ĠK ab
ĠyalnÄ±z ca
Ġat an
ĠÄ°Ã§ in
Ġhar c
ĠiÅŁlem leri
ĠAraÅŁtÄ±r ma
ĠaÅŁ Ä±rÄ±
ĠB in
-- --
ĠbaÅŁ lÄ±yor
Ġk um
Ġp eÅŁ
ĠyÄ±l dÄ±z
Ġas keri
ĠS ek
ĠMec lis
or d
Ġbelir li
ĠRec ep
Ġkend ilerine
Ġgru b
Ä±lÄ± ÄŁ
acaÄŁ Ä±nÄ±z
y Ä±z
2 1
Ġs aha
f Ä±
ĠgeÃ§ ti
ÅŁ ey
A Z
in t
Ġh ad
ĠS adece
dÄ±ÄŁ Ä±na
ĠF iyat
Ġar ka
lar daki
Ġuc uz
u di
ĠolduÄŁ umuz
Ġdok un
ĠM et
Ġetk isi
alar dan
ĠA m
ĠM as
Ġtan Ä±ÅŁ
Ãĸ n
b en
ĠF r
on g
Ġoto matik
Ġt eb
ĠS ab
Ġkur ulan
Ġl Ã¼tfen
Ġ Ä±ÅŁ
Ġs ine
Ġal maktadÄ±r
n ik
Ġkullan dÄ±
2 6
Ä± f
Ġr eh
Ġay Ä±
ĠÅŀ eh
Ġyap Ä±mÄ±
ĠH ukuk
l iyet
an e
Ġfin ans
Ġpoz isyon
M M
az a
Ġz ayÄ±f
Ġg ur
Ä±l masÄ±na
ĠÃ§ oÄŁ
S K
Ġh t
O r
ĠT am
ĠgÃ¶r sel
am ik
Ġuy an
201 5
ĠMÃ¼ hendis
ĠyÃ¶netim i
Ġt ers
Ġih racat
ĠgÃ¶r dÃ¼ÄŁ
ĠT at
Ġr ed
Ġbak Ä±ÅŁ
ĠAK P
ĠSay fa
Ġs ipariÅŁ
Ġ â
Ġbas k
ĠeÄŁ itimi
g ah
Ġtut uk
v ik
ĠC ez
ab ilm
emiz e
Ġyap arken
ĠaÃ§Ä±kla dÄ±
ĠÃĸr neÄŁin
malar Ä±nÄ±
Ġheyec an
ĠKon ya
k siyon
Ġgel miÅŁ
0 5
ma mÄ±ÅŁ
ĠH Ã¼s
ĠTarih i
Ġv it
Ġbir den
Ġyer ini
ĠdÃ¼ÅŁÃ¼nÃ¼yor um
ĠolduÄŁ unuz
Ġrak am
iy a
ĠÃ§Ä±k art
ĠaÄŁ aÃ§
c eli
ĠS Ä±r
Ġbec er
' s
ĠsoÄŁ uk
q u
ar lar
em esi
2 8
k on
acaÄŁ Ä±m
Ġolan lar
ĠtanÄ± t
Ġsorum luluk
Ġkur u
ĠgerÃ§ekleÅŁtir ilen
ĠÄ°ngil tere
ĠgeÃ§ iÅŁ
ĠmÃ¼ÅŁter iler
Ġdikkat e
D Ã¼n
ĠBaÅŁ bakan
ow s
ĠHav a
ĠÅŁ ub
Ġan aliz
Ġbelir len
ĠvÃ¼c ut
ler im
Ġa f
Ġgiz li
ĠseÃ§ en
ĠÃĩ ar
Ġs eni
ĠS ig
Ġt icari
Ġdek or
Ġikti dar
ĠÄ° dar
Ġolma dan
ĠD ir
m ut
Ġb eb
ĠTr abz
m edi
Ġt he
Ġin ce
it er
L AN
ĠY unan
den iz
ĠgÃ¼ven ilir
Ġz ih
ĠkÄ±r mÄ±zÄ±
et iyle
et leri
man Ä±zÄ±
s it
ĠY an
Ġkat Ä±lan
L Ãľ
lulu ÄŁu
D A
ĠuÄŁr aÅŁ
ic iler
E l
ĠB it
Ġkurt ul
Ġt uz
ar Ä±nda
las ik
Ã¼le bilir
ĠdÃ¼ÅŁ man
Ġdetay lÄ±
ĠT ah
Ġan d
Ã¼mÃ¼z deki
Ġs Ä±ÄŁ
Ġdir en
Ġbek liyor
LÄ° K
laÅŁ Ä±k
ĠÄ°s rail
ĠFat ih
ĠBil gi
anÄ± t
Ġbel ediye
Ġgelen ek
iÅŁ ehir
ĠÂ »
ĠTay yip
ĠyÃ¼z yÄ±l
ĠÃ§Ä±k Ä±yor
ĠÅŁ iÅŁ
ĠdÃ¼zen li
iyor lar
D P
Ġtoplan t
Ġver i
Ġolduk larÄ±
A v
Ġanlam Ä±na
ĠYÄ±l dÄ±rÄ±m
ar lÄ±
Ġsay fa
Ä±r lar
ir e
C I
Ġ9 0
Ġ8 0
enc er
Ã¼m Ã¼ÅŁ
ti on
ĠÃ¶nc eden
ĠKan unun
Ġayr Ä±ntÄ±
amaz an
ĠP lan
Ġver ecek
u f
ĠÃ¼st Ã¼n
teÅŁ em
ĠB eÅŁiktaÅŁ
Ġs uy
Ġolan ak
Ġt rafik
ĠS h
ĠakÄ±l lÄ±
lulu ÄŁ
Ġc es
U M
ĠiÃ§in deki
Ġin s
ĠÃ§alÄ±ÅŁ tÄ±r
Ġor du
ya da
4 5
Ġar an
om p
l al
Ġkom p
Ġherk esin
ĠyaÅŁ at
in o
b aÅŁÄ±
p aÅŁa
Ġkal Ä±n
Ġek ib
AB D
ĠG oogle
Ġyak alan
Ġede bilirsiniz
Ġbulun dur
larÄ±mÄ±z a
ÅŁ ap
ĠS av
ĠO dasÄ±
Ä±lÄ± p
m esinin
ĠsÃ¼r eci
ĠMur at
s eri
Ġt anÄ±n
liÄŁ inin
eceÄŁ im
ĠÅŁ Ä±k
Ġsit e
ĠbÃ¶lg ede
ĠEk onom
o j
ĠÄ° ki
ĠA dÄ±
Ġer iÅŁ
Ġek len
ĠsaÄŁ lam
ur o
Ġd is
ĠÅŁik ayet
n Ã¼n
ĠhazÄ±r lanan
g re
H ay
ĠÃĸÄŁr etmen
ĠaÃ§Ä±kla malar
la mÄ±ÅŁ
ĠBank asÄ±
A s
or din
Ġf er
lÄ± dÄ±r
Ġ ðŁ
u ÄŁu
Ġzorun lu
abileceÄŁ iniz
ĠolduÄŁ undan
Ġdiy en
ĠÄ°ÅŁ let
imiz den
Ġht tp
at or
ĠN akl
* *
ĠÅŁ er
s em
Ġser may
ĠÃ¼lk ede
Ġb Ã¼r
Ġtar Ä±m
aÅŁ Ä±r
ĠnÃ¼f us
Ġk us
Ġbay ram
ĠsÃ¶y leyen
Ġtoplum sal
ay asa
Ġihtiy acÄ±
Ġelekt ronik
Ġtakdir de
Ġsay gÄ±
ĠY as
Ġaz alt
ĠkonuÅŁ ma
ind ows
lan mÄ±ÅŁtÄ±r
ĠdÃ¶n Ã¼ÅŁtÃ¼r
alt Ä±na
ĠÃ§ oÄŁun
ad et
ĠM a
ĠtaÅŁÄ±y an
Ġhak im
Ġbilg ilendir
g iler
k ol
lan d
B il
Ġuz at
ET Ãĸ
Ġm us
ĠÃ§ev re
erj i
ĠUz un
ĠPart isi
Ġs im
ĠFran sa
Ġist edik
Ġdur dur
ĠÃĸn c
Ġtur izm
m elik
Ġkes im
ĠS p
em be
c isi
Ġmet re
ĠHas an
ĠsÄ± v
an d
c iler
ĠR e
âĢ ĵ
Ġr ast
Ġad Ä±nÄ±
ĠKo ca
ik i
ĠM ad
ĠS Ä±nÄ±f
z eme
ĠÃ§ocuk larÄ±n
ĠD est
alar Ä±ndan
eb iliyor
on d
Ġmah kem
st it
Ġede bilir
ĠS it
ley ici
ĠS ey
Ġad r
ĠyaÅŁam ak
? âĢĿ
is iniz
Ġsiyas et
ĠP at
w it
Ġkor uma
k adaÅŁ
iy iz
Ġg r
ĠulaÅŁ abilirsiniz
Ġal ternatif
Ġamel iyat
E s
Ġil av
ĠKom isyon
larÄ±n daki
Ġ| --
es e
ĠyaÅŁ ama
ĠÅŀ u
ĠteÅŁ kil
ĠÄ° brahim
ĠkÃ¶ k
Ġkullan mak
it y
ĠbÃ¶lg esinde
ĠhÃ¼kÃ¼m et
ĠÃ¶n gÃ¶r
Ġson una
ĠBak anlÄ±ÄŁ
E B
r ed
201 4
ĠBiz im
l iyoruz
Ġ7 0
Ġis mi
Ġver ilir
ey a
ĠY ine
ĠM ac
Ġfiyat Ä±
Ġcil t
ĠG rup
Ġzaman larda
ĠÃĩ aÄŁ
ok ulu
Ġs iyah
ar y
ĠÃ¶ y
Ġfilm i
Ġbin lerce
Ġ eb
Ġl ir
c Ä±k
Ġbil iyor
Ġit hal
ĠÃĸÄŁr en
ĠI rak
Ġitibar iyle
Ġdem ektir
ĠDo lay
ĠÃ¶z en
ĠA dana
Ġdem ir
ĠC en
Ġver miÅŁ
c ret
t el
ĠÃ§alÄ±ÅŁ masÄ±
ĠdÃ¼ny aya
Ġdur uÅŁ
Ġedilm iÅŁtir
Ä° Åŀ
Ġi ken
Ġbed el
Ãĸ N
1 00
Ġmah k
Ġed iliyor
Ġsah ib
Ġr oman
Ġc ok
ĠbÃ¶lg e
Ġver gi
duÄŁ umuz
Ġdolay Ä±sÄ±yla
Ġhas sas
Ġak adem
an tep
Ġh Ã¼k
Ġilg ilen
3 5
ĠÅŁ ampiyon
Ġvur gu
Ġ x
ĠT Ä±p
ĠalÄ±n masÄ±
Ġs af
Ġef sun
ĠB ek
ĠMuh am
Ġt Ä±r
ï¿½ï¿½ ï¿½
ĠG ru
G eÃ§
h one
ĠÅŁek er
Al lah
mas yon
Ġm Ã¼t
E k
ĠalÄ±n dÄ±
ĠS aat
Ġtarih leri
ĠbÃ¶lÃ¼m Ã¼
ĠBÃ¶l Ã¼mÃ¼
ĠM ey
Ġg Ã¼cÃ¼
ĠkiÅŁ iye
ĠTop lan
Ġf i
Ġyap abilir
E v
il ecektir
Ġgit ti
Ġs Ã¼s
k ur
m os
Ġn ak
ĠOt el
Ġdep o
ĠF enerbahÃ§e
Ġiht im
err ah
ĠY en
Ġinsan larÄ±
ÄŁ ur
ĠMah kem
Ġ Ġ
ĠT eÅŁ
er im
Ġh alÄ±
Ġbah Ã§
ĠkaÃ§ Ä±r
b on
it ap
r Ã¼k
ĠE d
Ġnakl iyat
ĠgÃ¶rÃ¼l en
Ġsun ul
oÄŁ az
em li
Ġbulun ur
Ġhas ta
ĠÅŀ ampiyon
ĠB at
Ġteh dit
Ġol malÄ±dÄ±r
Ġyer li
uyu cu
Ġkayde d
ĠÃĸÄŁr etim
Ġnerede yse
Ġkom ut
Ġgetir di
us una
Ġok un
Ġproj esi
Ġuygula masÄ±
Ġb Ã¶
Ġmis afir
ĠK Ä±lÄ±Ã§
ĠH ep
lar i
ĠsonuÃ§ larÄ±
ĠO nun
ĠC ev
2 9
Ġlez zet
ĠN asÄ±l
Ġbar Ä±ÅŁ
ĠdeÄŁ eri
Ġ' '
Ä±yor sanÄ±z
Ä° l
Ġkit abÄ±
di p
Ġdest eÄŁi
Ġder nek
s ul
dro id
Ġy alan
Ġi ade
ĠÃ¼rÃ¼n Ã¼
t Ã¼rk
eb e
Ġh ediye
Ġot obÃ¼s
s inde
ĠÃ¼niversit e
et rol
ĠB atÄ±
cÄ± lÄ±ÄŁÄ±
Ġun sur
Ġoyun c
Ġay n
yas al
ĠT he
ĠF et
Ġsan ayi
ĠyaÅŁ ay
es ef
Ġ19 7
Ġm Ã¼l
Ġmut fak
Ġfayd alan
! !
ad eniz
lem eye
ĠH ast
os ya
ĠF in
Ġ4 5
ĠBak an
lerimiz in
vek il
k Ä±r
ay Ä±m
Ġal maya
Ġhep si
l eki
Ġincel em
Ġetti ÄŁini
ĠkadÄ±n lar
ur k
ma masÄ±
ĠB Ã¼tÃ¼n
s ev
Ġil Ã§e
Ġetk ilen
i dir
Ġi di
duk larÄ±
Ġbenz eri
ĠkarÅŁÄ± lÄ±k
m ede
eli ÄŁi
ĠÄ° let
ĠZ aman
ĠÃ¶ t
la ya
Ġsistem leri
Ġorgan izasyon
ik at
Ġr ef
ĠyÃ¶n lendir
l or
l y
tan siy
emiz i
ĠG alatasaray
Ð ¾
ĠA c
ĠO f
Ġyar Ä±
Ġbirbir inden
0 3
ĠyÄ±l lar
ĠGÃ¼n eÅŁ
ah tar
f il
Ä±lÄ± ÄŁÄ±
ĠamaÃ§ lÄ±
Ãĸz el
ĠÃ¶nc elikle
Ġdiz i
S S
O K
de b
ĠG Ã¼nÃ¼
Ġmen s
ĠBil im
ĠM adde
Ġdurum larda
ĠiliÅŁk iler
an ti
Ġr en
ĠBÃ¶l g
tan Ä±n
ra ma
orn o
Ġpop Ã¼ler
ĠhÄ±z la
m Ä±z
ĠHay at
Ġ200 9
ĠS a
ĠaÃ§ Ä±lan
ĠI s
Ġsig ort
Ġola caÄŁÄ±nÄ±
Ġg em
ĠH iÃ§
Ġkend ilerini
I K
Ã§ uk
ĠaÃ§ Ä±lÄ±ÅŁ
ĠK uzey
k al
Ġp il
an g
Ġt it
Ġv s
ĠHakk Ä±nda
ĠgÃ¼n dem
Ġboz uk
l iliÄŁi
ĠKom ut
ĠÃ§alÄ±ÅŁ Ä±yor
ĠvÃ¼c ud
ĠD in
Ġist iyoruz
Ġt erk
ĠkÄ±s Ä±m
ĠÃ¶r n
Ġsiz ler
K ur
Ġkr iz
Ġkon ak
Ġbahs et
ĠP KK
ĠyÃ¼r Ã¼r
ĠW eb
Ġmak am
Ġsanat Ã§Ä±
Ġus ul
ĠDÃ¼n y
aÄŁ Ä±n
ĠÅŁ ark
T Ãľ
ĠsaÄŁ lÄ±yor
akk abÄ±
Ġkap s
Ġden g
ĠsÃ¼r en
ĠM us
ĠkÄ± ya
ĠTur izm
ĠÃ§ eki
ĠgÃ¶ ÄŁ
Ġyap abilirsiniz
ĠB oz
ĠhazÄ±r lÄ±k
Ġak tiv
Ġbir er
Ġeder ken
ĠiÅŁ in
ĠTar Ä±m
L U
mak la
Ġyen il
Ġdedi ÄŁ
iy el
Ġb log
Ġw ww
Ġted bir
Ġuy um
is a
Ä±y dÄ±
ula cak
ĠAr tÄ±k
ĠiÅŁ Ã§i
Ġ3 6
Ġd ey
ama m
Ġd iler
ĠiÅŁ ler
alim anÄ±
enk ul
Ġsit eleri
ĠhÃ¼c r
B ak
T ek
k el
tÄ± cÄ±
Ġfon ksiyon
ĠS Ã¼per
Ġimk anÄ±
Ġkor u
ĠE f
Ġf atur
Ġsev k
C Ä°
ĠtÃ¼k etim
ĠulaÅŁ Ä±m
Ġincel en
Ã¼ley man
uk at
i ce
Ġsab it
Ġdem iÅŁ
ĠHastan esi
0 2
Ġyetk ili
ĠAma Ã§
ĠyaÅŁ adÄ±ÄŁÄ±
Ġrenk li
ĠD Ã¼ÅŁ
m esinde
b il
ileceÄŁ ini
O B
Ġalb Ã¼m
ĠBeled iy
lan Ä±yor
Ġdo laÅŁ
oc k
ĠK art
Ġgel diÄŁi
Ġk u
ĠiliÅŁ ki
Ġyen ilik
Ġt uÅŁ
eb ilmek
ezer v
et er
Ġhayat Ä±
5 3
Ġyol cu
E tik
Ġbir leÅŁtir
ey h
ist in
LAR I
Bu gÃ¼n
ĠA N
ĠHat ta
ĠbakÄ±m Ä±ndan
an dar
k Ä±rÄ±
Ġb l
any o
ĠA R
Ġekip leri
Ġc oÄŁraf
Ġtemiz lik
L E
Ġor man
Ġd aÄŁÄ±t
Ġmuh al
tr en
Ġiyi ce
Ġol maktadÄ±r
Ġ Q
ĠyÄ±l Ä±ndan
ĠDo Ã§
ĠBun lar
Ġmahal l
Ġkurum sal
ĠK iÅŁ
edek tif
m it
Ġfay da
ĠÃĩ elik
Ġbilim sel
Ã¼l mesi
ĠÄ°n ternet
ĠaÄŁ z
ĠpaylaÅŁ Ä±m
ĠyÃ¼z ey
men t
ĠEr kek
ĠF Ä±r
ru f
Ã¶r Ã¼
Ġnokta da
Ġyap Ä±sÄ±
Ġgel ip
Ġistiyor sanÄ±z
ĠEm niyet
ĠgÃ¶z altÄ±na
ĠparÃ§ asÄ±
Ġal g
ĠgÃ¶rÃ¼n Ã¼m
Ġkil omet
Ġkaydet ti
Ġyum uÅŁ
ĠDeÄŁ er
Ġak l
Ġbilin Ã§
di v
ĠEs cort
ĠarkadaÅŁ lar
o ur
om b
Ġist edi
Ġh Ä±r
ĠH Ã¼kÃ¼m
ĠY ok
Ã¼b Ã¼
ĠÃ¼y eleri
ĠyaklaÅŁ Ä±m
S O
Ã¼st r
Ġmuh teÅŁem
Ġortam da
lay abilirsiniz
Ġver mektedir
Ġhar it
in da
ĠC em
Ġbir ini
Ġt en
ĠBah Ã§
Ġsak in
ĠÃ¶ÄŁrenc ilerin
Ä±l maktadÄ±r
ro p
ĠYÃ¶netim i
ĠAb d
iler den
unuz u
alat ya
k iÅŁehir
ĠÃĸ mer
D aha
Ġkur s
ĠsÃ¶y len
ĠgÃ¶z lem
Ġt oz
an akk
ĠÃľ Ã§
de mir
Ä° lk
Ġtep ki
ĠF eder
ĠD E
ĠbiÃ§ im
0 6
ir v
Ġoyun larÄ±
Ġs e
el l
Ġmadde si
Ġol malÄ±
ĠtaÅŁ Ä±m
0 9
il la
Ġ200 8
Ì Ī
Ġfak tÃ¶r
Ġil anÄ±
ĠÅŁ aÅŁÄ±r
Ġr efer
ĠaÅŁ a
ĠProgram Ä±
v a
ĠP eki
ĠHÃ¼s eyin
is iklet
ĠC uma
ĠYap Ä±lan
lik ler
Ġpo tansiy
ig it
er t
v ar
ĠK il
ĠÅŁ im
ilm ez
se f
ti c
Ä±l masÄ±nÄ±
Ġk uzey
Ġed ilecek
Ġdar be
Ġdemok ras
S I
ra g
Ġkal ma
Ġgenel inde
Ġm ekt
ĠB alÄ±k
ĠyaÅŁ lÄ±
Ġgir di
ĠkarÅŁ Ä±lan
ektÃ¶r Ã¼
in sel
Ġof is
Ġmem ur
ĠYÄ±l dÄ±z
ac k
R O
ĠKay mak
o li
0 7
Ġsev in
iy an
alan dÄ±r
ĠHizmet leri
ĠteÅŁ vik
E ÄŁer
ĠoÄŁ lu
Ġyar g
lÄ±ÄŁ Ä±nÄ±n
ĠbÃ¼y Ã¼m
ĠkÃ¼ltÃ¼r el
ĠyaptÄ±k larÄ±
ken t
bak Ä±r
ĠsektÃ¶r Ã¼nde
Ġk Ã¼t
wit ter
ekt eyiz
Ġmev zu
lÃ¼ÄŁ e
Ġbur aya
Ä±k lÄ±
ĠyÃ¼k Ã¼m
ĠÄ° le
ulu ÄŁ
ĠaÅŁaÄŁÄ± da
anakk ale
Ġs am
ĠÃĩalÄ±ÅŁ ma
ĠA L
Ġk Ä±zÄ±
Ġev den
Ġr estor
4 4
ÃľR K
0 8
Ġilav e
olo g
u lar
Ġtamam lan
Ġak lÄ±
ĠKam u
Ġkad Ä±nÄ±n
Ġy e
en n
ĠgÃ¶ k
ĠÄ°ÅŁ leri
ĠEn d
Ġay kÄ±rÄ±
Ġk ere
Ġsun an
Ġkol tuk
ĠÄ° h
ĠgeÃ§ er
eniz i
abileceÄŁ i
ĠKur umu
ĠiÅŁ lev
Ġfir masÄ±
Ġal abilirsiniz
Ġk oc
ĠDolay Ä±sÄ±yla
ilm esini
am in
ĠyayÄ±n lanan
Ġsebeb i
Ġel b
ile ÅŁtir
ah h
ĠAlt Ä±n
od rum
Ġgru bu
ti b
Ġyar gÄ±
Ġd anÄ±ÅŁman
0 4
ĠG er
ĠHaz Ä±r
ĠS il
Ġal dÄ±m
Ġg Ä±da
ĠpiÅŁ ir
Ġsun uyor
Ġbir inin
ab ilen
ĠdÃ¶nem i
Ġist ediÄŁi
ĠDeÄŁ iÅŁ
Ġbelir lenen
aya cak
ĠS tr
ĠFr ansÄ±z
ĠmÃ¼ hendis
Ø §
Ġkayn aÄŁÄ±
ĠbugÃ¼n e
Ġsev gil
Ġadet a
ĠP aÅŁa
Ġa j
ĠÃ§aÄŁ Ä±r
iv as
Ġmod eli
ÅŁ iv
Ġyol uyla
m is
T op
ya j
Ġger eÄŁi
ĠY eÅŁil
ĠbaÅŁk anÄ±
ĠkÃ¶ pek
ĠKon s
ĠCez a
Ġul usal
Ġd aÄŁÄ±
Ġilg inÃ§
y Ä±m
ĠM ic
Ġd ijital
t Ä±n
ĠKar ar
ar bakÄ±r
ĠB ab
Ä±s al
Ġgel eceÄŁ
ĠLi gi
Mer haba
Ġo p
um p
Ġoran Ä±nda
Ġs arÄ±
ĠÃĩ Ä±k
ĠkÃ¶ t
Ġbiri dir
af er
" ,
Ġsebeb iyle
Ġkans er
Ġkar a
i ma
Ġdev rim
Ġbilg iye
ĠgÃ¶rÃ¼ÅŁ meler
Ġkul ak
ĠaÄŁr Ä±
mas Ä±n
Ġtab lo
Ġhiss ed
ĠB oy
Ġkolay ca
ĠM en
of t
Ä°n san
Ġesn asÄ±nda
um artesi
ĠÄ°let iÅŁim
caÄŁ Ä±m
ĠL e
ĠBir leÅŁ
ĠdÃ¼z elt
ut ma
ĠmaÄŁ az
ĠF er
ĠaÃ§Ä± dan
ĠMuham med
el ek
Ġy edek
el li
lÃ¢ m
al esef
o o
Ġbit k
7 5
ĠG Ã¶n
Ġalt yap
Ġkalit e
ĠGru bu
ĠgÃ¶ l
Ġbu z
Ġal ak
ĠÃ§aÄŁ rÄ±
Ġkay Ä±p
ĠeÅŁ i
I Åŀ
Ġyan Ä±na
Ġhap is
Ġyer den
ĠgÃ¶ster ir
sÄ±z Ä±n
m Ã¼ÅŁtÃ¼r
Ä±y Ä±z
it ir
ĠR eh
Ġsan ki
ĠgeÃ§ ici
ĠT emiz
Ġkon ser
Ġbuy ur
3 1
Ġd edektif
Ġbeklen t
Ġistih dam
as Ä±ndaki
ĠbÃ¼ny esinde
c ar
ĠS Ã¼leyman
Ġp lak
ĠJ ap
ĠKay nak
ĠalÄ±n arak
Ä° S
K on
ler ken
ĠkonuÅŁ an
Ġindir im
ĠÅŁ ef
Ġbirbir ine
on un
T C
c k
ĠP ark
Ġd ip
ĠNe w
ww w
ĠÃ§aÄŁ r
Ġd an
âĢ ¢
Ġkar tÄ±
Ä±l dÄ±ÄŁÄ±nda
U z
l iye
Ġyen ilen
N e
ĠF estiv
d o
Ġfutbol cu
tay Ä±z
Ġtut an
ĠÃĸ l
ĠEr z
lan da
Ġet ki
Ä±la caÄŁÄ±
ĠÄ° kinci
ĠGenÃ§ lik
ĠS e
Y ap
Ġbel ediy
at istik
Ġk aÅŁ
Ġf abrik
Ġsor unun
Ġbir leÅŁ
Ã§ Ä±k
Ġan lama
Y A
k im
Ġi P
Ã¼mÃ¼z e
ĠSistem i
v el
ĠA pp
Ä±la v
Ġet tim
Ġkim lik
ebilir iz
g ulan
Ġend iÅŁ
Ġ eh
Ġhak larÄ±
ĠFa cebook
Ġkullan an
ĠgeÃ§ tiÄŁimiz
ĠgeliÅŁ meler
r al
ĠÃ¼retim i
ĠG erek
Ġy ansÄ±
Ġp ort
ĠyÃ¼ksel t
lerimiz e
Ġy av
ĠdÃ¼ÅŁ en
ĠfÄ±k r
an Ä±z
ĠMÃ¼dÃ¼r lÃ¼ÄŁ
m esiyle
Ġnef es
ĠÅŁeh r
ĠM ersin
Ġtak v
un ma
O M
ĠC ih
Ġbek lem
An kara
ĠkÄ±ya fet
ĠgÃ¶rev i
Ġben ce
Ġum ut
ĠA j
ĠKur t
3 6
Ġbey an
ĠLis ans
ĠDÄ±ÅŁ iÅŁleri
n an
iÃ§ i
C umhurbaÅŁk
Ġsin ir
ĠkadÄ±n larÄ±n
alar la
Ġyar Ä±n
ĠÅŀub e
ĠAr ab
ma dÄ±ÄŁÄ±
Ġk uma
ĠÃĩ ek
ĠgÃ¶ster iyor
Ġad alet
duÄŁ unuz
Ġinsan lara
ĠÃ¼lk emizde
Ġuy arÄ±
ĠtanÄ± tÄ±m
malar Ä±n
Ġser gil
y alÄ±
Ġb esin
ediÄŁ iniz
Ġboy u
Ġm Ã¼r
ĠSon uÃ§
ĠgÃ¼n e
Etik etler
Ã¼m rÃ¼k
Ġde pr
U l
Ġist erseniz
v eya
Ġu laÅŁtÄ±r
ta cak
Ġn iyet
Ġb oya
ot el
ĠY urt
ĠdÃ¶nÃ¼ÅŁ Ã¼m
ĠK up
ĠÄ° d
or i
an Ä±k
ĠiÅŁbir liÄŁi
ĠP ort
Ġver ilmesi
ecek siniz
Ġsay ede
Ġg Ã¼r
Ġanla tan
is yen
Ġon dan
k ir
Ä° z
ĠM on
ĠG Ã¶l
il ip
Ġsorun larÄ±
Ġyer lerde
ĠR amazan
Ġet miÅŁtir
ĠyaÅŁ adÄ±ÄŁ
ĠkÃ¼r esel
Ã¼l Ã¼k
ĠUy gulama
Ġd ini
Ã¼l dÃ¼
ver en
Ġ Ä±r
Ġan al
ĠbÃ¶lÃ¼m Ã¼nde
ĠProj esi
Ġmal zeme
ĠY ah
Ã¼ ce
m r
Ġn as
s iyet
Ġ Ä±
Ġal Ä±nacak
Ġalan larÄ±
ĠÃĸ dÃ¼l
la yacak
Ġherkes e
ĠElekt rik
ilm esine
Ġkon uk
ĠM obil
Ġhast alÄ±ÄŁ
Ġ 01
h o
m m
Ġm imar
Ġkav uÅŁ
ĠÃľ cret
ĠbÃ¼y Ã¼
z i
Ġh a
dÄ± lar
ĠBel ki
ey erek
Ġfayd alÄ±
ĠbaÅŁla yacak
ĠUl usal
ĠR um
ĠkarÅŁÄ± ya
Ġma aÅŁ
Ġzam anÄ±
Ġ3 00
Ġmad di
Ġtak Ä±mÄ±
Ġuy umlu
Ġpan el
Ġok uma
Ġver erek
ĠKar adeniz
ĠbÃ¶yle ce
Ġkapas it
im le
lerin deki
ĠyÃ¼z Ã¼nden
Ġedildi ÄŁi
Ġitir az
l iliÄŁ
ĠK av
Ġedilm ektedir
Ġt or
Ġbil en
og raf
Ġide al
Ġk aÄŁÄ±t
Ġmes le
ĠhatÄ±r lat
Ġnum ara
Ġtab ii
Ġsig orta
S B
ĠgÃ¼n ey
Ġhav uz
Ġver meye
ĠmÃ¼dahal e
Ġkom isyon
Ġgi dip
ĠB ayan
9 9
ley erek
ĠRab b
6 6
Ġmet rek
par ator
r y
ĠgÃ¶r Ã¼r
ĠÃĸÄŁr enc
d eri
ĠG az
Ġyok tu
em eyen
ĠdeÄŁ in
dik lerini
ĠYÃ¶net meli
d iniz
Ġsey ir
Ġyap Ä±lab
Ġgid iyor
Ġbulun mak
S en
Ġre j
Ġz ek
ĠÃ¼st Ã¼ne
g at
ĠyapÄ±l dÄ±ÄŁÄ±
ĠBaÅŁ vur
c er
ĠC adde
E C
Ġolduk larÄ±nÄ±
Ġbur adan
ĠGazet e
ildi ÄŁini
Ġcez asÄ±
andar ma
ĠÃ§Ä±k mÄ±ÅŁ
ĠF ETÃĸ
Ġbelg esi
Ġins anÄ±
r is
Ġel bette
ĠM em
o lar
ĠÄ°nÅŁ aat
res s
ĠAra Ã§
O Äŀ
ĠÄ°ÅŁ lem
Ġu fak
ĠaracÄ± lÄ±ÄŁÄ±yla
ĠOr gan
Ġfizik sel
t eri
Ġfir mamÄ±z
r ay
ĠDest ek
ĠY a
Ġiz len
g Ã¼r
sta gram
Ġola sÄ±
ren s
Ġifad elerini
Ġs a
T L
lay abilir
F A
ec iler
Ġgit mek
Ġbul mak
Ġek ibi
201 3
S iz
ĠÃĸ Z
ĠVak fÄ±
us unun
f Ä±r
ĠÃ§ elik
da s
ot ik
ĠÃ¶r t
ĠAmer ikan
Ġk up
ĠEn stit
b ek
ĠÅŁ unlarÄ±
Ġgenel de
Ġsun ulan
Ġbar Ä±ndÄ±r
ĠgÃ¶r dÃ¼k
Ġkom ÅŁ
Ġst at
ek s
l iy
ĠâĢ Ŀ
ir im
E Y
Ġd oy
Ġf alan
Ġar alÄ±k
Ġtasar ruf
elen dir
ĠÄ°l gili
Ä° D
Ġt iyatro
Ġbula bilirsiniz
T Ã¼m
aÄŁ Ä±nÄ±
iye de
Ġdav a
ĠDÃ¼z en
ĠS es
Ġedil ebilir
ler di
Ġkal Ä±cÄ±
Ãĩ ok
Ġt Ä±p
Ġede c
lÄ±k ta
Ġar alarÄ±nda
m u
lik te
Ġgerek tiÄŁi
ĠyÃ¼rÃ¼y Ã¼ÅŁ
Ġman z
ĠG ar
ĠN ot
t uÄŁ
az artesi
g Ã¼
Ġkullan ma
Ġedeb iyat
duÄŁ um
l es
dan Ä±
ĠV an
ĠK ut
Ġist if
l os
ĠÃ¶lÃ§Ã¼ de
Ġyap Ä±n
ĠAk deniz
Ġmut luluk
ĠW indows
Ġhalk Ä±n
Ġsur etiyle
Ġyak Ä±ndan
ĠgÃ¼Ã§ lendir
Ġv ir
E O
Ġkeyif li
Ġt o
ĠAn a
Ġu st
em ey
lÄ±ÄŁ Ä±nda
en a
ĠK endi
Ã¼y e
Ġoda sÄ±
ĠBÃ¶l ge
ĠiÅŁ leri
ĠH erk
ĠHar eket
. âĢĻ
us uz
ĠalÄ±n Ä±r
Ġgelenek sel
Ġmar uz
Ġdakik ada
ĠuÃ§ uÅŁ
Ġkal mÄ±ÅŁ
ĠN um
ĠO ÄŁ
i e
Ġol mayacak
Ġtan esi
Ġyol unda
ĠbaÅŁlan gÄ±Ã§
ĠT un
ĠGÃ¶r ev
Ġkor umak
Ġnes il
ĠF ark
ĠAs ya
ok ol
ĠeÅŁ ya
Ġmevcut tur
ĠgÃ¼nde me
ara j
ĠB undan
Ġmet al
Ġp ratik
ey di
m uyor
Ġkir alama
el al
ĠMÃ¼ ÅŁt
ĠÄ°s p
ĠÃ¶n de
am Ä±ÅŁ
k o
meli dir
Ġb iy
Ġdil ek
Ġkolay laÅŁtÄ±r
ĠK amp
ĠdÃ¼zey de
Ġgerek Ã§
Ġad landÄ±r
Ġac il
Ġm oda
Ã¶ p
ĠM Ä±sÄ±r
ãģĤãģĤãģĤãģĤ ãģĤãģĤãģĤãģĤ
ĠLis esi
Ã¢ y
ĠM u
Ġdur uma
Ġar aba
ĠÃ¼ret ic
Ġyan gÄ±n
Ġp r
Ġm m
B el
ĠD ik
T R
ĠM esel
Ġtarih inden
ĠTel efon
ayÄ± t
ĠmÃ¼mkÃ¼n dÃ¼r
id er
ĠF ar
. [
ey se
as i
Ġyet en
U S
Ġo b
ĠB e
Ġola caÄŁÄ±
ĠM HP
eb i
Ġkim yasal
ĠbÃ¼t Ã§
Ġis lam
ĠHay van
Ù İ
an larÄ±n
ĠD on
ĠF utbol
k Ä±n
t ek
dÃ¼ÄŁ Ã¼nÃ¼
ĠNakl iyat
Ġbelirt ildi
or at
ĠTasar Ä±m
ĠbaÄŁ Ä±r
m ekten
r aÄŁÄ±
y eni
Ġtaraf tar
ĠRes mi
dÄ±ÄŁ Ä±ndan
m elerin
ĠE x
Ä±l dÄ±ÄŁÄ±nÄ±
Ġbur s
ĠhazÄ±r la
ĠTem el
Ġkah raman
ĠÃĩev re
Ġ est
ĠgÃ¼ven liÄŁi
Ġbab asÄ±
Ġkonu larda
Ġhar f
3 4
Ġfazla s
Ġk anÄ±t
it ler
DÃ¼n ya
ec ik
ĠsÃ¼r Ã¼cÃ¼
ĠkaÃ§ Ä±n
Ġbilg isi
ĠK ent
ĠTur k
ar ik
ĠR apor
am i
fer ans
ĠGazi antep
ĠT R
Ġfin al
ĠkarÅŁÄ±la ÅŁtÄ±r
ĠEn erji
ĠYat Ä±rÄ±m
lan dÄ±ÄŁÄ±
Ġkal b
Ġma den
ĠÃ§Ä±k acak
s atÄ±
Ġd edik
ĠaraÅŁtÄ±r malar
A Äŀ
Ġ3 4
Ġy Ã¶r
ĠBey az
ĠbaÄŁ Ä±ÅŁ
Ġesn af
Ġmuh ab
O T
ĠA ile
Ġsiz leri
Ġdevlet in
Ġciv arÄ±nda
Ġver imli
ĠÃ§ek ti
ĠgÃ¶ m
Ġz emin
Ġr ahmet
ĠÃ¶nc esinde
Ġeder iz
ĠgerÃ§ekleÅŁ en
Ġtut ul
ĠyÃ¶n Ã¼nde
Ġkit l
ĠolduÄŁ um
ĠÃ§alÄ±ÅŁmalar Ä±nÄ±
ĠgÃ¼n den
ĠEÄŁ itimi
Ġhat a
y iz
ĠA lev
ĠYap Ä±
Ġmak al
ĠC ar
Ġy itir
Ġyar Ä±m
ĠgÃ¶ster di
ĠÃ§ocuÄŁ un
Ġkat Ä±
Ġoyn ay
Ġkus ur
Ġ ep
mak tÄ±r
Ġmens up
ak lÄ±
ĠtÃ¼r Ã¼
ĠdÃ¼ÄŁ Ã¼n
Ġver im
Ġk imi
at Ä±n
T ar
Ġr ezerv
ĠkÃ¶ pr
Ġk lasik
Ġol dum
ĠgÃ¼n Ã¼mÃ¼zde
Ġ4 8
l eket
Ġdar b
Ġrak ip
Ġkal ab
usu f
o ok
ĠÃľy esi
ĠMak in
Ġ3 2
ĠAs lÄ±nda
y dÄ±
ĠMes lek
tÄ± lar
B MM
Ġsavun ma
Ã½ r
Ġr Ã¼z
Ġl ink
Ġvar lÄ±k
ĠgÃ¼n ler
Ġuy ku
Ã¼k s
ĠK af
ĠgÃ¼n Ã¼n
Ã¶ ÅŁ
Ġyol da
ĠÅŁey in
Ġgetir mek
tÄ±ÄŁ Ä±mÄ±z
d iye
lat ma
Ġ200 7
et on
Ġt ap
Ġkar go
Ġb aba
ses uar
ĠDem ok
Ġver iler
Ġt ali
Ġkap an
ĠTrabz on
Ġkims enin
ĠÄ°s mail
la v
ĠgeliÅŁ miÅŁ
ĠKul Ã¼bÃ¼
Ġnumar alÄ±
) :
z at
ĠD e
ur ta
6 5
ĠOr man
Ġgerek se
ĠKar ÅŁ
ĠGerÃ§ ek
s ar
Ä±n an
Ã¼l Ã¼r
b el
Ġes k
Ġsel am
Ġgal ib
ĠP ay
Ã§ isi
s oy
ul l
Ġkon for
ad Ä±n
Ay rÄ±ca
Ä±l mak
ĠsÃ¶z leri
Ġat Ä±k
ĠeÄŁ it
la z
ĠP iyas
ĠyaÅŁ adÄ±k
is iz
ma at
ak istan
! âĢĿ
Ġad resi
ĠF u
Ġkal Ä±r
Ã¢ t
Ä±sÄ± t
ĠSek ret
or g
Ġer iÅŁim
eÅŁ me
ĠD oÄŁan
Ġel inde
ĠSavaÅŁ Ä±
Ã¢ m
ĠBilg isayar
tif ik
ĠHav alimanÄ±
ra Ã§
Ġp orno
Ġtab an
ĠsÃ¼r edir
k or
Ġar ayan
Ġd Ã¼ÅŁtÃ¼
ĠS em
Ġmakin esi
Ġol mayÄ±
d Ã¼n
es ir
ĠyaÄŁ mur
deb iyat
I I
ip lin
Ġ200 0
ĠkÄ± v
ĠÃ¶n Ã¼mÃ¼zdeki
M adde
3 8
Ġyap tÄ±m
ĠÅŀah in
eÄŁ ine
ĠeÄŁlen celi
Ġg Ã¼z
Ġyiy ecek
ĠT Ãľ
Ġhar iÃ§
Ġkullan Ä±lmasÄ±
ĠbazÄ± larÄ±
ĠT al
ĠsonuÃ§ lar
Ġkazan Ã§
Ġmey v
y u
Ġb Ä±
er al
Ġada yÄ±
ĠUz man
Ġan ahtar
Ġsev en
Ġ5 5
Ġtoplum un
Ġden ir
ĠKo Ã§
ĠDÃ¶n em
Ġden k
ot os
3 9
Ġl ok
p at
Ġyer ler
Ġan i
Ġgar ant
ĠÃ¼rÃ¼n lerin
ĠTr ump
ĠAr t
ĠKal k
b eri
o od
ĠÃ¶rgÃ¼t Ã¼
Ġhus us
ĠAr kadaÅŁ
Ġh ab
ĠÃ¼st Ã¼nde
Ġmey dan
Ġgec ik
Ġalan larda
ĠR ad
Ġbirey sel
ĠÃ§eki ci
tÄ±k larÄ±
ĠdÃ¶v iz
Ġver me
G Ä°
eler ek
caÄŁ Ä±na
akar ya
l us
Ġmu ay
O n
Ġmillet vekil
ÅŁam ba
Ġ Ã¼m
Ġk a
ĠMÃ¼z ik
Ġdal g
igit urk
r ip
on a
Ġgay ret
o ut
o lat
Ġgit tik
D oÄŁ
ub e
Ġrek abet
ĠkarÅŁÄ±la ÅŁt
m ara
ĠS un
Ãĩ ocuk
ĠhayÄ±r lÄ±
at es
Ġuygula malarÄ±
cÄ± larÄ±n
ĠÃ¼lk eler
Ġ0 9
d Ä±ÅŁ
Ġday alÄ±
ĠÃ§ or
Ä° V
ĠServ is
av a
ĠV at
lem esi
ĠT ut
Ġay et
ĠMec lisi
ĠKon trol
lÄ± ca
ĠAn n
ad ir
Ġma y
A C
ĠyapÄ±l maktadÄ±r
Ġan Ä±nda
. '
Ġist an
ĠKoca eli
ĠmaÄŁ dur
ĠGir iÅŁ
ĠgÃ¶rÃ¼n Ã¼yor
Ġgur ur
ĠR ek
Ġd i
Ãĸ ÄŁr
ÄŁ in
Ġolma dÄ±
gil iz
3 2
ĠB Ä°R
ĠÅŁirket i
Ġkullan dÄ±ÄŁÄ±
Ġtasar Ä±mÄ±
Ġreh ber
A d
ĠAn droid
ĠÃ§ Ã¶k
Ġpar mak
Ä ł
B Ã¼yÃ¼k
ĠOn lar
ĠÃ¼cret i
ĠBÃ¶l gesi
dav a
ĠbaÅŁla mÄ±ÅŁ
O P
uyor du
Ġtelefon u
ĠGÃ¶r Ã¼n
Ġsorun lar
ĠK uvvet
ad Ä±m
ĠsaÄŁ lÄ±ÄŁÄ±
ĠP r
ĠsÃ¼reÃ§ te
Ġp etrol
an n
Ì §
ĠT eb
ĠyÃ¶n etmen
Ġb ez
Ġola ÄŁan
Ġin c
ĠTekn oloji
Ġkay dÄ±
ĠsÄ±nÄ±r lÄ±
Ġeg z
tif ak
ĠProj e
ma mak
Ġist is
Ġp eygamber
un cu
ĠEs kiÅŁehir
Ġn em
Ġger il
Ġadam Ä±
ĠÃľ N
ĠD ep
Ġmadde sinin
ĠM alatya
ĠAÄŁ Ä±r
Ġkal em
Ä° ST
Ġsun maktadÄ±r
ĠOr du
Ġbil et
Ġzaman Ä±nda
Ġser g
Ġhan Ä±m
rim enkul
malar Ä±na
ĠY ÃĸN
E y
as Ä±z
lan acak
iler inden
ĠY Ã¼r
Y Ä±l
Ġinan Ã§
Ġol unca
is ar
Ġzor luk
Ġbahs ed
Ġev lilik
Ġsev gi
G el
eceÄŁ iniz
ĠY aÄŁ
Ġnokt asÄ±
Ġkend imi
Ġv ad
Ġuygulan an
ĠM ez
Ġtip i
ĠÃ¶nc elik
Ġzaman lar
Ġma Ã§Ä±
el le
Ġyet ersiz
Ġbulun masÄ±
Ġk er
ĠÃĩ ift
Ġ6 5
ib e
Ã¼t Ã¼
ĠbaÅŁla dÄ±m
Ġay akkabÄ±
Ġar tan
S Y
Ġken ar
Ġol may
Ä±y Ä±m
? "
ĠiÅŁlet me
ac Ä±k
ĠE ge
Ġhad is
iyet ini
ĠOk u
ĠbÃ¼y Ã¼me
Ä° Ã§
ĠiÅŁ gal
ĠdeÄŁerlendir me
Ġhal en
ĠÅŀ en
ĠÃ§ocuk larÄ±
Ġbu lama
ĠkarÅŁ Ä±lÄ±ÄŁ
m uÅŁtu
Ġd osya
Gen el
ĠyÄ±l lardÄ±r
Ġ3 8
Ġyap Ä±p
Ġr o
anlÄ± ur
ĠkÄ±y met
Ġyans Ä±t
Y az
ĠÃĩ anakkale
os k
Ġalan lar
Ġdon anÄ±m
ĠsÄ±v Ä±
l Ã®
Ġli g
h ab
y ken
Ġtedav isi
Ġev len
en de
Ġsev g
ĠsÄ± fÄ±r
d un
ĠOt o
. (
Ġkul Ã¼p
ER SÄ°
Ġk Ã¢
Ġonun la
Ð ¸
Ġfark Ä±
Ġmey ve
ĠsÃ¶zleÅŁ me
Ġistan bul
Ġenf lasyon
Ã¼rk en
ĠyÄ±l Ä±nÄ±n
mem esi
Ġan tren
Ġyet enek
ĠdÃ¼zen leme
ro m
Ġderec ede
Ġalt Ä±nÄ±
Ġnet ic
Ġp u
Ġanlam Ä±
ĠTop lum
ĠÃ§alÄ±ÅŁ mak
mey ecek
u larÄ±
Ġoda s
Ġgerek tiÄŁ
Ġhas ar
bal aj
ĠEt kin
ic k
ĠaÅŁ ama
ĠAv ust
ĠZ aten
Ġmuh af
Ġ201 9
ket bol
ans iyon
ĠgÃ¶ÄŁ Ã¼s
m ediÄŁi
Ġed ilerek
ĠF otoÄŁraf
Ġsek si
f ik
Ġden et
A MA
r iyet
Ġc as
Ġdikkat li
Ġkullan Ä±labilir
ra dan
am Ä±yor
Ġac aba
Ġkazan an
Ġyap manÄ±z
ĠbaÅŁ lÄ±klÄ±
3 7
Ã ©
ÅŁ embe
ĠE uro
Ġmiktar da
ĠcÃ¼m l
am Ä±nÄ±
ley in
ĠsÃ¼r ece
: )
Ġk Ä±sÄ±t
ĠM imar
lar Ä±mÄ±
Ġolabilir siniz
ĠSat Ä±ÅŁ
Ġkil it
ĠyaptÄ±ÄŁ Ä±mÄ±z
Ġp ah
ĠÄ° Åŀ
A ma
ek er
Ġhast alÄ±ÄŁÄ±
Ġi ÅŁt
Ġm ini
ĠT Ã¼r
ĠApp le
ay as
ĠÄ°s lÃ¢m
ĠÅŁah Ä±s
Ġte mas
l iyorum
ĠH ik
ĠÃ§alÄ±ÅŁ Ä±r
den in
Ġi man
Ġpazar lama
Ġok ur
ĠbaÅŁ Ä±
Ġgel mesi
larÄ±nÄ±z a
ir li
Ġyap Ä±lÄ±yor
ĠN eden
k ul
Ġz eytin
ĠS arÄ±
Ġkar ma
eb ilen
Ġgel mektedir
Ġf estiv
ab ilmesi
ĠTes is
ĠAn ayasa
Ġbit ki
Ġdiye bilir
Ù Ħ
Ġan Ä±
T ESÄ°
lan arak
Ġkelim e
s av
Ġal masÄ±
Ġhay ran
Ġg ayet
U T
d ing
ĠE b
ĠD aÄŁ
Ġfir malarÄ±
G Ã¶r
eler iyle
Ġfark Ä±nda
Ġolma masÄ±
ĠBayram Ä±
O y
Ġgeldi ÄŁini
ĠD uy
Ġmal i
Ġcam i
Ġnum arasÄ±
Ġsine ma
Ġt ok
Ġih al
ĠBun larÄ±n
ĠMahkem esi
Ġay da
Ġah ÅŁap
dar oÄŁlu
ĠS Ä±
ĠS ok
ĠterÃ¶r ist
Ġko du
Ġ0 2
ĠT or
ĠoluÅŁtur an
Ġtam ir
ĠyÄ±l larÄ±
Ãĸ R
ĠP an
d iy
ĠsÄ±r t
umhur iyet
Ġkr ed
Ġoyn an
Ġsiz lerle
Ġspor cu
Ġhis se
umuz un
mal Ä±sÄ±nÄ±z
Ġ ..
B aÅŁk
Ġkuma ÅŁ
à ¸
ĠdÃ¼ÅŁÃ¼n ce
ĠP erson
Ġmez ar
n uv
Ġ15 0
Ġm Ã¼s
imiz le
H A
s lan
Ġkullan abilirsiniz
Ġic in
ĠgÃ¼n ah
Ġhal kÄ±
Ġy ur
K ay
ĠÃľ zer
Ġz inc
Ġsun um
C HP
Ġd iyet
ĠG Ä±da
p e
Ġak Ä±ÅŁ
ĠyÃ¶n el
3 3
g ari
Ġy oÄŁ
Ġv asÄ±
ĠDiy arbakÄ±r
ĠH Ä±z
Ġsebep le
A t
laÅŁt Ä±ÄŁ
ĠiletiÅŁim e
it i
ĠYar Ä±ÅŁ
ĠK Ã¼t
Ġyolc uluk
Ġyaz Ä±k
ec t
D r
d oÄŁ
abilir ler
Ġbel ge
Ġb isiklet
Ġs Ã¼n
Ġkon us
U K
ĠgÃ¶ster mektedir
ĠAf rika
ĠdeÄŁ ildi
Ġp rim
ĠiÅŁ yer
Ġf et
ĠÃĸr g
V e
un lar
S an
Ġd ili
ĠOr tak
Ġvur gula
ĠÃ¼ret ilen
larÄ±nÄ±z Ä±n
unuz un
ir in
uy um
Ġma vi
ĠBaÅŁk anlÄ±ÄŁ
lar ken
5 5
Ġalan a
ĠkaÃ§ ak
ĠS ivas
ĠV ol
Ġtur ist
ĠTak Ä±m
ĠsÃ¶z Ã¼
Ġtes cil
ĠKar ab
Ġsaat lerinde
Ġp v
ley ecek
Ġbin a
ĠaÄŁ Ä±z
19 9
ĠÃ¼st Ã¼
Ġst ok
r d
ĠÃ§at Ä±ÅŁ
ĠÃ¶zgÃ¼r lÃ¼k
Ġincel eme
ul maz
H al
ĠgÃ¼zel lik
Ġu laÅŁtÄ±
Ã¼m an
ĠK arak
ĠKÃ¶y Ã¼
Ġimz alan
ĠgÃ¶r dÃ¼m
Ġihtim al
Ġsun mak
leÅŁtir me
ĠsoruÅŁtur ma
ĠsÃ¼rec inde
ĠYal ova
4 8
ma d
ĠÃ§ ey
201 2
o un
u g
Ġsoru lar
ĠC on
ĠCadde si
Ġek mek
if e
ĠdÃ¼zen lediÄŁi
ĠEv et
Ġhayat ta
ĠulaÅŁ mak
ĠHak an
Ġf ar
Ġsistem inin
it ika
Ġem niyet
b ank
Ġtaraf tan
ĠÃ¼y elik
Ġhareket e
ĠAbd ullah
ama ÅŁ
ĠyÃ¶ntem i
uÅŁtur ucu
j en
Ġkey f
ĠFil istin
Ġb acak
al og
p osta
w e
lay Ä±nÄ±z
eb ilm
ĠP as
ĠServ isi
ĠKup asÄ±
Ġ3 7
ĠD ek
Ġkir al
ĠK ayÄ±t
Ġiy ileÅŁtir
ĠseÃ§enek leri
t esi
ĠÄ° t
Ġist ey
ĠA D
ĠT iyatro
Ġm ir
ĠP sik
s is
Ġanlat tÄ±
bah ar
Ġidar i
lem iÅŁ
Ġs Ã¼per
ĠhÃ¼k m
ĠA dam
Ġsan Ä±rÄ±m
is indeki
men izi
Ġbey in
ĠAÅŁ aÄŁÄ±
ĠiÃ§in den
ĠarkadaÅŁ Ä±
b Ã¼s
ĠteÅŁekkÃ¼r ler
anlÄ±ur fa
Ġkah ve
an dev
Ġs Ä±z
Ġmillet vekili
ĠbaÄŁÄ±m lÄ±
lu p
ĠÂ ·
Ġver ici
p az
b iy
Ġy edi
l edim
S ev
Ġp encer
Ã¶l y
Ġo lamaz
ĠY usuf
ĠsÄ±k Ä±
ĠTekn oloj
ĠKr edi
iler de
S aÄŁ
T r
Ġbak tÄ±ÄŁ
ĠBaÅŁ bak
op er
suz luk
Ġsil in
Ġic ra
ĠKÄ±s a
Y ak
ĠsÃ¼r eli
ĠHast alÄ±k
Ġsen dik
Ä±b bi
de s
uk ur
ĠMut fak
u da
ĠÄ° talya
ĠÃ§ek iyor
Ġkend inizi
ĠE debiyat
ĠB Ã¼l
Ġrahat lÄ±kla
ĠMod el
ler deki
Ġdo la
Ġev ine
ĠoluÅŁ ur
Ġ200 6
m esinden
Ġp en
Ġdemok ratik
Ġyap rak
Ġav ukat
Ġyas a
Ġmalzem eleri
Ġmem leket
Ġkork u
ĠDair e
Ġmas aj
Ġpotansiy el
Ä±ÅŁ Ä±n
ĠM at
Ġmak yaj
c Ä±nÄ±n
Ġmik tarÄ±
Ġolmak tan
Ġmon taj
Ġar asÄ±na
Ġproj eler
ĠÃ¶ÄŁrenc ileri
ĠÃ§ek im
k as
Ġdepr em
ĠB odrum
ĠC umartesi
Ġy Ä±la
Ġt raf
Ġaras Ä±ndan
Ġg rafik
Ã¼l Ã¼yor
T E
Ġmerkez inde
Ġol malarÄ±
abilir iz
yas por
v eÃ§
ĠÃ§alÄ±ÅŁ maya
Ġl og
ĠG Ã¼Ã§
Ġkay bol
An cak
Ġmec lis
Ġimk Ã¢n
ĠiP hone
Ġses siz
Ġaz Ä±ndan
ĠT av
laÅŁ Ä±m
Ã¼k le
Ġmuh tem
Ġay larÄ±nda
r az
is in
ĠsatÄ±ÅŁ a
la Ã§
Ġtaz min
Ġen te
y az
ĠyÃ¶n de
ĠFin ans
Ġsit esinde
ĠB Ãĸ
Ġma alesef
Ġmerkez ine
um an
ĠtaÅŁÄ±m ak
T A
Â »
Ã§ u
LÄ° Äŀ
ĠÃ¼rÃ¼n Ã¼n
ĠÃ§oc uÄŁu
ĠÅŁey leri
4 7
ĠSon r
Ġdu a
st r
Ġak r
ĠKay seri
ĠÃĩ ay
Ġbul du
ĠDair esi
Ġsay g
Ġhal i
p a
Ġet tiler
? ?
Ġv ade
Ġhat t
M S
Ġg elerek
Ġcen az
Ġislam i
Ġ19 6
ĠFestiv ali
m edik
Ġbak an
Ġhakk Ä±nÄ±
Ġte or
ĠÄ° r
al el
Ġgar anti
Ġver ilecek
ĠÅŁek li
ĠilÃ§ esi
eÄŁ iyle
ĠolduÄŁ unda
Ġsermay e
ĠseÃ§ imi
ĠgÃ¶rÃ¼yor uz
m ini
ĠS iyas
Ġkon s
ĠS ez
ĠkÃ¶ p
4 9
4 6
ud ak
Ġmas raf
Ġik ram
ĠF en
K al
av i
Ġsan ay
ĠyukarÄ± da
ĠK es
ĠD etay
Ġg e
ilm elidir
Ġma il
ĠE mek
Ġhal ka
ĠiÅŁlem ler
Ġt l
ĠKomisyon u
Ġkalit esi
il t
ĠÃ¶ mÃ¼r
Ġal Ä±cÄ±
Ġat tÄ±
Ġuyar Ä±nca
Ġf orum
Ġgel ince
az en
ĠTar af
A ÅŁ
B Ã¶l
Ġal kol
Ġpar lak
ĠN az
ek tif
ĠsÃ¶y lemek
m eyin
ĠN ec
ĠgÃ¶rev lendir
ĠmaÃ§ Ä±nda
Ã§ ek
Ġt ef
te in
ĠD oktor
ĠOr t
Ġbek lenen
Ġv ize
ĠV ali
uv alet
ot er
ÅŁ e
ĠN et
Ġk Ã¼Ã§
ĠH es
meler ini
ĠedeceÄŁ iz
ĠYunan istan
k un
ĠK AR
l d
Ġfel sef
m us
Ġv ah
Ġdair e
iy aret
ep e
Ġr Ã¶
eb il
ĠS orum
Ġhaber leri
Ġsan al
ĠTab i
Ġelem an
Ġnokt asÄ±nda
G E
Ġbiz lere
l Ã½
ĠAÅŁ k
ul uyor
Ġb Ã¶yl
ĠÃ§ il
ĠÃ¶ mr
ĠÄ°l Ã§esi
Ġkazan dÄ±
Ġ $
Ġbil eÅŁ
l ob
ĠA da
ĠK en
c Ã¼k
in er
lan maktadÄ±r
Ġbes lenme
Ġyer leri
Ġhayat Ä±n
E vet
o tiv
Ġherk esi
Ġengel li
ĠK uÅŁ
ĠÃĩ Ã¶z
Ġyap masÄ±
Ġhizmet ler
est er
unuz a
ĠkeÅŁ f
Ġark ada
Ġce maat
ĠL im
Ġm Ã¼n
Ġ7 5
Ġmas a
Ġdayan Ä±klÄ±
ĠgÃ¶rÃ¼l Ã¼r
A A
ĠÅŁeh rin
Ġy el
ĠÄ° mam
ĠN er
Ġih ale
ĠAk adem
CumhurbaÅŁk anÄ±
aÄŁ Ä±na
Ġdekor asyon
ab ilmektedir
laÅŁtÄ±r ma
Ġister im
ay ol
ĠM ek
Ġakadem ik
am uk
ĠbaÅŁ lama
Ġkat Ä±ldÄ±ÄŁÄ±
ĠFeder asyonu
Ġ0 8
ĠH emen
Ġd eri
ĠPar is
Ãľ n
n deki
i di
Ġd Ã¼k
il l
duk tan
landÄ±r Ä±cÄ±
Ġt ev
Ġs ex
Ġar az
M AN
iniz den
Ġsoru larÄ±
ĠD ayan
Ġincel ey
ĠbaÅŁk anlÄ±ÄŁ
Ġtehlik eli
Ġmev sim
d Ã¶n
Ġhak lÄ±
Ġyarat Ä±cÄ±
Ġyap Ä±yoruz
Ãľ lk
A h
G S
ĠV ide
te matik
ĠyumuÅŁ ak
ĠgÃ¶z Ã¼k
s h
ĠUy gula
Ġver siyon
Ġev rak
Ġgel miÅŁtir
ĠDoÄŁ um
I Z
t h
Ñ ģ
Ġol gun
ĠaÃ§ ma
LI K
ĠÃĸÄŁren ci
c Ã¼sÃ¼
Ġsun duÄŁu
Ġb oÄŁ
Ġs Ã¶
Ġist edim
ĠDern ek
ĠKr al
ĠÅŁif r
Åŀ u
Ġkar iyer
las man
ĠSÃ¶z leÅŁ
Ä± d
ili ÄŁini
ĠN ev
ĠkayÄ±t lÄ±
Ġbes len
ĠâĢ ¢
ĠAd alet
Ġev inde
T K
Ġerkek ler
Ġh ekim
Ġn ih
Ġm or
em em
uÄŁ la
ĠP azartesi
ĠÅŁart larÄ±
j i
ĠyÃ¼rÃ¼r lÃ¼ÄŁe
ĠÃ¼st len
ken ti
ĠfÄ±r satÄ±
ĠmÃ¼l k
y aman
Ġolay Ä±
Ġs esi
Ġbak Ä±n
ĠT BMM
Ġd Ã¼r
Ġsaat leri
ĠÃ¶ÄŁrenc ilere
ĠAl Ä±nÄ±r
pr iz
Ġol manÄ±n
ĠsÄ±nÄ±r larÄ±
Ġ2 50
Ġ4 00
Ġkarar lÄ±
Ġmik ro
ĠH D
ĠS aÃ§
ĠyÃ¼z lerce
ĠH Ä±r
Ġz irv
ĠM Ã¼cad
Ġ3 3
eÄŁ inde
Ġan lar
ac h
Ġir ade
Ġbon us
ĠgÃ¶r dÃ¼
Ġin ci
ĠBak Ä±m
Ġd ans
Ġsit emiz
div en
Ġsat Ä±ÅŁÄ±
Ġemek li
Ġoy unun
Ġcen net
LÃľ M
caÄŁ Ä±nÄ±z
ĠkatkÄ± da
Ãĸn c
Ġpsik olojik
la j
Ãľ L
T V
Ġsaat i
ĠÃĩar ÅŁamba
Ä±l maya
tik ten
ĠO p
Ġder ken
ik lik
Ġkal Ä±p
Ġsah ne
Ġal ama
Ġiz lemek
Ġon ur
ĠgÃ¶ster mek
Ġpv p
ĠTop lam
ĠD ar
AS I
eb ilmesi
Ġduy arlÄ±
ĠbÃ¶l Ã¼n
ĠgeÃ§ iyor
ĠadÄ± yla
esin ce
Ġyap mayÄ±
Ġf uar
Ġkonu lar
Ġik lim
ĠÄ±ÅŁ Ä±ÄŁ
Ġadam Ä±n
Ã¼n ce
Ġ Ã¼s
ĠKap Ä±
et te
ĠÃ¶nem i
Ġyum urta
ĠeÅŁ liÄŁinde
ĠK aÃ§
av uz
Ġo lama
Ġ lan
ĠD alÄ±
tr e
g resi
ĠÃĩ ak
b Ä±
ĠÃľr etim
Ġsig ara
cÄ± larÄ±
Ġar zu
ĠgÃ¶rev l
iÄŁ e
Ġolab ilecek
ĠFir malarÄ±
ĠRo ma
Ã¼r riyet
ĠdoÄŁ an
ij inal
Ġbir liÄŁi
m Ã¼yor
Ã¼m in
ĠZ ira
Ġbun lara
Ġdel il
ĠM ik
ĠKullan Ä±cÄ±
am Ä±n
Ġettik leri
ĠEm re
de si
ind istan
iler le
Ġbeklen iyor
p h
nam e
ĠG al
Ġor anda
ĠiÅŁlet im
Ä°z mir
ĠkiÅŁ iyi
ĠdÄ±ÅŁ Ä±na
Ġs eri
dÄ±r ma
ĠHaber leri
ĠÃ§ ik
luk la
Ġsay Ä±sÄ±nÄ±n
ĠkarÅŁ Ä±mÄ±za
Ġalan Ä±na
Ġann esi
ĠO per
ĠÅŁ Ã¼k
ĠF ik
ĠH ey
Åŀ imdi
ig ht
A F
ĠA Y
ĠgÃ¶r dÃ¼ÄŁÃ¼
Ġkullan Ä±larak
ĠÅŁeh ri
ĠSistem leri
Ġf ant
Ã¼y Ã¼
MA D
Ġb anyo
Ġar ÅŁiv
ĠÃ§Ä±k arÄ±
av uÅŁ
Ġko ordin
ĠsektÃ¶r Ã¼
lin ik
Av rupa
Ġver dim
ĠbaÅŁla dÄ±ÄŁÄ±
Ul uslararasÄ±
Ġy uvar
Ġdurum un
Ġyap Ä±labilir
ĠbÃ¼y Ã¼sÃ¼
an ta
ĠBay rak
a il
Ġs om
ĠY abancÄ±
Ġsun ar
ĠD iz
Ġtali mat
ley ip
ĠkÄ±r Ä±k
Ġmes leki
Ġend Ã¼str
eÄŁ inin
ĠÃĸz gÃ¼r
Ġkamer a
Ġboz ul
ĠT witter
ut an
Ġmekan iz
Ġm uk
lÄ±k tan
ir aat
Ġisteyen ler
ĠOy sa
ĠK UR
Ġbir ÅŁey
ilen in
ĠH anÄ±m
Ġbl ok
Ġetm ez
ĠvatandaÅŁ lar
Ġolm uÅŁtu
T Ä°
Ġisten en
Ġn o
ĠTab ii
Ġkilomet re
ĠayrÄ±ntÄ± lÄ±
ĠM el
Ġetkil ey
a a
ĠM etin
Ġekonom i
ĠDoÄŁ ru
Ġeg emen
I S
Ġkur mak
aÄŁ Ä±nda
Ġbah ar
Ġolmas a
Ġbul an
laÅŁ masÄ±
ĠKaz an
ĠaraÃ§ larÄ±
ĠbaÄŁ lam
aÄŁ Ä±nÄ±n
ĠsÃ¼r Ã¼m
Ã§ Ä±n
ĠÃ¼lk elerin
I T
ĠÃ§alÄ±ÅŁmalar Ä±na
ĠkarÅŁ Ä±n
Ġbilg ilere
Ġed ici
Ġp rens
Ġal gÄ±
ĠÃ§iz gi
ĠgeniÅŁ let
ĠB ana
ĠE c
Ġah lak
tÄ± lÄ±
Ã¼ÄŁ Ã¼n
Y ar
ĠkullanÄ±l maktadÄ±r
ĠhÃ¢ l
manÄ±z a
iv e
ĠEnstit Ã¼sÃ¼
ĠDoÄŁ al
Ġtep k
ĠsaÄŁlan masÄ±
ĠKÄ±lÄ±Ã§ daroÄŁlu
ĠC ep
Ġv al
ĠiÃ§eri ÄŁ
Ġarac Ä±n
ĠGel iÅŁtir
Ġbilm iyorum
Ġnes n
ĠEn gel
Ġh ediy
Ġsab Ä±r
umuz u
Ġders i
ĠÄ°l Ã§
ĠdeÄŁiÅŁik liÄŁi
lama yÄ±
liÄŁ iyle
ĠgeliÅŁ en
Ġger ide
Ġren gi
Ġbul uÅŁtur
ĠyayÄ±m lanan
Y aÅŁ
Ġve fat
tÄ±k tan
Ġgazet ec
ĠO lay
uÅŁ u
ĠÃ¶z et
ĠyapÄ±l mÄ±ÅŁtÄ±r
Ġma ter
Ġver ilmiÅŁtir
Ġhafta da
amÄ±z da
ĠY Ä±lÄ±
Ġprogram larÄ±
Ġprot okol
S el
Ġn ez
âĢĻ âĢĻ
Ġtan Ä±k
Ġbildir di
ĠgÃ¶rÃ¼n ce
Ġvat an
ĠgÃ¶rÃ¼l mektedir
ĠM AD
tiÄŁ im
y eri
Ġoyun lar
ĠY emek
Ġan ti
ĠEv e
ĠmaÃ§ ta
Ä±k Ã¶y
Ġkem ik
Ġ ec
Ġmuhal ef
ĠdÃ¼ÅŁ Ã¼ÅŁ
ĠZ or
Ġnakl iye
Ġil ah
ur a
ĠaÃ§ Ä±ÄŁ
de d
l on
Ġz ehir
la malarÄ±
Ġbak Ä±mÄ±
ĠÃ§ Ã¶p
ĠPol is
st e
ĠÅŁ unu
ĠKar ÅŁÄ±
ĠÅŁ eye
Ġek lem
Ġkapsam lÄ±
ĠÃ¶ÄŁren mek
ĠOk ulu
Ä±ÅŁ lÄ±
19 8
ĠO da
S er
Ġgetir diÄŁi
g Ä±t
Ġsev er
E LÄ°
Ġkan at
ĠMÃ¼hendis liÄŁi
sev er
Ġ3 9
Ã¼ yada
ĠGÃ¶ ster
ĠF orum
Ġev et
Ġko v
ĠTem sil
Ġve s
ĠKap sam
ĠY azar
ĠÄ±sÄ± t
ĠM otor
Ġzarar lÄ±
Ġc errah
Ġkon uyu
Ġman tÄ±k
Ã§Ä± lÄ±k
Ġenf eksiyon
ĠD igiturk
eli f
Ġdir ek
Ä°V ERSÄ°
ĠA lÄ±
Ġ4 7
Ġal mÄ±ÅŁtÄ±r
Ġal Ä±rken
Ä±n d
Ġetm eyi
Ġkor uy
ĠY ork
Ġl Ã¼ks
ĠS ayÄ±
ĠÃ§ atÄ±
ĠdÄ±ÅŁ Ä±ndaki
lam alÄ±
Ġkaz a
h as
ĠD an
Ġs ir
Ã¢ l
D eÄŁ
Ġgel diÄŁinde
ĠF or
Ġkaybet ti
Ãĸ Z
Ġv izyon
ĠT ok
Ñ Ĥ
ĠP ara
ĠhatÄ±r la
ap i
ĠBunun la
it if
r uk
es un
Ġetik et
Ġh itap
Ġson suz
Ð ½
ĠsÃ¼r Ã¼yor
ĠyÃ¼kÃ¼m lÃ¼l
as ebe
Ġkar anlÄ±k
ĠL ond
ÅŁ i
im ini
ĠyÃ¼rÃ¼t Ã¼len
ĠaÅŁk Ä±n
E ÄŁ
ĠG elen
ĠyÄ±k ama
Ġist atistik
Ġm im
Ġim al
ĠoluÅŁ um
ĠB o
ebileceÄŁ i
K ul
ĠÃ¶ lÃ¼
ĠA p
B ey
ĠÃĸ yle
E Z
ĠAr dÄ±ndan
Ġm it
Ġkar bon
Ã§ ilik
y urt
Ä±yor sunuz
Ġalak alÄ±
ĠBahÃ§ eli
ĠÃľN Ä°VERSÄ°
em iyor
ĠÄ±r k
u du
Ġv el
Ġ ï¿½ï¿½
ĠÃľ s
an ak
ĠM aÄŁ
ev ler
Ġn Ã¶
Ġcan landÄ±r
B unun
Ġolay lar
ĠOn line
Ġn iÅŁ
ros oft
Ġak sine
eden iyet
Ġkahv altÄ±
Ġet ken
ti p
ĠDer gisi
ez il
Ġkir alÄ±k
Ġt ey
ĠS akarya
ĠBar Ä±ÅŁ
R us
b as
ĠE R
Ġt ay
Ġdip lo
ĠP en
Ġsah il
ĠdÃ¶nem in
ĠfarklÄ± lÄ±k
ĠPer ÅŁembe
Ġ Ä±n
ĠM aÃ§
Ġden em
ĠgerÃ§ekleÅŁ ti
Ġli deri
d Ä±ÅŁÄ±
Ġy alÄ±
lan abilir
ĠkullanÄ±cÄ± lar
Ġtab let
Ġev in
ĠgÃ¼n leri
Ġ200 5
ay Ä±p
Ġbek leyen
acaÄŁ Ä±mÄ±z
ĠErz urum
Ġhayat Ä±na
r ist
ĠMar mara
B ah
ĠS ak
Ġbizim le
Ġbay rak
us e
Ġma cer
amaÅŁ Ä±r
Ġkend ileri
ĠbÃ¶lg eye
ĠÃ¶ p
ĠyÄ±l Ä±na
Ġekip man
ler imi
ab ak
Ġim alat
ĠdÃ¼zenlen ecek
k ap
d Ä±nÄ±z
ĠÄ°n dir
Ġsat Ä±
Ġcep h
Ġfaaliyet leri
ĠbÃ¼y Ã¼y
im et
Ġplan a
Ġsiz den
ĠaÃ§ tÄ±
Ä±lacak tÄ±r
Ġmevzu at
Ġkalab alÄ±k
Ġal dÄ±k
Ġbir ine
Ġkullan Ä±lab
ĠI ÅŁÄ±k
k aya
Ġkal acak
ob ot
es por
Ġsev iyorum
Ġpla stik
Ġsev gili
Ġih lal
Ġkayb eden
ĠR oman
ĠÃ§ap Ä±nda
A Ã§Ä±k
ons por
Ġev ren
ĠKon ut
oh um
ĠBas Ä±n
p oz
Ġgerek sin
ĠÃ¶ÄŁren ildi
k ili
lÄ± lar
ĠgÃ¶z den
Ñ Ģ
Ġtut um
Ġkamu oy
Ġtop r
ĠkiÅŁ ilere
Ġmed y
Ġail esi
ĠSel Ã§uk
f t
Ġben den
tiÄŁ iniz
I n
Ġkam yon
tr al
ĠJ andarma
g ur
Ġ0 5
Ã¼p han
Ġhem ÅŁ
est o
Ġtekn olojik
ĠMal zem
ĠFark lÄ±
ĠaÃ§ Ä±ldÄ±
Ġg eb
Ġg ib
Ġark asÄ±nda
Ġak Ä±m
Ġbenim le
Ä° H
Ġmak ine
ET Ä°M
ĠTaÅŁ Ä±ma
ay olu
ĠU ÄŁur
ĠPol itik
ĠbaÅŁla mÄ±ÅŁtÄ±r
on ik
Ġd Ã¶r
ap ort
ĠÄ° b
Ã¼l mÃ¼ÅŁ
Ġn Ä±n
Ġdev ir
Ġdam ar
ĠÅŀeh it
Ġfestiv al
Ġayr Ä±l
Ġfinans al
ĠE N
ab i
i ca
Ġk Ã¶r
eb ilmektedir
Ä±lÄ± ÅŁÄ±
ĠolduÄŁ unun
Ġtarif i
ĠM in
l ed
ĠamaÃ§ la
ĠO d
Ġ lik
it asyon
Ġnit eliÄŁ
ĠS alÄ±
Ġsem bol
Ġsey ret
ĠKor e
z an
ĠÃ§Ä±k tÄ±ÄŁÄ±
ĠmÃ¼ h
ĠB Ä°L
Ġman evi
ĠH otel
lu b
Ġmahal le
ĠyaptÄ±ÄŁ Ä±nÄ±
tad oÄŁu
Ġbiz zat
o du
B B
Ġelb is
Ġb atÄ±
ĠS ohbet
Ġyarg Ä±lan
ĠÄ°liÅŁ kin
ĠY orum
Ġp eyn
ĠKalk Ä±nma
Ġtarih ine
ĠKons eyi
Ġd elik
Ġyor gun
Ġsan Ä±k
ĠHay Ä±r
Ġkamp anya
ĠaÃ§Ä±kla masÄ±
MAD DE
ĠkarÅŁÄ± lÄ±klÄ±
ĠÃľst elik
Ġinsan a
ĠÃ¼y eler
ediÄŁ im
ĠeÅŁ lik
Ġtav siy
Ãľ K
ĠSaÄŁ lÄ±ÄŁÄ±
Ġkol eksiyon
iÄŁ in
Ġsistem in
iy eli
ĠgÃ¶rev li
ĠH DP
ĠsÃ¼r priz
ĠHaf t
g ini
Ġkal mak
K at
Ġtamam Ä±
ler inize
lÄ±yor uz
ĠYÃ¶net melik
ĠYaÅŁ am
ĠÅŁ air
Ġaktiv it
iÅŁ li
Ġiz lem
Ġbula b
ĠbÃ¶lÃ¼m de
ĠaÃ§Ä±k Ã§a
M il
M uh
AR I
Ġmekt up
Ġgel dik
Ġr is
ĠOr han
ĠiÃ§ ecek
Ġkat k
ĠR as
ĠdoÄŁ ur
Ġg ram
ĠdÃ¼zen lendi
Ġta ahh
EN D
ĠKah raman
ĠÃ¶rn eÄŁi
Ã¼ ya
ĠdÃ¼ÅŁÃ¼n Ã¼r
Ġbul ur
Ġak sesuar
Ġzaman la
ĠA day
Ġplan Ä±
Ġorgan ize
Ġbayan lar
Ġden ilen
ma ÄŁ
art man
Ġtarz Ä±
Ġser tifik
201 1
Ġuz an
ĠL a
ĠÃľniversit e
Ġef san
tal yan
ĠÃ§ocuk lara
Ġi kin
ĠH ac
ĠÃľNÄ°VERSÄ° TESÄ°
M ar
ĠBÃĸ LÃľM
ĠK aya
ĠÃ§Ä±k Ä±p
Ġkend isinin
Ġok umak
Ġalt Ä±ndaki
ĠboÅŁ al
enc ere
Ġayak ta
ĠyerleÅŁ im
Ġpah alÄ±
D iÄŁer
eniz e
Ġdevr eye
Ġy ah
lama da
Ġsiz lerin
Ä±mÄ±z dan
Ġas it
ĠkÄ±sm Ä±nda
ĠTan rÄ±
ĠoluÅŁtur mak
laÅŁt Ä±k
Ġkontrol Ã¼
da ÄŁÄ±
ĠdÃ¶nem lerde
c usu
Ġbul ma
ĠÃ¶rg Ã¼tÃ¼n
ĠÃĸn ce
Ã» l
ĠbaÅŁ kenti
Ġtak sit
k s
ĠN it
t op
ĠeÅŁ siz
Ġkayb Ä±
ĠBirleÅŁ ik
g azi
ĠdÃ¼z gÃ¼n
ĠÅŀ im
Ġmad al
ĠPerson el
ĠS oy
Ãľ r
ĠaÃ§ an
is ti
Ġrad yo
Ġs log
Ġbilg ilerin
ĠÃ§ ak
Ġver ilmiÅŁ
p Ä±nar
ĠyaÅŁ Ä±yor
Ġo cak
ĠBak anlÄ±k
Ġolmak la
j e
Ġev i
ĠÃ¼lk eye
Ġtoplant Ä±sÄ±nda
ĠbÃ¼y Ã¼t
Ġpro fil
ĠF az
Ġkur ban
ĠsÃ¶z ler
ĠiÃ§eri ÄŁi
Ġok um
ĠÃ§Ä±k masÄ±
z el
ĠK er
af e
Ġkal dÄ±ÄŁÄ±
t s
Ġest etik
ĠUz manÄ±
Ġyap maktadÄ±r
Ġin f
Ġhizmet e
Ġoyn anan
ĠCumhurbaÅŁk anlÄ±ÄŁÄ±
ĠMAD DE
Ġd Ã¶ÅŁ
j a
Ġgel diÄŁ
ĠL ev
Al man
lob al
ĠgerÃ§ekleÅŁtir ildi
Ġdin amik
Ġyar Ä±ÅŁma
Ġsistem ine
ĠT Ã¼k
larÄ±mÄ±z la
ĠY ay
ĠÃ§iz g
Ġhukuk i
ã ĥ
ĠT C
Ġces aret
ĠsÃ¼r Ã¼k
ĠArab istan
Ġd iyorum
y im
ĠB M
ĠÃ§ek ir
zer bay
Ġyer lere
ĠA il
Ġanlam lÄ±
sim um
Ġt v
ĠS ol
st il
ĠH alÄ±
Ġbildir ildi
ĠSav unma
ĠgÃ¶ster diÄŁi
ĠT Ä±k
Ġhakk Ä±ndaki
Ġz ul
ĠGel iÅŁ
Gen Ã§
Ġuy uÅŁturucu
Ġrek or
Ġtah sil
Ġal Ä±mÄ±
iÅŁ e
Ġmahk eme
o le
Ġegz ersiz
Ġ 00
Ġsiyas al
Ġbil iyorum
AR A
d il
Ġbek let
Ġzorunda dÄ±r
Ġsunu cu
ĠgÃ¶ t
Ġilan larÄ±
ĠgeliÅŁ me
g Ã¼l
ĠdeÄŁer leri
Ġdedektif lik
Ġ0 6
ĠB ebek
Ġbil iyoruz
ĠR uh
Ġyol larÄ±
Ä° LÄ°
ĠdeÄŁiÅŁ en
U Z
acÄ± lÄ±k
iyor sunuz
ĠsaÄŁla maktadÄ±r
ĠM Ãľ
Ġ lam
Ġtaraf Ä±nda
Ġdemokras i
4 2
Ġkab il
Ġan ket
_ _
ow n
ĠrÃ¼z gar
ĠÃ¶ÄŁren me
s et
R es
Ġpar alel
ĠgÃ¶rÃ¼ÅŁ me
u x
Ġk Ä±lav
H az
ĠgÃ¶r Ã¼le
ĠtÃ¼ket ic
ĠN ih
Ġtemiz liÄŁi
ĠgÃ¶rev ini
Ġsahip leri
andev u
Ġal abilir
anÄ± p
Ġkonu larÄ±
Ġitibar Ä±yla
Ġkul Ã¼b
ĠAn d
Ġimz al
d Ã¼ncÃ¼
ĠMÃ¼z esi
k y
v is
ĠTer Ã¶r
Ġodak lÄ±
d ola
ĠKon u
Ġlis e
ĠgeliÅŁtir me
ĠT anÄ±
malar a
ĠgÃ¼n Ã¼nde
Ġrapor u
ĠT ÃľRK
Ġrahat sÄ±zlÄ±k
Ġted arik
Ġkr iter
iz li
ĠÃ¼lk emiz
Ã§Ä± lar
ĠkÄ±sm Ä±nÄ±
ir daÄŁ
---- ----
ĠEv den
ĠP ek
op ark
ĠD al
Ġalan larÄ±nda
Ġâ Ĩ
ĠÄ°m parator
Ġkr al
Ġgide cek
hal e
ĠK oc
Ã½ Ã¾
Ġsorun suz
Ġolm uyor
Ġger iye
ĠdeÄŁiÅŁ ken
ĠdoÄŁ a
Ġanlat Ä±m
Ġyaralan dÄ±
Ä° ÅŁte
Ġpiyas aya
ir t
ĠbaÅŁar Ä±sÄ±z
Ġet meniz
Ġuygulama ya
Ġd ediler
Ġyolc uluÄŁ
Ġkat li
Ġpay laÅŁtÄ±
Ġf en
Ġik ili
Ġlis te
ĠdeÄŁil im
ĠS n
Ġbed eli
us un
Ġmater yal
t or
Ġver mesi
ĠÃ¶zg Ã¼
ĠB anka
Ġol say
ĠsÃ¶y ler
ĠKaymak am
ĠBaÅŁvur u
ĠkÄ±y as
Ġdis iplin
ĠS ch
l it
ĠA T
len iyor
Ġeder ler
ekt aÅŁ
Ġi bar
cel l
Ġiz ni
ĠĠ ĠĠ
ĠÃĸr nek
Ġp ayÄ±
ildiÄŁ inde
s ed
ĠD ok
ĠgÃ¼n dÃ¼z
Ġpol itika
o ma
ĠÃ¼lk emizin
9 5
ĠD aÄŁÄ±
Ġl ek
Ġev r
S Ã¶z
ĠDeniz li
Ġkaynak larÄ±
ĠT ip
Ġ !
ĠyÃ¼k le
Ġhab eri
s Ã¶r
Ġs Ã¶k
ĠyÃ¶ntem leri
Ġeden ler
ĠF orm
ĠeÄŁlen ce
ĠM ate
ĠÃ§ab uk
ĠY un
Ġist asyon
Ġanlam Ä±nda
ĠbÃ¶lg esi
Ġtaraf Ä±
ol os
Ġkurul muÅŁ
p ress
ĠÃ¶de y
ĠarkadaÅŁ larÄ±
ĠÄ°Ã§ er
Ġist ediÄŁini
P ar
umuz a
Ġb ot
Ġas gari
Ġgel ec
ĠD i
Ġbir inc
ĠP RO
Ġproj eleri
Ġik isi
Ġteknoloj isi
Ġkonak lama
ĠÃ¼zer i
Ã¼kle er
ĠÃ Ĥ
Ġsat Ä±r
Ġlist esi
Ġver dik
ĠO la
è ¦
ĠToplan tÄ±
ĠdÃ¶n dÃ¼
m emek
Ġver ilmektedir
Ġtoplan tÄ±sÄ±
Ġuz ay
er g
an dum
ĠsÄ±k Ä±n
ĠeÅŁy alar
ĠKo ordin
s Ã¼
Ġdoktor a
ĠseÃ§en eÄŁi
Ġan tik
Ġbul ut
luÄŁ a
oh n
D V
Ben im
Ġkonu ya
Ġtaleb i
le x
4 3
Ġsuy un
Ġs et
ĠiÃ§er isine
Ã¢h il
Ġk aÅŁÄ±
der e
Ġyem eÄŁi
Ġgiy im
m ec
ĠÃ§ eÅŁ
ĠÃ§Ä±k arak
ĠÄ°n ce
ĠOt om
zerbay can
Ġar Ä±z
ĠÃ¼lk elerde
ĠÃĸl Ã§
ĠÄ±s rar
mal Ä±yÄ±z
P G
ĠÅŁirket in
ĠOy unlarÄ±
Ġs Ã¶n
ĠbaÅŁ lÄ±k
Ġorta da
lÃ¼ÄŁ Ã¼nÃ¼
Ġism ini
Ġver ileri
Ġv ic
Ġcin ayet
Ġistik rar
ĠBir inci
Ġok ula
ĠÄ° Ãĩ
dÄ±k Ã§a
n daki
Ã§ Ä±sÄ±
Ġib adet
Ġsahip liÄŁi
Ġ lay
Ġ1 000
Ġb omb
Ġs of
Ġyeter ince
Ġbun lardan
luÄŁ unu
o x
Ġtek er
ĠK erim
ĠBil imleri
umuz da
Ġbe dava
Ġbiz ler
am alarÄ±
Ġbirlik t
ĠÄ°ÅŁlet me
ã Ĥ
ĠTe dav
ĠCev ap
ĠiliÅŁk ileri
Ġkurul um
Ġhep sini
ĠP h
ĠÃ§ aba
Ġsistem ini
Ġel inden
Ġ5 8
ĠSay Ä±lÄ±
ĠTak Ä±mÄ±
ĠÅŁimdi den
Ġy aÄŁÄ±
c in
ĠyaÅŁam Ä±nÄ±
Ġuygulan Ä±r
v in
ĠS ektÃ¶r
Ġkazan mak
ĠS itesi
tÄ±ÄŁ Ä±m
Ġko ca
ĠyapÄ± larak
ĠaÅŁa masÄ±nda
end im
Ġk g
S u
ti h
ĠKÄ±z Ä±l
y aÅŁ
n Ã¼
as h
Ġetk ileri
v at
Ġs tan
ĠgeÃ§ir mek
ĠK ud
om e
Ġbu ton
Ġsev iyede
ĠÃ§ek in
5 7
Ġk afa
Ġkap lama
Ġdep lasman
n av
ĠSil ah
E P
ĠDevlet i
ĠÄ° lan
ama yan
ĠsÄ±cak lÄ±k
z en
Ġel ine
ĠyardÄ±m Ä±
Ġisim leri
Ġrezerv asyon
ĠVal isi
ĠB oÄŁaz
ĠE K
ĠiÃ§er ir
Ġedec ektir
m es
ĠsektÃ¶r Ã¼nÃ¼n
ĠGÃ¼n lÃ¼k
dir ne
Ġmed yum
Ġp ak
ĠBalÄ±k esir
Ġdon dur
ub u
ĠsÃ¼r Ã¼c
K adÄ±n
Y ON
ĠA ir
B A
Ã§ ilerin
Ä±l lÄ±
ediÄŁ imiz
ey sel
ers iniz
ĠanlaÅŁ ma
ĠhazÄ±r lanmÄ±ÅŁ
y di
ĠdÃ¼ÅŁÃ¼n dÃ¼ÄŁ
li p
Ġs emin
Ã¢ lÃ¢
Ġkolay lÄ±kla
Ġkon ferans
ĠZ eytin
as tik
Ġbulun duÄŁunu
Ġhes abÄ±
Ġd udak
ĠÃ§ el
ĠgeÃ§ erek
ĠbÄ± Ã§ak
ĠÃ¶ v
Ġbek liyoruz
ĠÄ° L
Ġtamam ladÄ±
la dÄ±m
ĠÃĩ ank
ey t
U y
ĠKad Ä±kÃ¶y
malar Ä±nÄ±n
Ä±t ma
Ġ200 4
Ġor aya
Ġt Ã¶r
Ġduyg usal
ĠdeÄŁiÅŁ imi
Ġdiz isi
ĠÃ§alÄ±ÅŁ Ä±yoruz
ĠettiÄŁ iniz
K Ä±r
ĠA la
Ġvurgu layan
Ġkategor isinde
eng iz
Ġtab ak
Ġam balaj
Ġmis iniz
ĠLond ra
Ġdevam lÄ±
Ġ Ø
ĠÃĩ iÃ§ek
ĠkarÅŁ Ä±sÄ±na
ul uÅŁ
ĠgÃ¶r mÃ¼ÅŁ
Ġfilm in
e e
Ġbak alÄ±m
Ġgetir iyor
Ġteb rik
Ġal et
Ġhaft alÄ±k
Ġr af
una cak
Ġol masÄ±nÄ±n
ĠT im
I LI
er a
Ä°Y E
Ġih raÃ§
ĠalÄ±n mÄ±ÅŁ
mek le
Ġ200 2
y at
Ġ0 3
ĠGazet esi
× Ĺ
ĠSu udi
ĠA V
Ä±lÄ±r ken
ĠU lu
Ġsem t
Ġh ip
ĠgÃ¶z e
Ġb r
or a
Ġil i
Ġo muz
Ãĸ r
S am
tÃ¼r Ã¼
K an
m emiz
un um
Äŀ R
ĠTr ans
m Ä±yorum
ĠB Ã¼r
ĠyÄ±l larÄ±nda
Ġb ag
ĠSeÃ§ im
Ġkorun masÄ±
ĠgÃ¼c Ã¼nÃ¼
Ä±m dan
Ġyol unu
Ġtr en
ĠKart al
Ġk Ã¼f
Ġdef ter
Ãĸzel likle
Ġanlat Ä±yor
lÄ±yor um
giliz ce
Ġor ijinal
Ġik amet
Ã¼min yum
ĠP lay
kir alama
Ġs ad
Ġproj enin
Ġfor ma
Ġtat min
ek ili
or it
Ġla b
ĠB AÅŀ
Ġda ima
Ġver g
Ġtaz e
Ġkad Ä±nÄ±
ĠKÃ¶ pr
s alar
ĠOr tadoÄŁu
m ektir
ÅŁ ak
ĠÅŁar j
ek om
Ġhik Ã¢y
Ġrefer ans
ĠbaÅŁ tan
Ġat mos
Ġmadd eler
ĠinÅŁ allah
Ġidar e
as Ä±n
ĠAf yon
è¦ º
Ġr Ã¼y
Ġgerekir se
x y
il ler
Ġh orm
ĠmÃ¼ sa
Ã¼mÃ¼z Ã¼n
y asÄ±
ur e
ĠH a
ĠT uz
duÄŁ unda
... ]
Ġla f
Ġ Ù
Ġsek iz
ĠÅŀampiyon asÄ±
Ġetraf Ä±nda
bir liÄŁi
ĠaraÃ§ lar
Ġgit tim
Ġiy il
ĠkatÄ±lÄ±m cÄ±
Ġzaman lÄ±
ĠMesel a
Ã§ ileri
ĠÅŁirket leri
Ġab on
ĠaÃ§Ä±k landÄ±
b at
h ay
Ġb eton
Ġiz leyen
d inde
Äŀ Ä°T
Ġdir ekt
Ġbas tÄ±r
Ġo radan
ĠMÃ¼cad ele
Ġh aÅŁ
Ġinan Ä±lmaz
ĠBÃ¼yÃ¼k el
ĠiÅŁlet meler
Ġyaz ma
Ġb an
Ġyurt dÄ±ÅŁ
ĠkaÅŁÄ± ÄŁÄ±
is h
ĠM ir
ĠG Ã¼mÃ¼ÅŁ
Ġyak Ä±t
ĠGeÃ§ en
ĠD iÅŁ
Ġotur um
Ä±n dÄ±k
eri f
atÃ¶r Ã¼
B UL
ĠvatandaÅŁ larÄ±n
Ġkaynak lanan
Ġanlay Ä±ÅŁÄ±
ĠEkonom i
6 8
K end
l usu
m Ã®
s ey
ĠK aÅŁ
Ġc az
ĠÃ¶zellik ler
it ab
uyor lar
ĠKor uma
k ale
Ã ħ
Dev let
ĠS af
Ġgir er
alar ca
Ġek st
Ã¼k sek
Ġkend ime
Ġgerekli dir
ĠÃ§evr esinde
ĠVer gi
Ġanla mak
Ġt uvalet
Ġsev iÅŁ
ĠBir Ã§ok
ĠkeÅŁ fet
k Ã¢r
v iÃ§
Ġs akat
Ġres imleri
res yon
ĠkarÅŁÄ±lÄ±ÄŁ Ä±nda
Ġyaz dÄ±ÄŁÄ±
Ġir tib
ĠpaylaÅŁ mak
Ġkadro s
ĠÃ§Ã¶zÃ¼m ler
Ä± h
g ut
ĠdÃ¼ÅŁÃ¼n Ã¼l
ĠÃ§Ä±kar dÄ±
Ġmet r
Ġtarih ten
Ġkor uyucu
Ä±n c
Ġy uv
Ġyav ru
ĠsatÄ± lÄ±k
Ġder g
in dan
ĠG e
ĠÃ§ ant
ĠkarÅŁ Ä±lÄ±ÄŁÄ±
g Ã¶z
k lar
×Ĺ ×Ĺ
Ġolan Ä±
ak al
ebilir im
ĠiÅŁlem e
ir leri
Ġyar alÄ±
H aber
kÃ¼ dar
A pp
Ġkoy un
ĠD anÄ±ÅŁman
el a
hab alar
ĠTeÅŁ kil
ĠSal onu
Ġr Ä±z
Ġkapsam da
Ġm ide
Ġkayde den
li dir
Ġisim ler
S por
Ġyok sul
ab rika
Ġu sta
por taj
lÃ¼ÄŁ Ã¼ne
ilir ken
ic h
Ġvad eli
Ã¼ el
Ġtut mak
Ġsey r
ĠÄ°sp anya
am alar
ĠTar if
Ġait tir
ĠÃ¶lÃ§ Ã¼m
ĠÃ§alÄ±ÅŁ tÄ±ÄŁÄ±
ĠÃ§Ä±kar mak
ĠaÄŁÄ±r lÄ±k
Ġisten ilen
Ġgibi dir
Ġkat lÄ±
Ġsik iÅŁ
ĠgÃ¶rev e
ĠEs as
Ġtit iz
ĠtaÅŁ Ä±yor
k ray
Ã¼r t
ĠZ iyaret
Ġdil iyorum
Ġal ey
Ġetm em
ĠÃ§ek mek
ĠD ef
ĠbÃ¶lg enin
ĠiÅŁ ini
Ġgetir ir
m l
ĠB eÅŁ
Ġr eng
Ġkal Ä±yor
M ET
ĠBaÅŁk a
Ġsistem e
Ġyet ki
Ġnetic esinde
Ġgel eceÄŁi
dan Ä±n
Ġmut f
iÄŁ eri
AT O
Ġunut mayÄ±n
ĠD is
5 8
ĠB eni
Ġcez alandÄ±r
Ġk Ã¼l
Ġmal iyeti
Ġit tifak
ĠK ON
Ġs kor
ĠGÃ¼n cel
ĠÄ°st ik
mÄ±ÅŁ tÄ±m
ĠOÄŁ uz
Ġn am
Ġkr em
Ġolmaz sa
du lar
Ġtop la
el isiniz
Ġhalk Ä±nÄ±n
Ġyol una
ĠyetiÅŁ kin
ĠB es
Ġtop u
edik leri
ĠdeÄŁiÅŁiklik ler
g n
Ã¼yor uz
ĠHan gi
ĠÃ§Ä±k ma
Ġort asÄ±nda
Ġolur ken
ĠgÃ¶r ebilirsiniz
ĠÃ¶z gÃ¼n
ĠK oÅŁ
Ã¶n Ã¼
ĠGÃ¶r Ã¼ÅŁ
ĠSar ay
ĠÃ¶z Ã¼r
ÅŁ ek
ĠH e
Ġyak Ä±ÅŁ
Ġl it
Ġmanz ar
c uk
ĠBÃ¼l ent
Ġham ur
ĠkoÅŁul larÄ±
ĠÃĩ etin
Ġk el
mas i
ĠY avuz
Ġmillet in
Ġtez gah
Ġz em
j inal
ĠS elim
ĠK a
Ġhak aret
Ġmec bur
ĠyÃ¼k len
Ġ12 0
Ġgir ip
S ur
ĠA cil
lan tÄ±
ĠMal iye
r it
Ġmark asÄ±
Ġcev ab
ĠK Ã¶r
ĠB iy
ĠÃ§ Ä±r
ĠgeliÅŁtir mek
ĠYal nÄ±z
Ġbilin c
Bur sa
m ik
Ġkom bi
ĠSig ort
ĠgÃ¶ v
ĠoluÅŁtur ul
ĠoluÅŁtur ulan
Ġem r
G K
Ġbak ar
Ġsilah lÄ±
ĠSab ah
adÄ±ÄŁ Ä±nÄ±z
Ġfirmalar Ä±n
Ä Ĳ
ĠyardÄ±m Ä±yla
ĠM ali
eb ze
Ġsan dal
Ġyum urt
ĠS Ã¼n
ĠSin an
O D
o ol
t as
Ġyap acaÄŁÄ±
ic il
Ġdok u
6 7
Ġkim e
Ġm ol
Ġzaman a
l ilerin
Ġsonra dan
Ã¼ler ek
aca at
ĠkomÅŁ u
abileceÄŁ ini
ĠÃľrÃ¼n leri
Ġd Ã¢hil
Ġdernek ler
ĠolaÄŁan Ã¼stÃ¼
Ã¢ b
ĠSiz in
Ġtop luluk
Ġ200 3
Ġ6 00
ay n
Ġsaat te
ĠâĢĺ âĢĻ
T S
ĠÃ¶ f
ebileceÄŁ iniz
ĠElekt ronik
ĠR enk
Ġdedi ÄŁi
Ġpro tein
Ã¼ lasyon
Ġ âĢĻ
ĠÅŀ anlÄ±urfa
Ġperson eli
ĠgÃ¶z et
Ġithal at
ĠP a
Ġ0 7
Bur ada
Ã§ asÄ±
Ġf it
Ġkullan maya
s p
ĠSok ak
. -
Ġd anÄ±ÅŁ
Ġses li
A LÄ°
P SS
ĠbaÅŁ Ä±ndan
ĠÅŀ em
k usuz
Ġgetir ilen
c eÄŁi
ĠsÃ¼r Ã¼
Ġv ol
Ð¾ Ð
an o
Ġger eÄŁ
Ġtarih lerinde
Ġgec esi
at lÄ±
ĠS oÄŁ
ĠÃ¶nem lisi
ĠN edir
ĠoluÅŁtur duÄŁu
Ġmer h
Ġkon ulu
Ġb om
Ġzaman dÄ±r
ĠgÃ¶nder ilen
Ġbiz leri
ĠHak larÄ±
ons or
Ġfor mat
EÄŁ itim
Ġb ran
AN BUL
ileceÄŁ iniz
uc usu
et li
Ġbilg ilerini
Ġortam Ä±
ĠbaÅŁ lÄ±ÄŁÄ±
ĠsÃ¶ mÃ¼r
ĠbugÃ¼n kÃ¼
Ġaltyap Ä±
Ġbelir gin
Äŀ I
ĠyÄ±l dan
ec h
ĠyapÄ±lacak tÄ±r
laz Ä±ÄŁ
otos iklet
Ġi ÄŁ
ĠsektÃ¶r de
ĠFu arÄ±
Ġfazla sÄ±
il iÅŁ
liÄŁ inden
ĠkÃ¶ ken
ĠvasÄ± t
Ġbor c
ir mi
as eb
Ġf ot
Ġma z
Ġbil eti
Ġak la
Ġsizin le
Ġhem de
ĠdoÄŁ u
Ġann em
4 1
ĠÅŁey den
Ġmalzem eler
ĠOn u
ĠÃ¼ret en
am ur
Ġp omp
Ġmedya da
Ġduy ar
Ġetk iler
Ġder t
ĠÅŀub esi
ĠMan isa
o Ã§
Ġk ek
ut in
mat es
Ġtoplam da
ti har
ĠEm lak
ĠÃĩ eÅŁit
Ġih mal
ĠT ez
Ġp ost
ĠH indistan
Ġhayat Ä±nda
anÄ±k lÄ±ÄŁÄ±
ĠÅŀ ekil
ĠÃ§eÅŁit leri
ĠÃ§ Ä±l
uy du
P S
Ã ĥ
Ġyaz arÄ±
Ä±ÅŁÄ±k lÄ±k
Ġr iv
Ġolay larÄ±
ĠL ab
ĠtÄ±k layÄ±n
Ġrad y
Ãĸ K
Ġtart Ä±ÅŁma
la d
ĠAk Ä±n
fen di
ĠgÃ¶nÃ¼l lÃ¼
ÄŀÄ°T Ä°M
Ġh id
Ġmus unuz
ĠyÃ¼z Ã¼
ĠsÄ±ra dan
Ġ4 9
ĠÃ§Ã¶z Ã¼mÃ¼
ĠGir esun
ĠÃĸz tÃ¼rk
d oÄŁu
ĠB an
dÄ±ÄŁ Ä±nÄ±n
M illi
Ġs ag
Ġc umhurbaÅŁk
Ġh il
Ġefsun larÄ±
Ġbu dur
Ġhey et
ĠH acÄ±
Ġoyn amak
ĠKurul uÅŁ
ĠHol landa
T er
Ġma tematik
ĠDen etim
Ġlab orat
M al
Ã¼s Ã¼nÃ¼
Ġmetrek are
Ġtaahh Ã¼t
y olu
) âĢĻ
Ġplan da
Ġm Ã¼st
Ä±y an
Ġbula cak
ĠCam ii
ĠOy unu
may e
ĠÅŁah it
C E
Ġsay Ä±lÄ±r
ER Ä°
Ġsam imi
Ġstr es
Ġver iyoruz
D eniz
ĠÃ¶rg Ã¼
ĠG ec
Tar ih
Ġmad denin
Ġayr Ä±m
Ä±s Ä±n
ĠaÃ§Ä±klamalar da
E m
ĠS ine
Ġortam Ä±nda
l unun
Ġk aÄŁÄ±
lik ten
tu ÄŁu
Ġc oÅŁ
Ġkayb ed
Ġoyun cak
Ġm edeniyet
ĠarkadaÅŁ Ä±m
ĠS ize
ab ilme
hat s
Ġpoz itif
Ġal dÄ±ÄŁÄ±nÄ±
ĠalÄ±ÅŁ kan
ĠF i
ing ir
Ġkr itik
Ġola caÄŁÄ±z
ĠÃľcret siz
ĠgÃ¶r me
oloj isi
Ġfiyat lar
ĠoluÅŁtur ur
esi dir
ĠE mir
5 9
ĠEf end
Ġsun uyoruz
ĠtakÄ±m Ä±n
luÄŁ un
ĠM e
oper atif
Ġris ki
Ġdur uyor
Ġhat tÄ±
ĠT EK
ĠY azÄ±
Ä±s Ä±ndaki
ĠÃ¶ÄŁren ebilirsiniz
r ah
z aman
Ġl ak
ĠKal ite
oc uÄŁ
LÄ°Äŀ Ä°
Ġtav Ä±r
m ece
i on
ĠB olu
tÄ± p
ĠÃĸ de
y ak
A mer
M an
O sman
Ġstratej ik
ĠgerÃ§ekleÅŁtir ilecek
ĠÃ¶rnek leri
ĠKon gresi
Ġbelg eleri
ĠkÃ¶pr Ã¼
ĠdÃ¼ÅŁ er
Ġ4 2
Ġk uy
Ġed it
201 0
Ġolur du
ik al
Ġkon se
Ġberaber inde
Ġt ac
ĠB et
Ġon arÄ±m
ĠÃ§alÄ±ÅŁmalar Ä±n
ĠðŁ Ļ
Ġs osy
ĠRek lam
y ol
ĠtÄ±k layÄ±nÄ±z
Ġpla j
Ġgir miÅŁ
ĠihtiyaÃ§ larÄ±nÄ±
ul larÄ±
ĠD urum
dir im
ĠC errah
ĠaÃ§Ä±k lan
ĠDÃ¼ny anÄ±n
u larak
D em
G e
ĠoluÅŁ maktadÄ±r
Ġaj ans
Ġhak sÄ±z
ĠR ektÃ¶r
ik alÄ±
ĠYaz Ä±lÄ±m
d on
ĠÄ° N
ĠgeÃ§ mek
ĠaÅŁ Ä±k
ĠHerk es
Ġes nek
ĠIn stagram
Ġkims eye
ĠJ o
ĠiÅŁ len
Ġverm eden
ĠÃĸnc elikle
Ġdil im
Ġdes en
oj istik
Ã¼n Ã¼r
Ġm el
7 8
iniz le
ĠgÃ¶ster ilen
Es ki
al d
Ġiz leme
Ġruh sat
ĠR ob
ĠdaÄŁÄ± tÄ±m
alar Ä±yla
masÄ± dÄ±r
ĠTÃ¼rk men
ig Ã¼r
ĠkullanÄ±cÄ± larÄ±n
Ġdeney imi
ĠteÅŁkil at
Ġtut un
Ġmadde sinde
r ib
ĠsaÄŁ lay
Ä±la caÄŁÄ±nÄ±
Ġoldu g
Ġbelg eler
Ġmemnun iyet
Ġolmas Ä±n
K onya
Ġdur an
ĠMed ya
ĠHiÃ§ bir
Ġev vel
ĠK Ä±y
ĠyaptÄ±r Ä±m
Ġvurgula dÄ±
ĠB os
Ġn iye
Ġbal kon
Ġd isk
ĠyaptÄ±ÄŁ Ä±nÄ±z
ĠC anlÄ±
Ġgir mek
Ġduyur du
Ä±l malÄ±dÄ±r
ĠBil imler
Ä±c Ä±nÄ±n
ĠseÃ§ ilen
em iyorum
ĠBaÅŁ ak
Ġorgan iz
Ġcas ino
ama yacak
B ay
ĠiÅŁ it
Ġvar lÄ±ÄŁÄ±
Ġboy un
Ġ ï
ĠL Ã¼tfen
6 9
Ġkaynak lÄ±
Ġpiyas a
siz in
Ä±r t
Ä° ki
Ġden ize
S osyal
ĠYÃ¼k sel
Ġolan larÄ±n
Ãĩ alÄ±ÅŁ
ĠsÄ±nÄ±r sÄ±z
ta Ã§
Ġdevlet i
E H
ĠsÃ¼r esince
is im
Ġbiz den
ÅŁt ur
H ar
Ġyorum lar
Ġham il
ĠMate matik
met ik
ĠKil is
ab ah
ĠparÃ§ alarÄ±
abil im
Ġop siyon
ĠJap onya
ĠD el
ĠÄ°n an
Ġhan gisi
ĠÃĩ avuÅŁ
Ġgir ecek
Ġdolar lÄ±k
Ġteklif i
y sa
Ġgir diÄŁi
ĠbÃ¼t Ã§e
Ġtur nuv
ĠÃ¶ tÃ¼rÃ¼
Ġs us
Ġkut sal
Ġob j
uk i
Ġk ade
mas Ä±z
ĠHal il
ĠE min
Ġol masÄ±ndan
uÅŁt uk
Ġmesel a
Ġver in
tÄ±k larÄ±nÄ±
Ġhareket i
ĠsÃ¶ylem iÅŁ
ĠY ukarÄ±
Ġt Ã¼y
Ġar Ä±
Ġkap ak
Ġetkil eÅŁ
Ġgalib iyet
Ġg Ã¼mrÃ¼k
ĠB azen
ĠdÃ¼ny ayÄ±
ĠF on
Ġcih azÄ±
Ġdahil inde
Ġu ÄŁur
ĠH oca
Ġmak simum
Ġprot esto
R AM
ĠgÃ¶z ler
ay dÄ±
ĠP arkÄ±
ol on
Ġner eye
ĠYayÄ±n cÄ±lÄ±k
ul ma
Ġuy dur
ĠN ik
Ġhar ca
Ġg Ã¼v
ĠÃ§alÄ±ÅŁ tÄ±
Ġtarih te
K ap
ĠgenÃ§ ler
ĠKon uÅŁ
Ġ len
ĠD ol
Ġsan iye
Ġadr esine
Ġlay Ä±k
larÄ±mÄ±z da
ĠSay f
Ġif tar
ĠÃĸrg Ã¼tÃ¼
ilm eye
D Ã¼ny
h iÅŁ
Ġkurum lar
ĠAb dÃ¼l
i da
ĠE ÄŀÄ°TÄ°M
ĠBaÅŁ ar
ĠyaÄŁ Ä±ÅŁ
ĠettiÄŁ imiz
Ġnokt aya
ĠmÃ¼ te
Ġ0 4
Ġmo tiv
S A
ĠL ist
Ġlezzet li
Ġkom bin
ĠÂ «
Ġbozuk luk
iv er
Ġolur sunuz
Ġsen ar
Ġgazet e
ĠG Ã¼nde
ĠEr meni
ĠAs lan
lo ad
Ġtr end
Ġmuhaf aza
un d
S D
Ġoyn ayan
Ġtut uklu
s Ã¼n
Ġaray Ä±ÅŁ
ĠYak laÅŁÄ±k
Ġib aret
ÄŁr Ä±
ĠMah mut
Ġk Ä±yÄ±
Ġhat un
er iler
am e
Ġiler leyen
! ..
y n
ĠgerekÃ§ esiyle
ebilir ler
ĠHastalÄ±k larÄ±
ÅŁ et
Ġdurum lar
Ġhastan eye
Ġn az
Ġzor lu
H K
Ġil a
ĠÅŁ ok
dÄ±ÄŁ Ä±nÄ±zda
ĠÄ° talyan
Ġb iber
Ġmakin asÄ±
Ġes eri
aÅŁk Ä±n
ĠUy gun
B azÄ±
bur g
ĠgerÃ§ekleÅŁtir di
Ġaray Ä±p
Ġkon uyla
Ġmil liyet
Ġserg ilen
ĠdÃ¶nem ine
ĠO b
Ġkab lo
Ġduy duÄŁu
ĠMey danÄ±
ĠÃ¶ÄŁrenc isi
landÄ±r ma
ĠkÄ±sa ca
Ġper de
Ġ[ ...]
ow er
ĠdanÄ±ÅŁman lÄ±k
) ;
Ä±lmÄ±ÅŁ tÄ±
Ġkoy u
ĠJ ohn
il de
An talya
G B
Ġyarar lÄ±
Ġtesis at
tiÄŁ inde
Ġorgan ik
ĠB ol
ĠA zerbaycan
ulu ÄŁu
ĠAr slan
Ġkarar lar
ĠkuruluÅŁ larÄ±
ĠolmasÄ± dÄ±r
ĠMuh ar
ĠdoÄŁal gaz
ĠT oto
Ġvit amin
ic ileri
ĠkÄ±z Ä±n
iyor dum
en ce
ĠHaf ta
ĠK em
k ut
Ġal dÄ±ÄŁÄ±mÄ±z
Ġh Ä±zÄ±
Ãľ Z
K am
ĠÄ° ht
Ġkonu larÄ±nda
ĠKuvvet leri
7 7
S P
Ġgider ken
Ġar d
Ġal mayÄ±
Ġbek liyorum
ĠEr men
ir et
Ġc h
Ġg emi
ĠarkadaÅŁ lÄ±k
Ġtelefon dan
Ġkav g
alar ak
Ġmobil ya
ĠsÃ¶z cÃ¼k
Ġtazmin at
Ġik na
ĠsaÄŁla ya
K im
ĠgÃ¼n Ã¼mÃ¼ze
p s
ĠbaÅŁla dÄ±k
Ġod alarÄ±
ĠbÄ±rak Ä±n
laÅŁ an
ĠKadÄ±n lar
ĠBun lardan
duk Ã§a
ĠKud Ã¼s
Ġyaz an
Ġyer yÃ¼z
Ġd Ã¼ÅŁt
Ġc hat
Ġzinc ir
kray na
Ä±nÄ±z dan
Ġmesaj Ä±
ur ya
av Ã¼z
ĠÃ§Ä±k mak
Ġm Ã¼ÅŁ
ah ya
Ġc adde
Ġon lardan
Ġoy na
Ġdin len
Ġuzak laÅŁtÄ±r
ĠS tad
Ġt ohum
iz min
ĠsÄ± fat
ĠAj ansÄ±
Ġi mam
Ġ4 6
Ġpar la
i o
Ã¼l dÃ¼ÄŁÃ¼
ĠO lan
Ġanla tÄ±r
ĠG EN
oc am
Ġs h
Ġnef ret
Ġmen f
an Ä±zÄ±
Ġz ik
Ġbelir lendi
ĠYak Ä±n
ĠiÅŁt en
ah isar
im um
em eyecek
Ġfark Ä±nd
Ġn ik
Ġbunun la
Ġp ir
ĠG ay
Ġuy du
Ġdikkat i
Ġr obot
Â Ł
Ġm Ã¼slÃ¼m
am Ä±yorum
az z
ĠMÃ¼ÅŁt eri
ĠT h
ĠKit abÄ±
Ġvit am
Ã¼ ÄŁÃ¼
ĠM Ã¼st
ĠgÃ¶rÃ¼n en
Ġayr Ä±lan
ĠVide o
un lu
laÅŁ mÄ±ÅŁ
Ġistif a
Ġkut u
Uz un
Ġgetir ildi
Ġin tik
ĠboÅŁ luk
Ġinan Ä±yorum
Ġkur ab
Ġtemsilc isi
Ġkarma ÅŁÄ±k
ĠBir az
Ġhizmet lerini
ĠHÃ¼kÃ¼m et
Ġkullan Ä±r
br ek
ĠT est
Ġbir inde
Ġver ip
Ġotur ma
ĠT anÄ±m
Ġonlar ca
ĠD ost
luÄŁ unda
ak ende
Ã½ m
Ġat Ä±lan
ĠÅŁer ef
ĠB Ã¶yl
Ġyer inden
ĠdÃ¶n er
Ġem ir
ĠgÃ¶rÃ¼l Ã¼yor
ĠsÃ¼n net
ĠSig orta
ĠkatÄ±lÄ±m Ä±yla
ĠM o
Ġtamam la
Ġistem ez
ĠTrabz onspor
un Ã§
ĠK Ä±ÅŁ
Ġaday lar
ay arak
ĠS P
Ġsah te
ĠvazgeÃ§ ilmez
Ġ4 4
ĠAk si
ro w
ĠAt eÅŁ
S it
Ġden en
li b
Ġko z
ĠyÃ¼r Ã¼m
ĠyaÅŁ a
Ġcev abÄ±
ĠAn al
ĠK K
s o
Ġsu ya
Ġprogram Ä±na
Sam sun
Ġi ÅŁtir
Ġp or
Ġmilyon larca
iliÄŁ in
Ġg Ä±d
Ġyap ay
Ġyap acaÄŁÄ±z
Ä±p lak
r id
Ġv ekil
ĠEkonom ik
dÄ±r an
ĠgeÃ§ tik
Ġhttp s
ĠÅŁ of
Ġkok u
Ġyap Ä±yorum
ĠÃ¶ÄŁren im
g ul
s ir
Ġm eme
ĠseÃ§ in
ĠGÃ¼n Ã¼mÃ¼zde
Ġceza ev
ĠSÄ±nav Ä±
Ġpil ot
ĠReh beri
ĠCih az
Ġfir manÄ±n
b iz
ĠAy r
A f
Ġsom ut
H as
um un
ĠI Åŀ
Ġetkil eyen
Ġv iz
ĠkardeÅŁ i
ĠyÃ¼k leme
Ġyarat tÄ±ÄŁÄ±
Ġtemsilc ileri
5 4
ĠmÃ¼r acaat
ĠAn ne
Ã½n Ã½
Ġvic dan
Ġbildir im
ĠtoplantÄ± da
Y D
ĠmeÅŁ hur
iler inde
ĠTop rak
Ġe x
Ġantren man
Ġyaz Ä±yor
Ġhaber ler
ĠmÃ¼z ak
ĠZ iraat
ĠaÄŁÄ±r lÄ±klÄ±
I P
g im
Ġb oÄŁaz
Ġsorun larÄ±n
ĠKan al
Ġh ic
ĠÃ¶zellik lerini
Ġkullan Ä±
Ġhan g
D iy
alar Ä±mÄ±z
Ġmin ik
ÄŁ a
ÄŁr ul
Ġilg ilendir
Ġhoc am
Ġkitab Ä±n
tÄ±ÄŁ Ä±nÄ±z
ĠÄ°dar esi
Ġs Ã¼z
i x
ĠBul gar
ĠaracÄ± lÄ±ÄŁÄ±
Ġdeneyim li
Ġziy ade
ĠP latform
Ġsiz de
5 2
u el
Ġa ilenin
ĠyÃ¼k s
up er
Ġs is
Ġoran larÄ±
ol d
ĠgeliÅŁ imi
ĠSal ih
Ġgerektir en
ĠtÃ¼rk Ã§e
w ork
Ġn eÅŁ
Ġ4 1
ĠBaÅŁ sav
ĠStr atej
onom ik
ĠB a
ĠÃ¼lk eleri
Ġkonus undaki
Ġyaz dÄ±
ĠsÃ¶z lerine
Ġedilm elidir
ĠÃ§aÄŁ daÅŁ
Ġediyor lar
Ġgid iÅŁ
ĠYaÅŁ ar
Ġ5 7
Ġdurum una
ĠKat egor
c am
Ġdepo lama
Ġal dÄ±klarÄ±
may la
c uluk
ĠÃ¶n lemek
ĠBir lik
ĠVat andaÅŁ
Ġn a
ĠhÃ¼kÃ¼m leri
d el
lÄ±ÄŁ Ä±ndan
ĠYok sa
ĠV Ã¼c
Ġgetir erek
ras i
Ġkap ital
ma dÄ±ÄŁÄ±nÄ±
ĠK el
ĠdÃ¶n dÃ¼r
Ġkr izi
ĠsÃ¼rdÃ¼r Ã¼lebilir
Ġokuy an
S or
ĠE g
ĠÃľ l
at lar
ĠCumhurbaÅŁk an
Ġgay rimenkul
eb ir
Ġsigort alÄ±
ĠdÃ¼r Ã¼st
Ġdo lara
larÄ±mÄ±z dan
Ġbar dak
ĠhastalÄ±k larÄ±
Ġhak em
Ġuzman Ä±
Ġyarat an
m ediÄŁini
al anÄ±
e da
Ġil ham
ĠdoÄŁ du
Ġhar ic
ĠyapÄ±l dÄ±ÄŁÄ±nÄ±
Ġmadd eleri
Biz im
k Ä±ÅŁ
Ġ utan
ĠgeliÅŁtir ilen
ĠhÄ±z landÄ±r
! "
ĠS Ä±k
ĠZ ar
ĠaÃ§ Ä±l
Ġprogram Ä±nda
ĠbaÅŁarÄ± lar
b it
Ġhay li
ĠD iv
lo w
ĠGÃ¼ven liÄŁi
ĠB aba
ĠU r
Ġbiz de
Ä± ÄŁÄ±
Ġkar n
ĠKar go
M es
s inden
Ġr eÃ§
ĠaÃ§ mak
Ġle h
s us
ĠKar deÅŁ
ĠÃĩ at
ĠJap on
Ġente gre
Ġel ini
ĠgeÃ§ir en
ĠBel gesi
Ġyap Ä±ÅŁtÄ±r
ĠMic rosoft
Ä±r nak
Ġger gin
Ġtarih inin
ĠiliÅŁk isi
ĠMet al
Ġuz anan
T T
Ã§ elik
ic isi
ĠKar aman
Ġdev re
Ä°N CÄ°
Ġuzak tan
Ġon larla
Ġsor gulama
K Ä±z
Ġf Ä±
Ġser isi
ĠyÃ¶net ici
Ġd eli
ĠG ez
Ġk esi
ĠAl bay
ist ler
ĠKaz akistan
ĠiÅŁ veren
ĠparÃ§ alar
ĠgerÃ§ eÄŁi
Ġoyn adÄ±ÄŁÄ±
ĠKomut anlÄ±ÄŁÄ±
Ġh i
ĠÅŁ Ã¶
Ġmerkez li
ĠO K
ĠdÃ¶n Ã¼m
ĠHol ding
ĠDek or
ok s
Ġr andevu
Ã¢ yet
Ġat tÄ±ÄŁÄ±
ĠgÃ¶rÃ¼nt Ã¼len
ĠAz iz
ĠB on
Ġol manÄ±z
ĠdÃ¼nya daki
ĠÅŁ ansÄ±
Ġt Ä±bbi
ec ilik
Ã¼n tÃ¼
ĠmaÄŁ lup
Ġkalit esini
mos yon
ĠÃľ ret
Ġhaf Ä±z
Ġrej im
Ġvir Ã¼s
T ur
Ġdetay larÄ±
ĠGÃ¶n der
Ġk ula
len erek
Ġtop lanan
ĠTat il
Ġver il
Ġyar Ä±sÄ±
ma dÄ±m
ev eyn
ĠAd nan
lan maz
Ġyol dan
Ġikti d
ĠNum ar
elle f
Ġatmos fer
ĠOn ur
Ġsin yal
OR U
c al
ĠÄ° laÃ§
ĠC ilt
ĠsÃ¼r dÃ¼
ĠdÃ¶n Ã¼k
ĠHat ay
er in
om uz
Ġinsan lÄ±k
Ġst il
ĠyaptÄ±ÄŁ Ä±m
Ġsay Ä±sÄ±nÄ±
ĠE dirne
am da
Ġad li
Ġedil ecektir
ij yen
m ran
5 00
Ġn ci
ala xy
ĠÃ¶ÄŁ le
Ġkeyf ini
ĠS im
ĠbaÅŁ lay
Ġdin ley
ĠsektÃ¶r Ã¼n
5 6
Ã¢ nÄ±
ĠdÃ¼ny asÄ±nda
Ġim ar
Ġkim in
ĠsaÄŁla dÄ±ÄŁÄ±
h id
Ġ @
ĠA lÄ±ÅŁ
Ġihtiyac Ä±nÄ±z
ob i
Ġadres inden
alim an
Ġmim ari
Ġmark et
Ġpat ron
ĠtaÅŁÄ±ma cÄ±lÄ±k
ĠV ad
ĠbasÄ±n Ã§
Ġbor u
on t
ĠS Ä±nÄ±r
ĠâĨ Ĵ
gel en
ĠmeÅŁ ru
ĠHaz ret
Ġfik r
Ġtaraf ta
ĠÅŁehir de
ĠsÃ¼rdÃ¼r en
Y ukarÄ±
ĠKit ab
ledi ÄŁini
ĠKad ir
l ini
ĠiÃ§er isindeki
ĠsÄ±nÄ±f Ä±
ĠðŁĻ Ĥ
ĠdÃ¼ÅŁÃ¼n en
Ġanla ta
lediÄŁ iniz
ĠÅŁiddet li
lÃ¼ÄŁ Ã¼nde
ĠSamsun g
Ġkas ab
Ã§ uklu
Ġart Ä±ÅŁÄ±
ĠgeliÅŁ meleri
ĠÃ¶n der
os unu
tic aret
ĠgÃ¶rÃ¼l dÃ¼
ĠMillet ler
ĠÃĩÃ¶z Ã¼m
ĠTÃ¼rk Ã§
Ġkitap larÄ±
ĠTer c
ĠÅŁÃ¼ph eli
Ġd et
Ġolay Ä±n
Ġbilgilendir me
ĠgereÄŁ ince
Ġetm ekte
ĠbaÄŁlan t
H at
Ġal dÄ±ÄŁÄ±m
ĠistediÄŁ im
ĠS c
ĠI P
Ġh oca
ĠÄ° ST
Ġbak Ä±ldÄ±ÄŁÄ±nda
Ġhey kel
ĠT a
Ġk edi
ĠT v
Ġev li
ast am
Ġmuay ene
Ġyaz Ä±n
Ġbelir lenir
o id
ĠdÃ¼z el
eceÄŁ imiz
ĠÃ¶ÄŁrenc inin
Ġm elek
v anÄ±
Å ¸
ĠyaÅŁan dÄ±
ĠÃ§alÄ±ÅŁ Ä±rken
ĠTur an
Ä±y sa
ãģĤãģĤãģĤãģĤãģĤãģĤãģĤãģĤ ãģĤãģĤãģĤãģĤãģĤãģĤãģĤãģĤ
lerin ce
ĠU Ã§
- )
Ġmez unu
ong ul
ĠÃ§ey r
ĠDir ektÃ¶rÃ¼
ĠTÃ¼rk ler
leÅŁ miÅŁ
Ġsit ede
en ci
Ã¼m de
Ġyer in
ĠD ub
ama dÄ±
fa iye
ĠK Ä±zÄ±
Ġsal onu
s aÄŁ
Ġyap Ä±ÅŁ
acak sÄ±nÄ±z
ĠbaÅŁar Ä±yla
Ġbirbir lerine
ĠtÄ±k layarak
Ġf rag
Ġgel mez
Ġkullan Ä±ma
ĠÃ¼y elerinin
ĠdÃ¶r dÃ¼ncÃ¼
Ġg Ã¼mÃ¼ÅŁ
ongul dak
Ġd iÄŁeri
ĠHÄ±z lÄ±
ĠÃ¶r neÄŁin
Ġmuh tar
Ġmer diven
ĠÄ°liÅŁ kiler
Ġb ilmek
ĠÃ§ im
la ck
Ġbir imi
per yal
Ay nÄ±
ĠGeliÅŁtir me
Ġyaz mak
ĠGerÃ§ ekten
Ġgazet eci
Ġok uyucu
Ġyaz Ä±sÄ±
A b
li mat
Ġper iy
ĠBaÅŁkan Ä±mÄ±z
ĠÄ°Ã§ iÅŁleri
ĠsÄ±k lÄ±kla
lerimiz den
Ġkitap lar
ĠyÃ¼ksel en
ĠÅŁirket ler
Ġey alet
Ġsev ilen
Ġmuhalef et
em ektedir
Ġmesle ÄŁ
ĠÃ¶y kÃ¼
ĠmÃ¼s abak
Ġoy una
ĠyaptÄ±r mak
Ġsorum luluÄŁ
ĠKullan Ä±m
Ġform u
ĠkullanÄ±l dÄ±ÄŁÄ±
ÄŁ Ä±n
Ġkullan Ä±lacak
Ġde g
Ġerkek lerin
Ġkar Ä±ÅŁÄ±k
Ġtop ar
L A
Ġr ica
200 9
ĠB Ã¼y
ad iÅŁ
Ġzor la
lan t
Ġ5 6
Ġyan lÄ±
Ġkend inize
Ġbah Ã§e
E FA
Ġm Ã¼lt
ĠKiÅŁ isel
Ġek s
Y Ã¼ksek
ĠmÃ¼ j
ĠToplan tÄ±sÄ±
Ġkuvvet li
ĠT rafik
Ġuygulan masÄ±
Ġgar ip
Ġyan g
ĠkuruluÅŁ u
ĠKanunun un
ĠG ider
tis iz
f f
Ġsor gu
Ġtarih e
H z
Ġden eme
Ġsayf ada
ĠD N
Ġay Ä±nÄ±n
Ġis pat
Ã¼st ri
Ġhaber ine
Ġp ik
ĠulaÅŁ an
Ġsor du
Ġcin siyet
ĠV en
Ã¼mÃ¼z Ã¼
Ġtespit i
ĠMark a
ĠdÃ¼ny asÄ±nÄ±n
mar aÅŁ
it h
ĠBilg iler
ĠH edef
ĠÅŁirket lerin
co in
O C
iz mi
Ġd uÅŁ
Ġi ma
Ġfatur a
ĠaÅŁama da
ĠÃ¶nem ini
ers ek
Ġtr av
Ġfik ri
ĠC o
Ġhorm on
Ġla stik
Ġt Ã¼zel
ĠdoÄŁr usu
leÅŁ en
Ġsayf asÄ±nda
Ġpart ner
ĠgerÃ§ekleÅŁtir diÄŁi
mayacak tÄ±r
Ġrefer andum
ĠS Ã¼t
ĠYer el
g rama
ĠP et
ur du
ĠÃĩ el
ĠKat Ä±lÄ±m
ĠgÃ¶Ã§ men
ĠfÄ±r Ä±n
ĠsÄ±nav Ä±
Ġlim on
dir me
ĠsÃ¶z lÃ¼
Ġetm eden
ĠgÃ¼l Ã¼m
ĠHukuk u
ÄŁ day
Ġgerek siz
Ġsit emizde
ĠKurum sal
ĠaÃ§ ar
Ġar Ä±za
ĠÅŀ eker
Ġ5 2
Ġedildi ÄŁini
ĠsaÄŁlayacak tÄ±r
Rus ya
Ġkur du
ĠM or
Ġet ek
ĠSu Ã§
Ġist eÄŁi
Ġmotor u
ĠSÄ± cak
Ġik tis
Ġneler dir
m esin
Ġc ar
ĠBel g
ĠbÃ¶lg esel
ĠtecrÃ¼b e
ĠG B
B Ã¼tÃ¼n
8 2
ĠBak anlar
ĠbÃ¶lg edeki
Ġ20 01
Ġpas aport
ĠS tandart
Ġkan aat
Ġbit ti
Ġetkin liÄŁi
Ġmek Ã¢n
p as
Ġperforman sÄ±
ĠtaÅŁÄ±n maz
ĠS eb
Ġkurul masÄ±
onom i
ĠÃĸdÃ¼l Ã¼
ĠSekret eri
D K
malar da
Ġtad Ä±nÄ±
Ġanlat mak
Ġtav an
ĠFÄ±r at
Ã¼s Ã¼nde
Ġal eyh
AN LI
Ġart tÄ±
ĠD a
Ġiz mir
em de
bar at
ĠrÃ¶ portaj
Ġver ebilir
Ġat Ã¶ly
Ġner eden
Ġanlam Ä±yla
ĠÃ§oÄŁun lukla
ĠbÃ¶lg elerde
ĠdÃ¼k kan
ĠM Ã¼n
ĠG eri
Ġhisset tir
Ġinan c
f Ã¶y
Ġlir aya
ĠO larak
Ġolab iliyor
ĠII I
T he
ĠsÃ¶z cÃ¼
ĠSen dik
Ġboyut u
ĠcÃ¼m le
Ġkural larÄ±
Ġders leri
Ġedil emez
ĠM is
Ġakr ab
in ler
ĠÃ§Ä±r p
S M
Ġverdi ÄŁini
Ġhastan e
Ġeksik siz
Ġp ap
Ġgetir ilmesi
T I
ĠTek irdaÄŁ
Ġhareket li
ĠkÃ¼ltÃ¼r Ã¼
ĠTel ekom
ĠKo du
Ġb araj
ara cak
Ġotur an
ĠaÄŁr Ä±sÄ±
b aÄŁ
Ġmet ro
ĠbaÅŁvur usu
it a
Ġhikay e
ĠgeÃ§ ecek
ĠKur s
meler ine
Ġetkin likleri
Ġk Ä±lÄ±
Ġmes l
Ġa g
ĠMes aj
Ġetm eleri
Ġtes ti
Ġgit miÅŁ
Ġres men
ĠG ece
ĠyÃ¼ksel di
iyor sanÄ±z
Ġdevam Ä±
ĠBal kan
Ġver diÄŁimiz
ob an
Ġboy unda
bey az
t iÅŁ
duk larÄ±nÄ±
f eri
ĠP la
Ġsar f
Ä° B
ĠaÃ§ tÄ±ÄŁÄ±
BaÅŁ bakan
astam onu
ĠÃľn lÃ¼
Ġhedef i
E Åŀ
ĠÃ§ iÄŁ
ĠbÃ¶lÃ¼m Ã¼nÃ¼
Ġz afer
ĠyÄ±l larÄ±n
ĠbaÄŁlÄ± dÄ±r
par ta
Ġvar say
AT I
ĠHes ap
L EM
ĠÃ¶ len
ilm esinin
Ġseb ze
Ġtemin at
Ġvar lÄ±ÄŁÄ±nÄ±
ĠMil liyet
ĠhÃ¢ lÃ¢
Ġy emin
ĠÅŀ Ã¼ph
ĠkÄ±z lar
Ġkad Ä±na
Ġdon at
m il
Ġkullan Ä±yor
ah il
las h
k ay
Ġs ec
as on
Ġzor lan
tak Ä±m
eler imiz
ĠDers in
ĠT ep
ĠiÃ§ e
ĠÃ¶nc Ã¼
ĠQ u
S ay
Ġma t
ĠOn larÄ±n
Ġgez eg
G erÃ§
ab ol
Ġbak mak
ĠaydÄ±n lat
Ġmi dir
Ġkaz Ä±
S ayÄ±n
c unun
tik leri
Ġbey ler
Ġves ile
Ġbelir lenmesi
ĠyÃ¼z me
ĠilÃ§ esine
ĠsÃ¶z lerini
m edim
ĠÃ§ amaÅŁÄ±r
Ġrestor an
Ġelb ise
ik ler
Ġmu c
Ġbulun mayan
ĠÃ§ek erek
Ġan kara
Ġkend isinden
ĠgenÃ§ lerin
ĠkÃ¶y Ã¼
Ġs ade
Ġgir erek
Y K
Ãĸnc elikle
ebileceÄŁ ini
ĠBek ir
ade mi
ĠmÃ¼t hiÅŁ
Ġgel dim
ĠAr da
ĠF uar
amÄ±z Ä±n
T M
Ġoy unda
ĠÃ¼rÃ¼n lerini
ĠÅŁÃ¼ph esiz
A dana
Ġk eÃ§
SaÄŁ lÄ±k
Ġn Ã¼kleer
ĠboÅŁ alt
la sÄ±
Ġsev dik
ber g
l uyor
Ġas ans
ĠiÅŁ ken
Ġart masÄ±
larÄ±nÄ±z da
ĠO L
Ġc Ã¼z
ĠD anÄ±ÅŁ
ĠN ATO
Ġelektrik li
or ld
ĠhazÄ±r ladÄ±ÄŁÄ±
ĠyapÄ± ya
his ar
5 1
Ġkur ucu
Ġdur ak
ilmiÅŁ ti
ov er
ĠÅŁart lar
ĠC om
Ġtut k
ĠyaÄŁ lÄ±
Ġkop y
ĠDeÄŁer lendirme
ĠE lem
Ġdo landÄ±r
Ġr azÄ±
Ġtasar lanmÄ±ÅŁ
LER Ä°N
Ġifade si
Ġoyunc usu
los uz
ĠMes leki
ĠRapor u
ĠS tar
Ġyap abilecek
Ġkoy up
ĠDav ut
ĠE fendi
Ġyaz Ä±lan
ken der
Ġcan Ä±m
ĠGeÃ§ miÅŁ
H erk
Y Ã¶n
ĠMar din
Ġd k
et en
d y
ĠbaÅŁ a
ĠÅŀ iir
ĠdÃ¶n en
ĠyapÄ±lan dÄ±r
Ġem lak
meler de
am es
ĠY rd
SY M
ĠkiÅŁi den
Ã¼l Ã¼ÄŁ
Ġfil tr
ĠC engiz
Ġfilm leri
GeÃ§ tiÄŁimiz
Ġmuhab bet
I D
uÅŁt uÄŁ
c ilerin
el eme
Ġor uÃ§
GeÃ§ en
Ġolur lar
lediÄŁ imiz
Y er
Ġolsay dÄ±
ep yeni
ĠD ili
ĠgeÃ§ tiÄŁi
p iyat
aman Ä±n
ĠtÃ¼ket ici
Ġtop lama
ĠaÃ§Ä±ÄŁ a
re e
as al
ĠFa aliyet
Ġ <
ĠB oÅŁ
Ġ5 4
Ġtit r
ĠY AP
Ġtav uk
Ġvitam ini
Ġol gu
ĠÄ°n cel
ĠgeÃ§ir di
ĠetmiÅŁ ti
ĠY Ä±k
OÄŀ LU
Ġger ilim
ĠaÅŁ Ä±
ĠyayÄ±n landÄ±
E F
Ġkal eme
ĠgÃ¶rÃ¼n Ã¼r
Ġpolitik asÄ±
C umhuriyet
Ġ4 3
Ã¼yor um
Ġp az
ĠRes im
ĠdÃ¼ny asÄ±
in can
ĠsÄ±nav a
ĠoÄŁ lum
ĠÃ¶l dÃ¼
ĠGel ir
ĠZ eyn
ĠihtiyaÃ§ larÄ±
ĠC ey
Ġhakk Ä±na
kar ahisar
Ġhayat Ä±nÄ±n
ĠgeÃ§ir diÄŁi
ĠÃ§alÄ±ÅŁmalar Ä±nÄ±n
ki f
n ci
Ġtec avÃ¼z
âĢĿ .
ĠBak Ä±r
Ġtah sis
Ġyetkil ileri
Ġhar ek
b uki
ĠÃ§ev rim
Ġlim it
ĠbaÅŁ layarak
Ġgez i
Ġbaz Ä±nda
ĠEs en
ĠK esin
ÅŁ un
ĠE lazÄ±ÄŁ
ĠAn abilim
ĠPro t
f af
Ġg ev
Ġdo g
ĠBiz ans
Ġok si
Ġtak ib
ĠboÅŁ an
O kul
v al
ĠiÅŁlem lerini
ĠartÄ±r mak
Ġduy ulan
ĠBaÄŁ Ä±m
ĠBah Ã§e
Ġkur ucusu
Ġis yan
d unuz
ĠbÄ±rak Ä±p
ĠMod ern
S ar
ant olon
200 8
Ġyol un
ĠHik ay
Ġsaat lik
Ġg un
Ġdal ga
Ġkar Ä±n
ĠsavaÅŁ Ä±
ing ton
BaÅŁk an
ĠK oz
Ġr ot
Ġbul gu
ĠyaÅŁam Ä±ÅŁ
ĠdaÄŁ Ä±lÄ±m
ac iÄŁer
ola ta
ĠMÃ¼hendis lik
Ġkur duÄŁu
ĠyÃ¶net melik
ĠÃľs kÃ¼dar
Ġle v
ĠyÃ¼kÃ¼mlÃ¼l Ã¼k
ĠgiriÅŁ i
Ġal dÄ±ÄŁÄ±nÄ±z
ĠG r
Ġkurul muÅŁtur
DÃ¼ny anÄ±n
ĠIÅŀ Ä°D
am lar
ĠF izik
ĠYap Ä±mÄ±
B ar
ĠoluÅŁ uyor
m Ã¼
ur un
Ġvar mÄ±ÅŁ
Ġot opark
ĠÃĸn emli
ĠkatÄ±l mak
m Ã¼ÅŁtÃ¼
ĠH il
ĠU Y
Ġdir ektÃ¶r
ĠsÃ¶zleÅŁ mesi
ĠpiÅŁ man
Ġlim an
tÄ±ÄŁ Ä±nda
ĠÃ§ if
ĠgÃ¶rÃ¼nt Ã¼l
Ġkaps ayan
ĠNit ekim
ya ÄŁ
ĠD u
Ġtarih sel
lerimiz de
ation al
ay Ä±cÄ±
âĢ º
Ġtop tan
Ġhaber dar
d ilik
Ġp is
Ġhak larÄ±nÄ±
ĠyÃ¼k lÃ¼
er ez
Ġihtim ali
ral ya
ĠmÄ± dÄ±r
Ġyap acaÄŁÄ±nÄ±z
Ġdost u
Ġk Ã¼p
ĠÃ§ Ã¼r
elik op
9 8
er leri
Ġkap Ä±sÄ±
Ġetm ey
acaÄŁ Ä±na
ĠgenÃ§ lik
Ġhep imiz
Ġsap tan
Ġimk ansÄ±z
T ak
Ġil im
Ġbelirt mek
ĠBil iÅŁim
any ol
ĠSay Ä±sÄ±
Ġort ala
Ġref orm
t iy
ĠeÄŁlen c
ĠDE Äŀ
Ġv a
ĠJ e
amÄ±z a
Ġbur un
Ġar Ä±yorum
iler iyle
Ġyah ut
Ġ6 4
ĠFiyat larÄ±
ĠMah al
Ar kadaÅŁ
ĠK iÅŁi
Ġkal masÄ±
ĠiÃ§ ten
Ġnitelik li
6 4
ĠgeÃ§erli dir
ĠÃ¶ncelik li
ĠTeknoloj ileri
Ġbilm eyen
ener al
ĠYÃ¶netmeli ÄŁi
Ġd Ã¼
ĠG iz
Ġmemnun iyeti
ĠB ize
Ġa di
eÄŁ im
Ġyaz Ä±lmÄ±ÅŁ
ĠÃ§alÄ±ÅŁmalar a
Ġkat Ä±lma
hal de
ĠaÃ§ Ä±lmasÄ±
ĠÃ§ek ilen
Ġetk isiyle
Ġistedik leri
Ġver gisi
uv arÄ±
larÄ± dÄ±r
Ġkol tuÄŁ
Ġkans eri
ĠR ize
AN K
ĠAÃ§ ma
H AL
ĠnÃ¶ bet
Ġde gil
Ġolab ileceÄŁini
Ġn azar
Ġettik lerini
k eme
r anÄ±
ĠfotoÄŁraf larÄ±
Ġekst ra
ak lar
ĠaÃ§Ä±klama ya
ĠbaÅŁlat Ä±lan
Ġf iz
ĠDev amÄ±
ĠyaÅŁ ar
Ġolur sak
ĠeÄŁitim e
Ġok ulu
ĠtÄ±p kÄ±
ĠdeÄŁer ler
is p
F ir
Ġmev ki
Ãĸ te
ĠbaÅŁkan lÄ±k
Ġmir as
ĠdeÄŁer ini
Ã¼n c
ĠalÄ±n dÄ±ÄŁÄ±
ĠbÄ±rak tÄ±
ĠKÃ¼r d
ĠRad yo
v il
Ġfazlas Ä±yla
f ir
iy o
Ġn eyse
Ġseviy esinde
Ġik iye
ĠKaymak amÄ±
ir kin
ek si
ĠiÅŁ ley
eceÄŁ ine
ĠgÃ¶nder ildi
ĠT AR
Ġ6 8
ĠgÃ¼n dÃ¼r
ĠsÄ±k Ã§a
Ã¼nÃ¼z Ã¼
A na
Ã§ Ã¼
Ġp osta
Ġart Ä±yor
Ġsp onsor
ĠC emal
ĠyÃ¶n lÃ¼
ĠÃ§Ä±kar Ä±lan
ĠSor u
ĠsÄ±ÄŁ Ä±n
ĠdediÄŁ imiz
ĠbaÅŁla mak
Ġekley in
ĠSekret er
el in
ĠS iyah
ut u
ĠsÄ±r al
à ¤
am il
ĠkÄ±sm Ä±na
Ġkend imizi
Ġk las
Ġt Ã¼p
Ġokul da
Ġg or
aÄŁ Ä±ndan
Ġ5 3
ĠÃ§ ub
f ab
m iyorum
Ġetk isini
ĠAdÄ± yaman
l osu
Ġuygun dur
eh r
b Ã¼r
ĠÃ¼n cÃ¼
tu ÄŁrul
ĠÄ°nsan lar
Ġart arak
6 3
Ãľn iversit
D ER
la manÄ±n
M ah
ir iz
ĠH Ã¼k
Ġmen Ã¼
n ce
Ù Ĩ
Ġay a
Ä° st
Ġal Ä±na
Ġin tihar
ĠU sul
ci ÄŁer
h ak
ĠÃ§ Ä±ÄŁ
Ä° kinci
ĠP olat
ĠaraÃ§ larÄ±n
ĠayrÄ± c
Kul lan
ĠS y
ĠK DV
ĠV ekili
p ro
ĠÃĸzel likleri
ĠÃĩ am
am Ä±zÄ±
ĠbaÅŁ rol
ĠtaÅŁ Ä±t
Ġiler lem
ra j
Ġsev iyesi
Ġilg isi
S t
Ġnokt alarÄ±
ĠhÃ¼kÃ¼m eti
ĠT ap
Ġg Ã¼b
ĠL og
ĠN ef
Ã¶r ler
Ġsan tral
ĠSel Ã§uklu
Ġkullan Ä±n
Ġli f
ĠdeÄŁiÅŁtir me
Ġvak Ä±f
Ġ( %
ĠÃĸ te
ĠGir iÅŁim
t d
» ¿
-- -
P ol
R A
ĠÃ¶y k
Ġver dikleri
Ġred ded
Ã ±
ĠY olu
Ġtah t
ĠyapÄ±l masÄ±nÄ±
adiÅŁ ah
ĠS ite
ap p
Ġboyut lu
ĠkÄ±z ar
Ġedeb ilecek
Ġgel ebilir
Ġplan lanan
ĠyÃ¶netic ileri
ĠKah v
ĠY IL
ĠU krayna
ĠÅŁu an
Ġuzak laÅŁ
ĠÄ°nÅŁ allah
ĠgÃ¶z Ã¼
ĠkÄ±lav uz
ĠgerÃ§ekleÅŁ ecek
ĠÅŁar tÄ±
it eli
Ġola s
ĠbaÅŁ landÄ±
Ġmenf aat
la b
Ġan Ä±m
ĠPazar lama
ĠT ev
ahat tin
ĠÃ§alÄ±ÅŁan larÄ±
ĠA ta
ĠG it
ĠF el
ĠPlan Ä±
uÅŁt um
en s
ĠB i
Ġyenilik Ã§i
Ġsan dÄ±k
ab ey
ĠM uÄŁla
mem ektedir
Ġ199 9
ĠÃ§ ektir
ĠyaÅŁ amaya
Ġm otosiklet
Ġkon ul
eter iner
viÃ§ re
ĠK um
ĠÃ¼st e
sar ay
Ð º
ĠÃĩocuk lar
Ġol uÅŁtu
Ġolacak sÄ±nÄ±z
ĠyaptÄ±k larÄ±nÄ±
ĠK lima
ĠdeÄŁiÅŁtir mek
Ġadam larÄ±
Ġp Ä±r
Ġhassas iyet
T em
Ġkurum larÄ±
ĠÃ§at Ä±ÅŁma
Ġn adir
Ġsahib inin
Ġar azi
ĠtÄ±r man
ĠR ef
iliÄŁ inden
D EN
Ġt etik
Ġbelir lem
lÃ¢ h
Ä±lab ilecek
Ġgeb elik
Y Ä°
Ġv as
Ġar tar
ĠkÃ¶y lÃ¼
ĠTÃ¼k et
ĠyÃ¼kÃ¼m lÃ¼
ĠÅŀ arkÄ±
et le
ER K
Ġgelec ekte
ĠgÃ¶ster gesi
ĠM ag
Ġher ÅŁey
Ġbul uÅŁtu
ĠdeÄŁil se
ĠAk ÅŁam
Ġbelg esel
Ġpar ayÄ±
ĠyayÄ±n lan
ĠÃĩ ukur
ĠKK TC
eh ri
Ġat mak
ĠdÃ¼z eni
Ġun van
ĠTR T
Ġkonfor lu
Ġriv ayet
Ġb asÄ±
Ġar amak
ĠbaÄŁlam da
Ġail esinin
se de
Ġsat an
Ġekley ip
G Ã¶n
ĠÃĸ ÄŀR
Ġ 000
la bilir
Ä±r h
Ġproblem i
ĠÃĸ N
men ize
ĠtecrÃ¼b eli
Ġdola p
ĠEl bette
Ġmahk um
G azi
ĠC or
ĠN ormal
ĠsÃ¼rec inin
ĠsaÄŁla dÄ±
Ġoyuncu lar
Ġyap mÄ±ÅŁtÄ±r
Ġku cak
c im
ĠyapÄ±l malÄ±dÄ±r
eniz in
ĠUz ak
at an
Ġkat Ä±lacak
ĠKur ban
Y ine
em edim
ar ya
ĠyaÅŁ adÄ±
Ġb o
ĠÃ¼lk eyi
Ġem anet
ĠkÃ¶ÅŁ e
Ġdiyebilir iz
ĠÃ¼ret ici
Ġolab ileceÄŁi
ĠmÃ¼ÅŁter ilerine
k oz
Ġ6 7
Ġpat ent
an taj
ac asÄ±
Ġ8 00
ĠÅŁiir leri
ĠFet h
Ġda im
Ġsev diÄŁi
ĠTurk cell
ĠsÄ±r asÄ±yla
Ġhastan Ä±n
d elik
on i
Ġmin eral
ĠadÄ±m lar
Ġred det
G Ã¶z
Ġver miÅŁtir
LAR IN
UL U
ĠC in
f ez
Ġanla ya
G ir
S Ã¼r
Ġev lat
ĠÃľ ye
ten j
d Ä±zÄ±
Ġgel mek
Ġdayan an
ĠG Ã¼mrÃ¼k
Ġan t
ar da
Ã§ ika
Ġver iliyor
ĠgÃ¶rev leri
Ġ5 9
Ġhastan ede
ĠArap Ã§a
ĠaÃ§ Ä±p
ĠC ol
Ġayr Ä±ldÄ±
ev re
Ġce h
Ġbulunma maktadÄ±r
ĠÃ§ iÃ§
ĠsÃ¼rdÃ¼r Ã¼yor
ĠK AY
r uklu
ĠyÃ¶n Ã¼nden
Ġdurum unu
Ġem eÄŁi
Ġitir af
g raf
ĠYap an
Ġkesin tisiz
ĠtanÄ±n an
Ġkarar Ä±nÄ±
Ġet sin
i er
s iyle
ĠN es
Ġg Ã¼ler
ĠM it
Ġs taj
Ġkur ma
ĠÃ¼n it
Ã¢ s
ir se
Ġk ed
Ġf rek
en lerin
Ġbar daÄŁÄ±
Ġdiyor lar
ograf i
z ir
Ġyap madan
ĠH ad
ĠyÃ¼rÃ¼t tÃ¼
Ġsaha da
Hay at
ĠDeÄŁiÅŁ iklik
st eri
ĠbaÄŁlan tÄ±sÄ±
ĠilaÃ§ lama
f an
ĠbaÅŁ lÄ±
ĠUn ut
Ġkal dÄ±m
Ġgrup larÄ±
l iliÄŁini
ÄŁ inde
ĠO rada
ĠAy ÅŁe
ĠDik kat
Ġsorum luluÄŁu
ĠG Ãľ
ĠAh ÅŁap
ĠHer hangi
ĠAs ker
ĠÃ¢ yet
ĠMek an
Ġm e
Ġsat Ä±lan
Ġyuvar lak
mÄ±ÅŁ lar
ĠP o
us a
ĠU SB
ĠBr ezil
Ġkusur suz
Ġsit esinden
Ġn olu
ĠYet er
T el
y umu
er gah
Ġsit eler
nav ut
Ġk Ã¢r
Ġc al
Ãľ Ã§
Ġer di
Ġsar ay
ĠGel in
Ġcerrah i
G Ã¼zel
ĠmÃ¼ d
ĠSal on
mran iye
C O
ĠbaktÄ±ÄŁ Ä±mÄ±zda
Ġsev diÄŁim
ĠYal Ã§Ä±n
av v
Ġhaft asÄ±nda
K Ä±s
ĠtÃ¼r leri
Ġkir a
ĠK Ä±rÄ±m
Ġsay Ä±lan
ĠAn tik
ĠKÄ±r mÄ±zÄ±
Ġh el
em edi
Ġmerkez leri
Ġkims eler
ĠhÃ¢ kim
ĠKomut anÄ±
ĠAvust urya
ĠG alaxy
Ġbab asÄ±nÄ±n
ĠDiy anet
Ġnih ayet
c m
osk ova
en leri
un g
Ġgel sin
E t
ĠB uz
Ġasker lik
Ġh ur
Ġu f
ĠiÅŁÃ§ iler
Ġsevin irim
Â °
Ġtamam Ä±nÄ±
Ġyorum larÄ±
Ġzih insel
ĠÃľzer ine
gÄ±t ay
ĠtÃ¶r eni
Ġyap t
Ġbilg iyi
ĠkaldÄ±r Ä±ldÄ±
ĠbilinÃ§ li
Ġmut luluÄŁ
Ġs i
ĠMuhar rem
eniz de
os un
ĠEr dem
ĠsÃ¶yley erek
Ġar alÄ±ÄŁ
ĠVak Ä±f
Ġ9 5
ĠBur ak
Ġbit kiler
b ab
Ġdok uz
iliÄŁ e
ĠkonuÅŁ mada
s k
ma in
Ä±y aka
d f
ĠG u
ĠO na
Ġpat ates
ĠMus a
Ġbeb eÄŁin
ĠgeleceÄŁ e
Ġyap Ä±lacaÄŁÄ±
ĠKir alama
Ġtemiz leme
ĠBah ar
Ãľr Ã¼n
ĠkeÅŁf ed
v alar
ï¿½ ,
Ġat arak
ĠsÄ±nÄ±r Ä±
f one
Ġilk e
Ġb am
Ġbab am
âĢ¦ âĢ¦
Ġsistem inde
Ġy Ä±ÄŁ
Ġnamaz Ä±
ĠÄ°k tis
Ġal madan
ama y
Ġmas al
ĠTur gut
Ġiy ilik
Ġb erek
b olu
Ġf abrika
ĠBas ketbol
ĠÄ°h racat
Ġistem iyorum
t ra
ĠÃ§ adÄ±r
Ġres imler
Ġm isyon
Ġpar amet
Ġtan rÄ±
ĠilaÃ§ lar
ĠbaÅŁlat tÄ±
Ġep ey
Ġkur an
Ġinsan i
Ġbur adaki
ĠgÃ¼ncel lem
ĠTel evizyon
ĠK eÅŁ
ï¿½ .
ĠyatÄ±rÄ±m cÄ±
ĠaydÄ±n latma
Ġifade sini
B Ã¶yle
ekk e
ĠhÃ¼c re
Ġs ep
ĠgÃ¼n Ã¼mÃ¼z
ĠsÄ±k Ä±ÅŁ
ĠK Ä±lav
Ġ8 1
Ġdo mates
ĠZ afer
Ġal man
Ġaday larÄ±n
maktadÄ±r lar
ĠkÄ±r sal
ĠÄ°s veÃ§
ĠgÃ¼Ã§ leri
ĠE S
lerimiz le
Ġfaaliyet lerini
Ġharic inde
Ġj e
ĠmÃ¼k ellef
iz in
Ġbul dum
As lÄ±nda
Ñ ĥ
ĠyardÄ±m cÄ±sÄ±
S adece
ĠÄ° hale
ĠÅŀ er
Ġyol lar
lÃ¼k te
ĠadlandÄ±r Ä±lan
T AL
Ä±l masÄ±nÄ±n
Ġenerj isi
ĠgeÃ§ mesi
Ġdiz ayn
Ã¼r ler
Ġvur gulan
Ġseviy esine
ĠPiyas asÄ±
ĠBÄ°L GÄ°
ĠEv ren
ĠFar uk
Ġd ul
ĠN il
ĠU N
Ar tÄ±k
Ġtut arÄ±
ĠtanÄ± ma
Ġkayded ildi
l Ã¼t
Ġm t
ĠeÄŁ ilim
ĠdÃ¼zey inde
ĠBelediy espor
ĠkaÃ§Ä±n Ä±lmaz
ĠA ÄŁrÄ±
ĠO R
Ġak Ä±n
6 1
Ġver ilerine
ĠAmer ikalÄ±
ĠbÃ¼yÃ¼y en
akk ak
ĠT amam
Ä° yi
ĠS Ã¶y
Ġetkinlik ler
Ġtab ir
Ġpiyas ada
ĠÃ§ek me
Ġtehlik e
Ġdin lem
Ġkampany asÄ±
Ġmuhal if
Ġf es
atÄ± lÄ±k
ĠÄ°Ãĩ Ä°N
Ã Ĥ
Ġkay gÄ±
Ġbak arak
Ġbilin mektedir
Ġfak Ã¼lt
yaz Ä±lÄ±
I C
ĠC as
Ġkullan Ä±ÅŁlÄ±
res el
Alman ya
iÃ§ in
Ġbir takÄ±m
ĠÄ° p
Ġgir iyor
ĠÃ§alÄ±ÅŁan larÄ±n
T ab
ĠP ap
ĠyÃ¼z Ã¼ne
Ġdetay lara
ĠTanÄ± tÄ±m
ĠÃĸ y
s c
ĠK PSS
Ġ18 0
ĠG ÃľN
ĠÅŀ ey
ĠsÃ¼rec ini
Ġfi il
Ġkon gr
p o
Ġmuhtem elen
ĠgeliÅŁtir ilmesi
ĠYun us
mel isiniz
F F
uz el
ĠbaÅŁ lÄ±ca
ĠD am
Ġfa cebook
alama ya
Ġiz liyor
ĠAf rin
ĠÅŁehir ler
ĠKir alÄ±k
ĠkardeÅŁ im
ĠdÄ±ÅŁarÄ± dan
ĠB AK
Ġbak ter
Ġzorunlu dur
Ġd iyoruz
Ġkon unun
ĠÃĩ iz
ark a
Ġid rar
Ġpro p
ĠAn t
Ġkay d
os man
Ġes ir
out ube
b aba
Ġk Ã¼m
ilm eli
âĢ¦ âĢĿ
Ġkoy du
n af
n ess
ya ÄŁÄ±
Ġ19 80
Ġaray arak
ĠAlan ya
201 9
ĠD A
ĠDur umu
ĠEk ip
ĠmÃ¼cadel esi
Ġgit tiÄŁi
Ġkav uÅŁtur
ĠG Ã¼ler
ĠF ay
ĠbÃ¶ cek
f alt
Ġan Ä±lan
ĠBun larÄ±
Ġprogram lar
Ġediyor du
EN Ä°
ĠM avi
ĠcoÄŁraf y
R E
ĠhÃ¼kÃ¼m lerine
ĠTab lo
Ġre ak
ĠE h
Ġmodel ler
ĠÄ±ÅŁ Ä±n
ĠÅŁim diye
lan a
id in
Ġolmak sÄ±zÄ±n
Ġher ÅŁ
Ġtaraf a
s iyesi
ĠB Ã¼t
r Ã¼
ĠÃ§ ekt
ĠalÄ±n mÄ±ÅŁtÄ±r
Ġkop ar
Ġkilomet r
Ã¼z Ã¼n
ĠtÃ¼ketim i
ĠiÅŁ yeri
ĠÃĸ lÃ¼m
ĠKon gre
Ġy aban
ĠN ak
Ġd ed
ĠtaÅŁ Ä±r
Ġodak lan
Ġpu anÄ±
er on
maz lar
Ġuyan dÄ±r
Ġal acaÄŁÄ±
Ġot ob
bul ans
Ġkavram Ä±
Ġy epyeni
aÅŁ ehir
Ġbas ketbol
Ġoran la
Ġdiren Ã§
Tr abz
Ġ Ø§
Ġh ek
ĠbaÅŁ Ä±nÄ±
luÄŁ unun
lay Ä±
8 5
Ġyak Ä±nda
ĠSilah lÄ±
H iÃ§
ĠT as
Ġsit eye
ĠÃĸz demir
ĠgÃ¶r eceksiniz
ind ek
Ġy irmi
Ġsat Ä±cÄ±
Ġm Ã¼c
ĠMÃ¼st eÅŁ
alÄ± lar
ĠaÃ§Ä±k lanan
ĠFat ma
ĠyÄ±k an
um da
Ġfilm ler
Ġat Ä±ÅŁ
Ġinsan larla
bar ek
ĠBÄ°R Ä°NCÄ°
g atif
Ġgel eceÄŁini
Ġkad er
Ġman tar
Ġvide oyu
ĠMakin esi
ĠKaf kas
F a
Ġser gi
Ġb est
al isyon
Ġel den
ĠÅŀ eyh
Ġnak it
ĠD ak
ĠY um
ĠkÃ¼t Ã¼phan
Ġb itim
cu lar
ĠyaÅŁam Ä±
ĠP il
Ä° P
ĠD Ã¼ÄŁÃ¼n
ar lÄ±k
Ġhal iyle
ĠkÄ±s men
ĠmÃ¼lk iyet
ĠgÃ¶r mez
Ġ5 1
luÄŁ una
El ekt
ĠS ov
ĠgÃ¶r Ã¼ÅŁt
ĠÃ¶zel liÄŁini
ĠbakÄ±m dan
Ġpeyn ir
ĠA det
ĠD ijital
Ġdevrim ci
Ð »
aÄŁ an
ĠV eli
Ġverir ken
ĠpeÅŁ inde
kur may
et tin
Ġayn en
ĠÃ§alÄ±ÅŁ Ä±yorum
Ġsah asÄ±
Ġs oya
Ġgrup lar
ĠkarÅŁÄ±la mak
Ì Ĩ
Ġoyn at
Ã» r
Ġhav ada
Ġbuz dola
ĠKur su
Ġsit enin
ĠgÃ¶ster erek
ĠDÃ¶n emi
S eÃ§
da ha
ĠkadÄ±n lara
g ir
ĠÃ§Ã¶z Ã¼nÃ¼r
ĠDÃ¶n Ã¼ÅŁ
ĠB anyo
Ġat e
Ġfilm de
Ġileri de
Ġkonse pt
ĠkÃ¶t Ã¼lÃ¼k
7 6
Ġk anÄ±
Ġc on
Ġken tin
h ep
Ġk lav
at in
ĠB oya
ĠP C
istan bul
ĠSer maye
Ġmu am
ĠyÃ¼ksel iÅŁ
d Ã®
ĠÃ§Ä±k mÄ±ÅŁtÄ±r
ĠsonuÃ§ larÄ±nÄ±
Ġ Ä±ÅŁÄ±
ĠgerÃ§ekleÅŁtir mek
7 1
Y Ã¼z
Ġh ijyen
Ġhareket leri
ĠaÃ§Ä±kla masÄ±nda
larÄ±m Ä±n
b asÄ±
Ġb y
Ġal kÄ±ÅŁ
l imi
Ġyan Ä±l
mas ya
ĠL ED
Ġtak ibi
ĠmaÃ§ Ä±n
ĠbaÅŁar dÄ±
ht tp
Ġgel miÅŁti
Ġordu s
Ġp Ã¼r
ĠÃ§Ä±k maktadÄ±r
ĠeÄŁ il
Ã¶z el
ĠÅŀehir cilik
) )
h em
lan dÄ±ÄŁÄ±nÄ±
eh met
BÃ¶l Ã¼m
ĠyÃ¼zyÄ±l da
ĠF Ä±k
Ã¼c el
An adolu
uh af
ĠmÃ¼ÅŁteriler imize
ĠBaÅŁbak anÄ±
ĠgÃ¶r Ã¼lebilir
Ġkar ara
ĠÅŀ Ã¼k
ĠsaÄŁlan Ä±r
ĠGEN EL
Ġsar s
H af
ĠHayvan cÄ±lÄ±k
r ev
Ġmuhtem el
Ġyel paz
ĠLev ent
H em
Ġdo z
Ã½ l
ĠÃ¶dÃ¼l Ã¼
ilm i
ĠÃ¼lk eden
Ġetm eyen
ĠÃ§oÄŁun luÄŁu
Ã¼s Ã¼ne
dÃ¼ÄŁ Ã¼nde
ĠKap alÄ±
Ġnit elendir
At atÃ¼rk
Ġmadal ya
ĠÃľ z
ĠsÃ¼rdÃ¼r dÃ¼
ĠÃ¶ÄŁretmen ler
Ġmuay en
un e
ĠgeÃ§miÅŁ te
ĠKon ak
Ġbilin meyen
Ġf igÃ¼r
Ġkal madÄ±
ĠsÃ¶yledi ÄŁi
Ġsayf asÄ±
ik leri
Ġsak Ä±n
ĠD uvar
ĠgeÃ§ in
Ġfak ir
ay dÄ±n
ĠK ey
ĠgÃ¶rev lisi
Ġolay larÄ±n
Ġef end
Ã¼ÄŁ Ã¼nÃ¼
Ġduy uru
Ġkarar larÄ±
ĠÃ¶t esinde
ĠÃ§Ä±kar an
ĠFir ma
Ġdey ip
Ġr Ã¼ya
lek s
ĠA S
ĠbiÃ§ imi
Ä°n ternet
ĠakÅŁam Ä±
Ġkullan Ä±lÄ±yor
Ġalt Ä±ndan
ĠKo lay
ĠalÄ±ÅŁkan lÄ±k
ĠÃĩ or
ĠÃ§Ä±l gÄ±n
ac i
Ġyarat mak
Ġp et
Ġay Ä±n
ĠÅŀ ef
Ġvur uÅŁ
Ġek ledi
ĠyÃ¶n elt
ĠyaptÄ±k tan
ĠaklÄ± ma
ĠG em
Ġsenar yo
il at
ĠsÃ¼r ecek
B Ä°T
Ġhuzur lu
Ġha in
Ġk uz
Ġy il
ĠbaÅŁla ya
Ġkes kin
ĠyaÅŁam Ä±n
Ġ199 0
ĠdÃ¼ÅŁÃ¼nc eler
Ä°s lam
Ġf av
Ġi v
ĠYarÄ±ÅŁ masÄ±
ĠY Ã¼ce
Ġgel eni
Ã½ nda
Ġmesaf ede
h h
adÄ±ÄŁ Ä±nÄ±
Ġpas ta
Ġ- -
Ġolduk tan
Ġmer haba
ĠGenel likle
ĠyazÄ± lar
Ġkent inde
K ah
k esi
Ġed elim
Ġay dÄ±r
ĠgÃ¶z leri
ĠgÃ¶rdÃ¼ÄŁ Ã¼nÃ¼z
ĠÃľ mit
g Ã¼cÃ¼
ĠÃ§alÄ±ÅŁ acak
Ġzar f
Ġsez onu
ĠaklÄ± m
Ġt Ã¼f
ĠO lim
ĠAn ayas
Ġeb eveyn
elikop ter
B aÄŁ
ĠÃ§il ingir
ada m
Ġ7 00
ĠvasÄ±t asÄ±yla
ĠolduÄŁ umu
ĠKan ada
ĠgiriÅŁ imi
Ġgr ev
Ġola caÄŁ
Ä ¢
dÄ±ÄŁ Ä±n
Ġtes limat
ĠbÃ¶ brek
oz a
Ġk ast
Ġbu har
ĠYÃ¶n tem
Ġunut ulmaz
I F
Ġay Ä±na
j uv
ĠR ah
ul tu
âĢ ĭ
ĠateÅŁ li
sas por
ĠKur an
ĠbaÅŁlama dan
ĠÄ° sa
AR T
ĠM oda
ĠÃ§alÄ±ÅŁ manÄ±n
Ġmut lak
Ġdiler iz
Ġplak alÄ±
ĠÄ°stik lal
Ġoyn ama
Ġtakv im
N E
Ġve sil
ĠE ur
ĠiÅŁaret i
7 2
ĠE bu
Ġder hal
Ġtoplu ma
ĠTeÅŁ ekkÃ¼r
Ġt encer
Ġet i
Ġver mez
Ġhast alar
ĠÃ¼cret leri
ĠGÃ¶n Ã¼l
ĠEv i
oda fone
Ġpo li
Ã¶r leri
Ġseb z
Ġk ot
Ä° SÄ°
Ġan ayas
ĠyaÅŁ Ä±na
Ġama tÃ¶r
ĠiÅŁ sizlik
Ġdetay lar
ĠhÃ¼kÃ¼m etin
Ġtopr aÄŁa
in at
Ġkur uÅŁ
Ġhal ini
Ġser in
Ġpar sel
H ep
Ġ8 5
ĠoluÅŁtur uyor
ĠseÃ§im leri
ĠyukarÄ± daki
ler inizin
Ġceh enn
ran d
ĠbÃ¼r ok
Ġiyil eÅŁ
ĠsÃ¼rec in
ĠseÃ§ men
ĠBer lin
A ÄŁ
Ġk Ä±t
Ġy uk
Ġyol la
ĠOla ÄŁan
Ġistedik lerini
ĠkaydÄ± yla
Ġsemin er
ĠÃ§ et
Ġc umhuriyet
ĠaÃ§ Ä±lÄ±r
Ġtab anlÄ±
ĠgÃ¼z ergah
ĠÅŁekil lendir
Ġdav asÄ±
ĠdÃ¼ÅŁÃ¼nÃ¼yor uz
c uz
ah an
por t
Ġduy an
ĠgerÃ§ekleÅŁtir en
ĠsÃ¼r Ã¼ÅŁ
ĠEr tuÄŁrul
Ġetm esini
ĠÄ°dar i
h ir
Ġhikay esi
Ġgide ceÄŁ
Ġbir de
Ġz an
Ã§ Ä±nÄ±n
Ġhizmet ini
ĠiÅŁÃ§ ilerin
ĠiÃ§ me
ĠmÃ¼z iÄŁi
g eneral
Ġkurum larÄ±n
Ãĩ Ã¼nkÃ¼
st en
ib il
ĠMem ur
Ġkurul du
ĠBul un
ĠniteliÄŁ inde
Ã§ iliÄŁi
Ġsorun larÄ±nÄ±
ĠB l
ET ME
Ġkelim eler
ĠsÃ¶y leÅŁ
ĠdÃ¼zen ledi
Ã§ek mece
Ġk ef
ĠCam i
K az
Ġas Ä±r
Ġslog an
ĠÃ§oÄŁ al
on lar
ĠgÃ¶rÃ¼l dÃ¼ÄŁÃ¼
ĠyazÄ±lÄ±m Ä±
len mektedir
K Ã¼Ã§Ã¼k
mÄ±ÅŁ lardÄ±r
ĠHar ek
ĠP al
Ġkom b
ĠettiÄŁ im
Ġdiren iÅŁ
ev er
ĠKom itesi
Ġi tem
ĠEv de
ĠsavaÅŁ Ã§Ä±
Ã½ k
larÄ±m la
ĠBirleÅŁ miÅŁ
ĠH ekim
Ġvak ti
b arÄ±
Ġpersonel in
Ġetk isiz
et k
Ġkazan Ä±r
ĠtuÅŁ una
Ġv an
ik li
ĠÄ° pek
ĠkarÄ±ÅŁ Ä±m
ĠY Ã¶r
Ġtamam layan
Ġplan lama
ã Ģ
ĠEy Ã¼p
l ov
ĠbÃ¶lÃ¼m Ã¼nden
Hay Ä±r
may Ä±nÄ±z
Ġpak eti
r ef
is tir
ĠAlev i
ĠkadÄ±n larÄ±
Ġmilletvekil leri
! )
ĠB erk
Ġok ut
Ġol u
Ġ6 3
" .
ĠyaÅŁan dÄ±ÄŁÄ±
ĠÃ§alÄ±ÅŁ anlar
Ġe uro
P eki
Ġne gatif
Ġgetir ecek
Ġbin asÄ±
Ġses lendir
len miÅŁtir
Ġberaber lik
ĠaÅŁ am
ĠaÄŁ ac
ĠiÅŁlem lerinin
8 8
t es
gil tere
ĠkÄ±sm Ä±nÄ±n
oz gat
Ġk ep
Ġil de
ĠbaÅŁ lÄ±klarÄ±
ĠkÄ±ymet li
ĠM ete
ey z
Ġa ÄŁÄ±
lan gÄ±Ã§
ĠO s
Ġalan Ä±n
ĠgÃ¼ven c
ĠMil yon
Ġkil is
ĠOt obÃ¼s
ek ler
ĠSÃ¼r ekli
ĠyaÅŁ ta
tay Ä±m
] ,
Ġt ir
tif ika
Ġteb liÄŁ
Ġk ib
ĠEk ran
ĠDo lar
Ġkas a
ĠdÃ¼zenlem eler
Ġmetrek ar
H Y
O t
l iydi
Ġy Ä±p
Ġbirey lerin
ĠÅŁehr inde
ĠA P
ĠÄ° f
uy uz
Ġsar Ä±ÅŁÄ±n
Ù ħ
Ġbas amak
ĠÃĸÄŁrenc iler
ĠyoÄŁ urt
ĠAlan Ä±
Ġaktar an
Ġis eniz
el iyiz
Ġgazet esi
Ġoku dum
ĠKab ul
Ġbak anlÄ±k
Ġsol unum
ĠmÃ¼dÃ¼r Ã¼
g eler
Ġp antolon
ad ar
ĠD Ã¶rt
art Ä±n
Ġedilm esini
ĠPat ent
ĠkiÅŁ ileri
iÄŁ ini
ĠTemiz lik
Ã¶ f
ĠF ull
Ġken ti
Ġhaf tanÄ±n
ĠgeÃ§ir ilen
IN DA
ĠtÄ±k la
ĠiÅŁ lerini
ilm esinde
ĠmÃ¼d det
ĠÄ°mparator luÄŁu
N et
ĠÃ§alÄ±ÅŁmalar Ä±nda
ĠBaÅŁak ÅŁehir
Ġh d
Ġzaman Ä±n
maz lÄ±k
ĠdeÄŁerlendir ilmesi
ĠMak ine
Ġkim dir
ĠSur iyeli
ĠMut lu
ĠN ok
Ġcihaz lar
T ÃľRK
ĠK i
ĠP ir
k ileri
Ġf ed
Ġyakalan dÄ±
Ġzek a
ĠBÃ¶yl elikle
ar s
ĠH ab
ĠyÃ¼z Ã¼nÃ¼
ĠYardÄ±m cÄ±
ĠÃ§erÃ§ev ede
H ak
un t
ĠiÅŁ siz
ĠL ok
Ġdef alarca
d eler
ĠG Ã¼len
S AN
Ġolan larÄ±
Ġkapas itesi
M erkez
P D
Ġyaz Ä±mÄ±zda
ĠÃľn al
Ä° k
ĠT rak
Ġver ilerin
Ġak tÃ¶r
Ø ±
Ù Ĭ
ev Ã®
ĠÅŁek eri
ĠAj ans
ĠiÅŁlem ini
ĠEn g
Ġnokt asÄ±na
mar Ä±m
ĠHaft asÄ±
f eksiyon
Ġkal maz
alan an
ĠTat lÄ±
ĠR Ä±za
ĠgÃ¶n l
Ġdin le
ĠAh med
ĠSar ayÄ±
ĠyaÅŁadÄ±k larÄ±
F ran
Ã§ ay
ĠbaÅŁ layÄ±p
ĠÃ§Ä±k maya
ĠEn dek
ĠKom bi
ĠDemir taÅŁ
ĠM oskova
Ġgrub un
il emez
ĠC D
Ġhis si
ĠGÃ¶k han
Ġyet mez
tay dÄ±
Ġyap alÄ±m
Ġu ÄŁ
ĠBir bir
ĠE tik
Ġbilin ir
dÃ¼k ten
ĠAV M
ĠT EM
os a
ĠsÄ±k Ä±ÅŁtÄ±r
Y a
Ġ umu
Ġver ildiÄŁi
ĠsaÄŁ lanan
Ä £
Ġanla tÄ±
.... ....
ĠMik ro
Ġkav ga
Ġail esine
Ġh ev
ĠM i
Ġal ev
ĠY ou
Ġsit esine
Ġrenk leri
ĠÅŁÃ¼ph el
6 2
at Ã¼r
anlÄ± ÅŁ
Ġrak ib
ĠdÃ¶n Ã¼p
ĠÃ¼cret li
ĠGÃ¶r e
iyor sa
ĠR ak
Ã¼s Ã¼nÃ¼n
ĠedeceÄŁ ini
Ġkan alÄ±
Ġekran a
az e
o larÄ±
ek sel
ĠgÃ¼ncel leme
ul e
ĠbÄ±rak mak
N ot
Ġede mez
Ġtoplum u
ĠOf is
Ġar dÄ±
ĠT ol
Ġkoy mak
ĠS T
ĠS enin
ĠÅŁ ebek
Ġon ar
Ġmas um
ĠBor Ã§
Ġ eli
al eti
Ġet ap
Ġ7 2
ĠsoÄŁ utma
Y E
ĠdÃ¼ÅŁÃ¼n Ã¼n
ĠMÃ¼dÃ¼r lÃ¼k
Ġlaborat uvar
W eb
ĠbaÅŁla mÄ±ÅŁtÄ±
Ġson landÄ±r
ĠEnd Ã¼str
u e
ĠA dem
Ù Ĳ
Ġf ull
Ġser ver
ĠHak kÄ±
C D
Ġteknik leri
ĠT ed
len in
Ġyaz Ä±da
ĠÃ§ in
Ġoldu lar
Ġyaz Ä±yÄ±
ĠkeÅŁ if
7 9
ĠKur al
ĠdÄ±ÅŁ Ä±ndan
dÃ¼z Ã¼
Ġkoc aman
ĠNumar alÄ±
Ġsal at
Ġihtiyac Ä±nÄ±
ledik leri
Ġkurtul mak
Sur iye
Ġhik met
Ġbask Ä±n
de ÄŁer
Ġc em
y m
ĠyÄ±l larca
ĠEr ol
Ġbitk isel
ti Ã§i
ĠsaÄŁ lama
Ġbil diÄŁi
d ini
Ġkat il
Ġuygulan acak
D Ä±ÅŁ
Ġat om
ĠkÃ¶y Ã¼nde
ĠsayÄ± larÄ±
ĠM ekt
Ġtaleb inde
ĠSer dar
Ġs oÄŁan
Ġder gi
ĠAt ak
Ġham ile
Ä± tÄ±r
ĠyÃ¶ntem ler
Ġmod Ã¼l
Ġ9 9
Ġfazlas Ä±nÄ±
B eÅŁiktaÅŁ
Ġek im
ĠbaÄŁlantÄ± lÄ±
Ġc uma
k z
Ġat ar
ĠKurt uluÅŁ
Ġsit esinin
Ġtan k
ĠfotoÄŁraf Ä±
Ġsof r
ecek ler
Ġmes ai
Ġser p
ĠKÄ±r Ä±k
ĠA st
ĠÃ§Ã¶z Ã¼l
Ġkent sel
s Ä±nÄ±f
ec k
Ġdil ediÄŁiniz
Ġper akende
ĠhazÄ±rlan mÄ±ÅŁtÄ±r
ĠE st
ĠDÃ¼ny asÄ±
Ġc ik
ĠÃ¼lk emize
ĠÃ¼rÃ¼n lerinin
ĠGen iÅŁ
ĠS aha
Ãĩ in
Ġaday larÄ±
BÄ°T AK
c tion
Ġp h
Ġar tÄ±
ĠPar la
Ġkey fi
ĠdemiÅŁ ti
Ġa fet
ĠsÃ¼rec ine
Ġemin im
i et
Ġmuhab ir
Ġprens ip
Ġl in
Ġkar g
ĠSÃ¶z leri
Ġseviy eye
Ġkatli am
ĠÅŁekl indeki
Ġanal izi
7 3
ĠYÃ¼ksek okulu
bur nu
ĠÃ¶ te
T O
M ev
ĠbarÄ±ndÄ±r an
ĠendÃ¼str iyel
ĠgÃ¶v de
z Ä±
unuz da
eliÄŁ in
ĠMalzem eleri
Ġkur ut
der es
Ġtam iri
Ġvideo larÄ±
Ġtutuk landÄ±
D Ã¼z
ĠSt ok
Ġdiler im
c iv
Ġmesel esi
ĠvÃ¼cud un
A Ãĩ
ok si
Ġbelir lemek
Ġtak dim
Ġteknoloj ileri
de di
ĠBiz ler
AL I
ĠvÃ¼c udu
ĠZeyn ep
Ġs Ã¼p
Ġbor cu
ĠÃ¶ngÃ¶r Ã¼len
Ġetm eyin
ĠbÃ¶lg esindeki
ĠkullanÄ±cÄ± larÄ±
Ġplatform u
ĠÃ§el iÅŁ
ĠD es
Ġbulun duklarÄ±
ĠÃ§ anta
ĠtÃ¼k en
ledik lerini
Ġad Ä±nda
ĠU EFA
Ġotur up
Ġbenim s
Ġmalzem esi
Ġmesaf e
ĠAl p
ĠDev am
ĠÃĩel ebi
Ġk Ä±lan
Ġer t
fes Ã¶r
ĠgÃ¶rÃ¼ntÃ¼ ler
Ġbirik im
iniz deki
ĠDev amÄ±nÄ±
f e
Ġal dat
Ġbelir siz
ĠsaÄŁ layarak
ĠM Ã¼l
Ġkol on
b az
ĠdoÄŁ umlu
ĠHaz ine
ab b
ĠM ari
ĠR ed
ĠÅŀ if
ĠL ef
ĠkÄ±z Ä±m
Ġden li
Ġbom ba
hend isi
Ġbelir ley
Ġsev inÃ§
Ġbin anÄ±n
ĠkullanÄ±m Ä±na
ÅŁ ir
ĠT OP
ama dÄ±m
Ġs ark
Ġhayvan lar
Ġz ira
Ġz Ä±rh
ĠgÃ¶nder di
ĠyaÅŁ Ä±yoruz
Ġken ara
Ġgetir miÅŁ
Ġyeterli dir
Ġevren sel
T P
Ġvide osu
t um
oter api
ĠÃ¶z lem
ĠÃĸz can
ĠyÃ¼rÃ¼t Ã¼l
ĠVer gisi
Â ²
Ġs esini
ta ur
ĠÃľlk emizde
Er doÄŁan
Ġuy uÅŁ
Ġkend inden
ĠGÃ¶l Ã¼
Ã¶ ÄŁ
Ġfiyat larla
l il
ad Ã¼f
Ġkay ak
Ġetkiley ici
Ġyap Ä±nÄ±n
ĠÅŁ eri
Ġpro sed
Ġhar am
ĠmeÅŁ gul
U B
g ov
ĠsÃ¶yl edik
ĠseÃ§im lerde
ĠP ak
ot h
ĠarasÄ±nda dÄ±r
ĠS ivil
ĠLab orat
Ġbul uyor
Ġfiyat a
ĠSer best
Ġzih n
Ġr ah
ĠGÃ¶rÃ¼n t
Ġbu ÄŁday
Ġ6 9
ĠgÃ¶rÃ¼yor um
Ġdost luk
Pro gram
ĠÄ±ÅŁÄ± ÄŁÄ±
A z
O lay
G alatasaray
aÃ§ Ä±k
Ġtay in
K Ä±
ĠBel ir
Ġkurum u
ĠYaz Ä±cÄ±
paz arÄ±
ĠtaÅŁÄ±mak tadÄ±r
Ġimal atÄ±
k oÅŁ
Ġeser leri
Ġcenaz e
ĠkÃ¶ mÃ¼r
ĠS EO
Ġtamam landÄ±
ĠkÃ¶k lÃ¼
at ih
ĠP op
ĠAn lat
eliÄŁ ine
E ÅŁ
ĠEv leri
ĠBulgar istan
Ġver iyorum
Ġkab a
Ġt Ã¼n
ĠsuÃ§ lu
ĠSÃ¶z cÃ¼sÃ¼
ĠyaptÄ± lar
ĠKahraman maraÅŁ
D er
Ġher halde
Ġfizik i
Yap Ä±lan
Ġed iniz
em eye
Ġilg isini
Ġders ler
Ġyararlan mak
s Ã¶z
ĠgÃ¼n lerinde
Ġfark Ä±na
Ġmobil y
ĠMimar lÄ±k
ĠS ad
ĠdÃ¼ÅŁ Ã¼yor
Ġedec eÄŁi
c on
Ġinternet te
Ġoran Ä±nÄ±n
ĠGeÃ§ tiÄŁimiz
M K
Ġvar an
Ġden ildi
Ä±nÄ± p
Ġgen etik
ĠhazÄ±r lamak
Ġdosy alarÄ±
ĠendiÅŁ e
on im
iÅŁ ik
ĠkonuÅŁ masÄ±nda
Ġtalep leri
af ak
Ġan lÄ±k
ĠV eri
Ġkor um
da a
Ġat ma
Ġyok sun
ĠÅŁart larda
Ġmak ale
ag anda
Ġkur ÅŁun
ig er
ĠÃ¶de meler
Ġmin imum
ĠÅŁef faf
imiz deki
Ã¼le cek
ĠMal tepe
Ġizley ic
Ġlir alÄ±k
Ġb ine
mas a
Ġhizmet lerin
200 7
ĠhazÄ±rlan Ä±yor
Ġcevab Ä±nÄ±
Ġasans Ã¶r
Ġy eme
Ġad il
Ġilk okul
ĠÄ°s met
ĠcoÄŁraf i
âĢ ²
Ġsah asÄ±nda
Ġce b
ĠmÃ¼hendis lik
ĠniÅŁ an
Ġdiy alog
oy un
Ã½ z
ĠbÃ¶lÃ¼m Ã¼ne
ĠSonr asÄ±nda
ĠÃĩavuÅŁ oÄŁlu
M a
ĠH Ã¼rriyet
ĠZ irv
ĠfotoÄŁraf lar
Ġrenk ler
Ġaray Ã¼z
ing Ã¶l
at larÄ±
ĠPro fesyonel
ĠHat ip
Ġkonum unda
ĠÃ§ Ä±plak
Ġf as
ĠyaÅŁ Ä±ndan
ĠRes ul
Ġrol Ã¼
Ġkok usu
S L
ĠÄ° mar
ula b
ĠÃĩak Ä±r
ĠÃ§ek tiÄŁi
Ġhayat i
baÅŁk a
ĠsÃ¼t Ã¼
Ġsor usu
ĠZ iya
ĠM ini
Ġla zer
l uyum
âĢĻ ,
ĠM ekke
ĠF abrik
ĠÃ¼m it
ĠyÃ¶n den
ĠÄ°s viÃ§re
Ġkom ik
Mer habalar
ĠM y
Ġet nik
Ã¼p he
ĠÄ°s kender
Ġprogram da
ĠÃĸn der
or y
Ġtoplum da
ĠÃ¶zellik lere
ĠTeb liÄŁ
Ġb ant
Ġat a
Ġeser ler
al lÄ±
Ġsor usuna
Ġkab ar
ĠyÃ¼r ek
Ġverm ekteyiz
ak tif
ĠL ib
Ġdam la
GÃ¼n Ã¼mÃ¼zde
Ġibar esi
ĠÄ° Z
Ġkalk Ä±ÅŁ
ĠPlatform u
ĠAf gan
iÄŁ it
Ġkitap ta
ĠÃ§Ä±kar ma
Ġkurtar ma
M ut
Ġb et
ers en
ĠReh ber
Ġd inin
ĠZ eki
ĠbÃ¶lÃ¼m leri
Ġyapan lar
Ġbank alar
ĠyalÄ± tÄ±m
ash ington
Ġy ut
ik e
Ġgel miyor
ĠgeÃ§ ip
ĠÃ¼z Ã¼l
Ġnas ip
ĠÃ¶mr Ã¼
d s
din ilen
Ġuzman lÄ±k
Ġdep resyon
F enerbahÃ§e
as ay
ĠÄ° c
Ġan ayasa
Ġuy u
Ġeski den
Ä±ÅŁÄ±k lÄ±
k isi
lediÄŁ im
Ġemek lilik
Ġp oÅŁ
Ġsay Ä±n
ĠeÄŁitim ini
ĠÃ¶ldÃ¼r Ã¼l
Ġbirey ler
oj en
ĠbaÄŁÄ±r sak
may Ä±p
ĠSanat lar
F otoÄŁraf
ĠgÃ¶r Ã¼p
Ġiy isi
c ileri
ĠkarÅŁ Ä±nÄ±za
ĠKon ser
Ġfel aket
ĠKÃ¼t ahya
K oca
Ġh Ã¼r
ĠM c
Ġdurum dan
AÅŁ aÄŁÄ±
T am
Ġkal Ä±ntÄ±
ET Ä°
bey li
s Ä±nÄ±
mam Ä±zÄ±
ĠBel Ã§ika
Ġp res
kin g
qu e
ur at
Ã§ in
Ġner de
a iz
Ġv arken
iy enin
Ġplan la
Ġeksik liÄŁi
M ak
b iye
ĠaÅŁ an
Ġistiyor dum
Ġf iÅŁ
Ġdurum larÄ±
ĠÅŁey tan
Ġgerektir ir
U n
M HP
ĠK astamonu
ĠL in
ĠÃ§ek er
Ġnumar asÄ±nÄ±n
ĠAvust ralya
ey bol
ĠY arÄ±
dik i
ĠeÄŁitim in
ĠÄ°st ih
ĠyÄ±l dÃ¶n
Ġada ma
Ġmadde sine
larÄ±nÄ±z la
ĠTedav i
ĠS AN
Ġkit le
rip t
ak larÄ±
Ġmerh amet
Ã§ o
âĢ Ķ
Ġis abet
Ġhep imizin
Ġduy ul
ĠbaÅŁla dÄ±ÄŁÄ±nÄ±
Ġsak lÄ±
l ing
de st
ĠH y
ĠiÃ§in dir
Ã¼p hane
Ġel it
ĠAk ademi
Ġsav cÄ±
ĠKarab Ã¼k
ÅŁ a
ĠD ER
Ġdestek leyen
Ġtac iz
il d
ĠÃ§Ä±kar dÄ±ÄŁÄ±
Ġcep he
Ġsen t
ĠiliÅŁk ili
Ġkelim esi
Ġdeplasman da
Ġd ib
Ġn ice
ĠBil dir
l Ä±nÄ±n
Ġbir ebir
F ETÃĸ
Ġ0 50
Ġmuh taÃ§
ĠS AY
Ġstan dar
Ġal dÄ±r
Ġistis mar
Ġmit ing
ĠsaÄŁ layabilirsiniz
Ġbur asÄ±
eder asyon
Ġhisse de
B M
Ġs ipar
ĠDÃ¼nya da
Ġm uz
ĠÃ¼z Ã¼m
ĠL ir
Ġkes me
ĠSer ver
Y ani
ĠI r
ĠBul ut
ĠSine ma
ĠkaldÄ±r Ä±lmasÄ±
t Ä±ysa
Ġpro grama
Ġsu lama
m ekt
ĠgÃ¶r meye
Ġpart inin
Ġdiyebilir im
Ġpro mosyon
ĠdÃ¶nem e
Ġam bulans
, âĢĿ
Ġalan Ä±ndaki
ĠkÄ±s kan
ĠyÃ¶netim inin
Ġhay v
Bil g
Ġk linik
Ġgel ecektir
ĠkullanÄ±l mÄ±ÅŁtÄ±r
Ġim parator
ĠMev cut
Y al
ĠK aÄŁÄ±t
Ġer tesi
u a
alÄ± dÄ±r
ĠK elim
Ġet menin
ĠDev rim
Ġk Ä±n
ed din
ĠEÅŁ ya
ĠhastalÄ±ÄŁ Ä±n
B as
Ġar alar
Ġiz n
Ġih bar
ĠÄ°Ã§ eri
Ġg Ã¼
ĠYÃ¼ksek Ã¶ÄŁretim
ÅŁ u
ĠdÄ±ÅŁarÄ± da
ĠtÄ±r nak
m od
ĠÃ¶de v
Ġap artman
Ġve da
Ġtut arak
Ġb ilerek
ĠDo landÄ±rÄ±cÄ±
, ...
ĠK Ã¶k
ĠTÃ¼rk lerin
Ġek m
Ġhar ik
n o
Ġtah liye
ĠyaÅŁadÄ±ÄŁ Ä±mÄ±z
ĠKar s
Ġ199 8
ĠÅŀampiyon lar
O J
ĠA kif
ĠN as
ĠyÃ¼rÃ¼t en
Ġmekan ik
ĠgerektiÄŁ ine
k iye
Ġbelir lenmiÅŁ
ĠoluÅŁtur maktadÄ±r
Ġer it
ĠTop lu
ĠayÄ±r t
A li
Ġerk eÄŁin
ĠdÃ¼zen leyen
ĠVal iliÄŁi
ĠhÄ±r sÄ±z
ad en
Ġkazan ma
amÄ±z dan
ĠYÃ¶netmeli ÄŁin
len mesine
Ġkon t
Ġb ron
ĠR a
Ġbayan Ä±m
Ġla v
Ġoper asyonu
l ilere
y sanÄ±z
Ġc ari
ĠH o
of f
Ġbirisi dir
7 4
ĠN or
ĠMerkez leri
s or
ĠÃ§ok tan
ĠBil in
ĠZ onguldak
mem iÅŁtir
Ġmu af
Ġkork unÃ§
ĠdoÄŁr ultu
Ġkazan mÄ±ÅŁ
las s
ey la
Ġin Ã§
Ġruh sal
Ġem peryal
Ġcihaz larÄ±
ĠYar gÄ±tay
ĠBin ali
f iye
Ġal dÄ±ktan
ĠiÅŁ ine
Ġziyaret Ã§
ĠFinans al
t iniz
ĠL td
ĠseÃ§ ildi
ĠAv rup
Ġkural lar
ĠY em
Ġvade de
est en
Ġort aÄŁÄ±
Ġfayd alarÄ±
Ġhesab Ä±ndan
Ġsuy unu
h af
Ã¶r ek
Ġas falt
ula bilir
ĠYah udi
B it
ĠbÃ¶lg elerinde
Ġverm eyi
ĠÄ°sp anyol
Ġkoy an
Ġiddi alÄ±
Ġkon tenj
Ġyar a
id d
ĠdeÄŁil iz
ĠO tur
Ġolan lara
Ġ0 53
Ġdosy asÄ±
ĠdÃ¶k Ã¼m
Ġgel meye
ĠÃ¶n Ã¼ndeki
Ġkur su
ĠÃ§alÄ±ÅŁmalar da
Ġat ama
Ġal erj
ĠAma tÃ¶r
ĠgÃ¶rÃ¼ntÃ¼ leri
Ġakadem isyen
AN S
ĠGenÃ§ ler
iz ma
Ä±mÄ±z la
od ik
Ġkim liÄŁi
Ġsaat ler
ĠW e
lan maya
us uyla
ĠÃ§Ä±k tÄ±ÄŁÄ±nÄ±
ĠgÃ¶z le
ĠkÄ±l Ä±n
V er
Ġtaraf Ä±na
ĠteÅŁ eb
ĠgÃ¶nder diÄŁi
L AH
ĠÃĸz kan
ĠgeÃ§ir ildi
Ġanlat maya
ĠÃ§Ã¶zÃ¼m leri
ĠAn gel
Ġkend iniz
Ġsahip lerinin
Ġal Ä±yoruz
ĠP aket
ĠC ity
Ġ- ---
Ġder ler
Ã ¤
Ġf aÅŁ
ĠEs naf
om i
ĠaÃ§ Ä±lacak
Ġolma m
ĠgÃ¶k yÃ¼z
Ġyetk isi
ĠMac ar
ĠÅŁar ap
Ġf os
ĠÃĸ SYM
Ġark asÄ±ndan
at ik
ĠDevlet leri
ĠsÃ¼r eyle
ĠsÃ¶z de
UL LAN
ĠHÄ±r ist
Ġa cel
Ġn un
Ġay aÄŁa
ĠÅŀ ar
Ġak si
Ġtarih in
ĠYayÄ±n evi
ĠB log
ĠSah ip
ĠbaÅŁkanlÄ±ÄŁ Ä±nda
T al
n em
Ġkon tr
Ġtes isi
ĠAk ÅŁ
Ġinceley ebilirsiniz
Ġyol larÄ±nÄ±
Ġs anÄ±
Ġsev imli
Ġhar Ã§
ĠbaÅŁladÄ± lar
Ġyemek leri
iir t
ĠsoÄŁ ut
ĠDanÄ±ÅŁman lÄ±k
ĠcoÅŁ k
at ma
Ġyat an
ĠMa x
ĠÃ§alÄ±ÅŁ maktadÄ±r
Ġneden lerle
ĠÃ¶ner iler
B alÄ±k
ĠÃ§ irkin
ĠÄ±s Ä±n
ĠyÃ¼zyÄ±l Ä±n
ĠFet valar
S al
Ġf an
ĠdeÄŁiÅŁ ir
ĠsÃ¶yley ebiliriz
ek iz
Ġistem iÅŁ
Ġalb Ã¼mÃ¼
ĠTEK N
ĠG ezi
eÄŁ en
edi a
Ġtah ta
ĠistediÄŁ imiz
Y azar
ir al
iy eler
Ġa bi
ĠdÃ¼ÅŁÃ¼n erek
Ġyat ay
ĠhatÄ±rla tan
ĠkÃ¶ken li
Ġal manÄ±z
Ġilg il
Ġeder se
ĠteÅŁ his
ĠmaÄŁ aza
Ġsistem de
ĠtÃ¼r b
ĠkullanÄ±cÄ± lara
ĠAlÄ±ÅŁ veriÅŁ
Ã¼n t
ilm ekte
Ġgen e
ĠÃ¶l Ã¼mÃ¼
ĠÄ°st atistik
ĠModel leri
Ù Ĵ
it li
ĠiÅŁlem lerin
ir men
Ã¼n ist
Ġistik bal
ĠfarkÄ±nd alÄ±k
Ġnumar alarÄ±
Ġnit eliÄŁi
Uz man
Ġolmayacak tÄ±r
Ġkazan Ä±m
taur ant
l inin
Ġk is
Ġgir mesi
Ġgiz le
ĠÃ§alÄ±ÅŁma da
Ġlit re
K om
c ik
la st
ĠP amuk
Ġbey n
ĠkuruluÅŁ lar
M B
Ġder n
Ġail eler
Ġkal a
ĠÃĩ ocuÄŁ
Ġbulun acak
Ġpart isi
ĠKarÅŁ Ä±yaka
Ġv aj
Ġbul up
Ä±yor dum
Ġmuh asebe
ĠgeliÅŁ mesi
ĠSin op
ĠdeÄŁerlendir mek
fer ansÄ±
ĠgÃ¶rÃ¼le b
Ġs tad
Ġn ar
ĠyapÄ± lar
ĠÃ§alÄ±ÅŁ arak
ĠI ÅŁ
siy um
his sel
Ġar adan
Ġy Ã¼ce
Ã¼c Ã¼k
Ġbu Ã§uk
Ġbur sa
ĠSey ahat
Ġy ama
ĠbaÅŁvuru larÄ±
ĠbÃ¶lg eler
onu Ã§
ha el
Ġfet h
Ġak siyon
Ġpar asÄ±
Ġgit ar
ini p
Ġolur sanÄ±z
ĠoluÅŁtur ma
Ġod alar
Ġgereksin im
Ġyer lerden
ĠEfend imiz
Â ®
OB Ä°
G Ã¼ven
lar sa
t y
Ġtarih ini
Ġmak ul
ĠÃ§ey rek
ĠhastalÄ±k lar
Ġproblem leri
ĠOtom obil
ma tÄ±
ĠÃ§ocuk larÄ±nÄ±n
ĠAs keri
m ine
lar Ã½
as por
Ġz ann
ĠÃ§ocuÄŁ a
= =
d ine
R e
Ġsezon unda
Ġburs adaki
ĠAl b
ĠayrÄ±c alÄ±k
ĠÄ° lah
ih a
ĠKÃ¶ ÅŁ
Ġnitelik te
ĠBas kÄ±
ĠAr k
ov adaki
em ediÄŁi
ez ya
ĠÃ§alÄ±ÅŁ tÄ±m
Ġot urt
ĠyÃ¼r Ã¼
Ġbelirt iliyor
ĠM Ã¼ÅŁ
Ġkar aciÄŁer
Ġyaz mÄ±ÅŁ
Ġkesin t
E Ãĩ
H akk
ĠgÃ¼n Ã¼ne
id or
Ġhav aliman
Ġdikkat ini
Ġmuh akkak
t emiz
ĠÄ° YÄ°
ĠÃĩ orum
lis h
Ġkurtul uÅŁ
ĠAÅŁaÄŁÄ± daki
ĠV ER
Ã® m
ĠBen de
Ġistik amet
U Y
Ġkarar Ä±nÄ±n
ĠBil ecik
Ġyaz dÄ±r
ĠanlaÅŁ Ä±lÄ±r
G RAM
op ar
s ada
ĠB ed
Ġoksi jen
ĠbÃ¶lg esine
Ġtedav isinde
ĠÃ¢ lem
Åŀ irket
Ġkal Ã§
ĠyaÅŁ Ä±
ĠyÃ¶netim inde
ĠFiyat Ä±
ok op
lik dÃ¼zÃ¼
Ġmuh at
!! !
K as
c Ä±mÄ±z
ip er
ĠÃľlk e
Ġy i
ĠoluÅŁtur ulmasÄ±
ĠÃ§ev iri
Ġf Ã¼z
ĠE z
ah it
ĠG ÃĸR
ĠbaÅŁ kent
Ġek sen
ĠgÃ¼Ã§ lÃ¼k
Ġul us
K iÅŁ
ĠTÃ¼rk istan
ĠHaber ler
ĠÃ¶ dÃ¼n
Ġp encere
ĠkoÅŁul larda
Ġsam im
ĠÃĸ ÄŁ
Ġsu da
Or ta
ĠÅŁub e
ĠT eh
Ġar Ä±ndÄ±r
Ġkatk Ä±sÄ±
ad er
ĠyapÄ±l Ä±rken
O l
Ġh elikopter
iÄŁ de
Ġekip ler
ĠtoplantÄ± ya
ĠÄ°ht iy
il a
Ġi OS
ist al
ĠdÃ¶k Ã¼l
av ir
elerin deki
ĠMar mar
ĠÃ§arp Ä±cÄ±
Ġkonum da
M od
n esi
Ġ7 8
Ġbuton una
c ektir
ĠS IN
Ã¢ k
ĠSÃ¶zleÅŁ mesi
Y O
cÄ± ÄŁ
miÅŁ tim
Ġbirbir ini
Ä±l malÄ±
Ġkat Ä±nda
ĠseÃ§im lerinde
Ġters ine
ed iyesi
ERK EZ
k eli
uz un
ĠsuÃ§ undan
Ġimk Ã¢nÄ±
ĠM Ã¼k
etim i
Ġtur u
ĠAd res
Ġtarif leri
ĠsÃ¶n dÃ¼r
t iz
Ã§ eli
Ġh ele
ĠnÃ¼f usu
ĠPay laÅŁ
ĠA F
ĠU mut
Ġs unacak
ĠsavaÅŁ Ä±n
ĠÃ§ik olata
Ġv aat
is y
Ġokul un
Ġsigort asÄ±
al ik
ĠB EL
ĠÅŁ ap
ĠY ur
ĠaÃ§Ä±k tÄ±r
Ġverm ey
ĠD Ã¶v
mad de
ĠP lus
ĠEr en
ĠmantÄ±k lÄ±
om en
ĠgerÃ§ek Ã§i
Ġsalon unda
ĠMark et
ĠÃĸÄŁretmen leri
ĠTuz la
Ġb Ä±r
ĠalÄ±n dÄ±ÄŁÄ±nda
Ġkonu daki
Ġbanka cÄ±lÄ±k
Ġ q
ĠÃ¶nem ine
Ġ9 8
ĠtakÄ±m larÄ±
ĠsÄ±cak lÄ±ÄŁÄ±
m un
len ebilir
Ġkapsam Ä±ndaki
G UL
l m
Ġyap Ä±sÄ±nÄ±
Ġsay Ä±sÄ±z
Ġetm iyor
g Ã¶l
it ed
Ġok ÅŁ
Ġhast alarÄ±n
Ġekonom isi
ĠIn ternet
n ey
len diÄŁi
Ġhizmet in
Ãľ M
Ġter min
Ġokul lar
Ġnumar anÄ±n
ĠÅŁof Ã¶r
ĠvatandaÅŁ Ä±
Ġderec eye
Ã»l ullah
ĠseÃ§ kin
Ġhus usunda
Ġfay dasÄ±
bo x
F akat
Ġaktar dÄ±
Ã¼nÃ¼z e
Ä°s rail
Ġolma mak
ak ta
ĠgÃ¶rÃ¼ÅŁ Ã¼
Ġsoru larÄ±nÄ±
Ġer tel
Ġoperasyon da
ĠÃ¶zen le
ĠMobil ya
an sa
Ġ6 2
Osman lÄ±
ĠKÃ¼rd istan
iÅŁ imi
Ġprop aganda
u dum
ol sun
ĠR estor
Ġsahip lerine
Ġmem uru
Ġkur b
Ä±nÄ±z daki
Ġmev s
EK Ä°
ĠBat man
m on
eb ilme
ob a
Ġmet abol
Ġkadro su
ĠP e
Ġkar e
Ġkullan Ä±yorum
ĠTek lif
ĠTeÅŁkil atÄ±
d is
Ġko alisyon
Ġokul larda
ĠHizmet ler
k urt
ĠU sta
ĠÃľ mraniye
AL AR
fi ce
Ġhayvan larÄ±n
ĠMen deres
t eb
ĠYÄ±l lÄ±k
ĠYol larÄ±
Ġyaz maya
leÅŁtir ilmiÅŁ
ĠsÄ± Ã§
Ġsorumlu dur
Ġden ge
ĠgÃ¶z lerini
Ġinternet ten
iÅŁ an
Ġtaraf lÄ±
Ġengel lemek
Ġiddi asÄ±yla
Ġlist esinde
Ġihtiyac Ä±mÄ±z
ayol larÄ±
' m
Ġu cu
Ġprogram Ä±nÄ±
ĠOrgan ize
ĠAkadem isi
Ġot uz
Ġister iz
Ġnef is
ay eti
Ġf Ä±ndÄ±k
Ġsay gÄ±n
ĠAlÄ± m
ĠO ne
m ekteyiz
ĠK od
ĠmÃ¼ f
Ġh elal
ĠH int
ĠP Ä±nar
Ä±l madan
Ä±z da
Ġn ur
ĠÃ ¾
Ġkar ab
Ġbak tÄ±m
ĠsÄ±kÄ±n t
ĠÅŀÃ¼ph esiz
Ġb iÅŁ
Ġkat ma
diÄŁ ine
ĠTek rar
Ġinan Ä±yorsanÄ±z
Ġak ciÄŁer
ĠbÄ±rak an
ov asyon
ĠÅŁ en
Ġver diler
ĠyÄ±l dÄ±zÄ±
Ġbilg isay
o ta
Ġtel af
ĠbakÄ±m lÄ±
ĠDemir el
ĠB eden
ĠE L
ĠN Ã¼f
id eki
Ġmillet i
t edir
Ġedilm ez
Ġses leri
Ġoku maya
Ġp amuk
w ay
ĠM Ã¼t
ilm em
Ġkullan Ä±lmÄ±ÅŁ
Ġkr onik
ĠTanÄ±m lar
ar m
Ġs ef
ic s
iÄŁ inin
Ġaz dÄ±r
Ġgit tiÄŁ
y em
Ġbu laÅŁÄ±k
Ġit faiye
Ġhak ikat
ĠKim ya
Ġmor al
Ġtem p
ĠBur cu
Ä°R ME
ĠNih at
ĠÃĩeÅŁit li
ĠYeni den
Ġkend iliÄŁinden
Ġzor dur
ĠfÄ±r Ã§
yan i
Ġsur a
h y
Ġver eceÄŁi
ĠdÃ¼ny asÄ±na
ĠA lex
Ġma c
ĠsÄ±r alarÄ±nda
Ġdest eÄŁiyle
Ġvur du
ĠÃĩ oÄŁu
ĠAr navut
Ġhes aba
K itap
Ġkap lÄ±
Ã§Ä± larÄ±
ĠgerektiÄŁ inde
G oogle
ĠaÅŁaÄŁÄ± ya
ĠC EO
Ġbulun makta
Ġbir imleri
ĠÃ§alÄ±ÅŁ masÄ±nÄ±
ĠTemsil cisi
ĠKÃ¶pr Ã¼sÃ¼
Ġcev iz
abil itasyon
Ġtak Ä±lan
Ġfrek ans
ĠB lu
Ġp ast
Ä±nÄ±z la
Ġev ler
ĠÄ°lk Ã¶ÄŁretim
ĠMad rid
ĠArt vin
a u
ĠA dasÄ±
Ġar am
Ġkadar Ä±yla
Ġsar Ä±m
Ġdey iÅŁ
ĠBir kaÃ§
ĠÃ§ocuk luk
Ġkolay lÄ±k
ĠHas ta
inc isi
ic o
Ġyapmak ta
ĠKal p
Ġ199 5
ĠMÃ¼slÃ¼m anlar
Ġnin ja
ĠMah keme
Ġmerak lÄ±
ĠmÃ¼sa it
Ġkal mÄ±ÅŁtÄ±r
Ġkay g
Ġheyec anlÄ±
ĠIs parta
ez a
ĠS GK
ĠF as
ĠgÃ¶rev ine
Ġde h
ĠaÃ§ Ä±lmÄ±ÅŁ
de ÄŁ
Ä±r da
Ġc om
laÅŁ maya
ĠÄ°n Ã¶nÃ¼
Ġi ta
ĠK Ã¼l
ĠY el
ĠyapÄ±yor lar
Y an
m s
in san
Ġs tÃ¼
Ġar sa
Ġkarak teri
Oy un
ĠK Ã¢
Ġan dan
ĠyazÄ± larÄ±
Ġmak s
Ġ lar
ĠS ana
ĠÄ°Ã§ inde
Ġotom otiv
Ġbeb eÄŁ
ĠsÃ¶z Ã¼nÃ¼
ĠW orld
ĠbÄ±rak ma
Ġaz gÄ±n
ĠyatÄ±rÄ±m lar
may alÄ±m
z im
ro up
Ġsev iye
ĠbaÅŁla masÄ±
Ġkarar Ä±n
en li
Ġs os
Ġel ma
abiliyor sunuz
Ġavantaj lÄ±
ĠÅŁ Ã¼phe
ĠsÄ±r ala
Ġv illa
Ġt uhaf
Ġal lah
ĠTak sim
F ilm
Ġs icil
ĠA ut
ĠS eri
Ä±y Ä±l
ĠgeÃ§ ebilirsiniz
ĠDetay larÄ±
ĠEr soy
Ġdestek lem
ĠÃ¶rnek ler
Ġeksik lik
ĠHakk ari
ĠmÃ¼h im
hats App
ĠKo le
Ġfer ah
n es
ĠU st
Ġprogram Ä±n
Ã° i
ĠsÄ±r alan
ĠBey oÄŁlu
ĠT om
ok er
af irler
Ġc o
ĠI l
ĠOyun cu
ĠgÃ¼ven liÄŁini
eÃ§ h
ĠÃ¼lk esi
ĠÃ¼lk elere
ĠA Åŀ
c ay
Ġkon ulan
Ġtek stil
Ġtur istik
I V
la dÄ±ÄŁÄ±mÄ±z
Ġal fab
ĠD iyet
Ġsistem ler
Ġfinans man
ĠÃ¼m met
ĠÃ¼lk elerinde
ĠÄ°ÅŁ Ã§i
Ġgel mesini
ĠE lif
aliz asyon
) '
g em
ĠO D
ĠsÃ¶yledi ÄŁ
ĠDayan ak
Ġadi das
A G
ay lÄ±
Ġat Ä±n
Ġkalit ede
Ġport fÃ¶y
ĠAkadem ik
ac an
ĠdÃ¼ÅŁ mÃ¼ÅŁ
Ġas kÄ±
ĠaÄŁz Ä±na
Ġr ev
ĠP ost
g Ã¶ren
Ġolma dÄ±ÄŁÄ±na
Ġtes adÃ¼f
Ġsunul maktadÄ±r
ir k
Ġf ol
as e
Ä° ran
ĠHik met
Ġima j
f Ã¼m
z le
ĠGÃ¶ Ã§
ĠS eni
lan Ä±p
Ġ6 6
Ġordu su
ĠkaÅŁ Ä±k
Ġist in
Ġsor gula
ĠGÃ¶ ÄŁ
ĠaÃ§ arak
ĠDon ald
Ġalg Ä±lan
Ġbak Ä±r
ĠgÃ¶rÃ¼nt Ã¼lÃ¼
ĠAÃ§Ä±k lamasÄ±
Ġfaaliyet ler
ĠgÃ¶rdÃ¼ÄŁ Ã¼mÃ¼z
st ro
Ġsay Ä±sÄ±nda
Ġkat man
Ġtak tir
Ġbek ley
Ġm Ä±sÄ±nÄ±z
Ġkon usunu
Ġolan aÄŁÄ±
il dikten
ĠÃ¶lÃ§ ekli
Ġgiy in
k es
ĠDemok rasi
Ġfant ez
Ġkoy duÄŁu
Ġkork ut
ĠoÄŁ l
Ġdey ince
ĠiÅŁtir ak
la tan
dÄ±ÄŁ Ä±mÄ±
ĠÅŀirket i
ĠmÃ¼zak er
Ġhizmet ine
ĠKor k
ĠkaÄŁÄ± dÄ±
ĠP etrol
Ġproj ede
c alan
la dÄ±k
Ay dÄ±n
ĠÃ§arp Ä±ÅŁ
at ay
ĠÃ§alÄ±ÅŁ mayÄ±
malar Ä±nda
ĠN O
ĠÃ§Ä±k arken
ĠAv ukat
Ġn eye
len ecek
Ġmakin eleri
Ġani masyon
ĠyoÄŁun luk
Ġodas Ä±na
Ġziyaret i
Ġkonusu dur
alÄ±ÄŁ Ä±n
ĠDÃ¼z ce
g usu
Ġbil iÅŁim
ĠSev gil
Ġgarant ili
ĠÄ±ÅŁÄ±ÄŁ Ä±nda
Ġg uzel
Ġil inde
ĠE p
ĠaÃ§ lÄ±k
ĠB oÄŁ
Ġuzman lar
ĠCen net
Hal k
ent o
ĠAlbay rak
indek iler
Ġm iz
unu p
Ã° Ã½
ĠÅŁeh re
yap Ä±
Ġhar can
ĠgÃ¶ster miÅŁ
ĠbaÅŁar Ä±sÄ±
ĠÃ¼ret mek
li g
eler dir
Ġel veriÅŁ
ĠyapÄ±l masÄ±na
Ġfil an
ĠBrezil ya
iy otik
ĠT en
lam Ä±yor
ĠA mir
ĠH AK
Ġ1 10
ĠÅŀ am
avv uf
Ġd ub
ama dÄ±ÄŁÄ±
Ġken arÄ±nda
Ġfiyat larÄ±nÄ±
ĠyakÄ±n larÄ±
yacak tÄ±r
ÅŁ ar
Ġkon san
ĠAk Ä±llÄ±
Ġtelefon la
AL IÅŀ
Ġmas aya
ĠS uper
Ġkab uk
Ġprogram Ä±nÄ±n
k ab
iz me
Ã¼l tÃ¼
ĠsÃ¶ylÃ¼yor um
Ġprosed Ã¼r
I A
eÄŁ inden
Ġtah mini
Ġter ap
Ġtr ib
Ġobj ektif
al aÅŁ
Ġo v
av ar
alÄ± p
ĠÃ§Ä±k Ä±ÅŁÄ±
Ġboy n
Ġkan dÄ±r
ĠkayÄ±t larÄ±
Ġyemek ler
Ġtas arÄ±
Ġyenil eme
Ġilgilendir en
c aya
ĠC elal
ĠU cuz
ilik on
Ġert elen
) -
Åŀ eh
Ġtan Ä±ÅŁma
Ġoluyor uz
ĠÃĩ atÄ±
e w
Ġd eyim
laÅŁ Ä±r
ĠmÃ¼cadel ede
M ESÄ°
Ġyan Ä±nÄ±zda
ĠfÄ±kr asÄ±nda
il k
Ġm alÄ±
ĠseÃ§im ler
ĠyÃ¶netic isi
ĠDeÄŁiÅŁ ik
F E
ĠÅŀ art
Ġ7 7
Ġark asÄ±na
C ev
ur lar
Ġoyuncu larÄ±
at Ä±cÄ±
ĠAN K
ĠErz incan
F i
o lay
Ä±l masÄ±nda
ĠyaÅŁ ayacak
r uz
Ġp lay
Ġp embe
ĠAy han
Ġis kel
ĠÅŁart Ä±yla
d elen
Ġb any
Ġkalk Ä±n
, "
eÅŁ im
ĠÂ ĳ
ĠNur i
Ġs okt
ler se
st em
ekt eki
erk an
ĠilÃ§ ede
ar ÅŁ
Ġn imet
Ãľ st
ĠKul Ã¼p
Ġkims eyi
ĠÃľÃ§ Ã¼ncÃ¼
t Ä±mÄ±
Ġkup on
ĠA cÄ±
ĠS tan
ĠS MS
ĠÅŁ em
ĠÃ¼st elik
Ã® n
ĠGenel kurmay
Ġbul duÄŁu
D Ä°
ĠE le
O k
ĠÅŁif re
Ġbran ÅŁ
w ood
ĠC har
ĠR isk
Ġsorun lara
ĠkatÄ±lÄ±m Ä±
Ġref ah
Ġyan Ä±ndan
Ġyorum u
Ġticaret i
Ġ ]
Ä°n giltere
ĠTok at
ĠTÄ±k anÄ±klÄ±ÄŁÄ±
ĠG ol
Ġyar Ä±sÄ±nda
Ä±la ÅŁtÄ±r
Ġtak si
Ġkes tir
ĠSiz ler
ĠNer ede
ĠT icari
ĠAt aÅŁehir
ĠboÅŁ a
Ġuygula manÄ±n
ĠKom p
Ã» m
abilecek leri
Ġkurt arÄ±
Ġdevr ed
Ġbirlikt elik
at er
Ġn orm
Ġay ni
ĠC N
ĠiliÅŁk iye
Ġbilm iyor
Ġlira dan
i den
Ġkullan abileceÄŁiniz
ĠÃ§Ä±k maz
B ilim
ĠÅŁ ur
Ġkal e
Ġmesaj larÄ±
Ã§ inin
ĠT uÄŁ
Ġplan larÄ±
ĠÃ¶ÄŁrenc ilerinin
ĠgeÃ§miÅŁ i
ĠSoÄŁ uk
c iliÄŁi
Ġi dam
Ġhalk Ä±na
B or
ans al
Ġsoru larÄ±n
T IR
Y urt
Ġm g
Ġkon umu
Ġkab in
ĠMil lÃ®
B ul
Ġgez in
Dev amÄ±nÄ±
ĠÃĸZ EL
o lan
Ġoper atÃ¶r
ĠÅŁark Ä±cÄ±
ĠĠĠĠ ĠĠĠĠ
ĠPRO GRAM
b ih
ĠYap Ä±m
ĠBaÄŁÄ±m sÄ±z
Ä± dÄ±r
ĠM ERKEZ
H av
N ET
Ġbelirt ileri
Ġsokak ta
Ġdoy ur
Ġat Ä±yor
ĠbÄ±rak tÄ±ysa
23 11
Ġreak siyon
n ot
Ġoldu gu
Ġyer lerinde
ĠÃ¼ret tiÄŁi
ĠÄ±s lak
Ġmerak la
ĠS ili
Ä±y er
ĠdÃ¼z eyi
ĠdÃ¼ÅŁÃ¼n dÃ¼m
ĠE M
ĠdÃ¼ÅŁÃ¼n mek
Ġh ost
ĠgÃ¶r mesi
Ġgel ebilecek
ĠEn gin
Ġ199 7
ĠTasar Ä±mÄ±
Ã ¡
Ġal Ã§ak
Ġel iyle
Ġbenz et
ĠuÄŁr at
ĠDoÄŁ a
Ġs eti
Ġma Ã§a
ĠÃ§ek ip
Ġsen dro
ĠÄ°slam i
ĠSaat i
li c
Ġev leri
ĠBur saspor
ĠL ak
ĠsonuÃ§ ta
ĠbaÅŁarÄ± ya
Ġsunul uyor
Ġh or
ĠA A
Ġhey eti
ĠBak Ä±mÄ±
Ġroman tik
ĠDeÄŁer lendir
Ġyap Ä±da
EK T
ĠDavut oÄŁlu
or gan
Ġal acaÄŁÄ±nÄ±z
Ġkaynak lar
Ġdakik alÄ±k
66 27
Ġsandal y
Ã¼s k
Ġder im
Ġtasar lanan
ab o
ĠbaÅŁvuru da
Ù ı
Ġar anan
lÄ±k larÄ±n
if er
Ġsen den
ĠAlman ca
Ġm Ä±sÄ±r
ĠgÃ¶ steri
Ġtar ayÄ±cÄ±
Ġetm ekten
l l
ÅŁ en
im al
emiz deki
Ġdest eÄŁini
ĠdeÄŁiÅŁ iyor
Ġaran Ä±yorsanÄ±z
ĠdolandÄ±r dÄ±ÄŁÄ±na
Ġ050 6627
Ġ0506627 2311
1 01
l ot
Ġhat alÄ±
Ġkoy arak
Ġr ul
ĠaÃ§ Ä±sÄ±
Ġbek ler
AK P
200 6
Ġbula bilir
ĠÃ§ekir dek
ĠanÄ±m sat
T es
s ub
Ã¼r ek
ĠN eyse
Ġyaz Ä±p
ĠiliÅŁk ilerin
Ġsayf alar
Ġk anlÄ±
ĠG id
Ġhareket le
ĠÃĸn er
ĠFilm leri
Ġgittik Ã§e
ap ur
Ġneden leri
ĠÅŁey lerin
ren ses
Ġzih niyet
ĠC oÅŁ
ĠBil gisi
Ġortam larda
Ġderin lik
ĠB lack
Ġen j
mel iyiz
ĠiÅŁ lerin
uÅŁt an
OK Ä°
ed d
Ġbulun muÅŁ
Ġaz Ä±n
Ġhav uzu
mer haba
Ġbozuk luÄŁu
D F
lÄ±k larÄ±nÄ±
Ġsay Ä±sÄ±na
ĠÃ§evr eye
ĠsÃ¼r esinin
ĠyÃ¼z lÃ¼
Ġhedef leyen
ĠK AP
Ġdayan arak
ĠgÃ¶rdÃ¼ÄŁ Ã¼m
Ġmes ele
Ġindir imli
ĠtanÄ±m ak
Ġab one
ĠiÅŁt ah
k uÅŁ
at Ã§Ä±
ĠY oÄŁun
ĠdeÄŁiÅŁ ti
Ġse ans
Ġd om
ec eg
ÅŁt en
Ġfilm inin
ĠsÃ¶yl edim
ĠÅŁans lÄ±
ĠrÃ¼z g
Bey az
Ġ iri
Ġt ansiyon
Ġdav anÄ±n
Ġj Ã¼r
Ġter ey
Ġonay lÄ±
Ġdeng eli
ĠPr emi
g iniz
ĠÃ¼ret ilmiÅŁ
ĠAn ti
ĠÃ¼y elerine
ant in
Ġver ecektir
tÄ±k Ã§a
Ġkazan dÄ±ÄŁÄ±
K urum
Ġr ep
Ġziyaret Ã§i
ĠHep si
Ġfark et
ĠyayÄ±n ladÄ±
ĠsonuÃ§ larÄ±na
ĠMÃ¼dÃ¼rlÃ¼ÄŁ Ã¼ne
Ġs pr
lan mak
Ġtekn iÄŁi
Ġedeb ilmek
D S
ĠbaÄŁ Ä±ÅŁÄ±klÄ±k
ANLI ÄŀI
M Ã¼
Ġp ank
ĠC el
Ġkalk Ä±nma
Ġb Ã¼l
ul duÄŁu
Ġsen ary
Ġtat ili
Ġmemnun iyetini
Ġmadd elerin
ĠtÃ¶ren le
ĠÃ¶nlem ler
as tÄ±r
ĠA dÄ±m
Ġtemel inde
laÅŁtÄ± ÄŁÄ±
Ġser amik
ĠkÃ¼f Ã¼r
ĠyapÄ±l ma
Ġfaaliyet lerine
Er kek
ar lÄ±ÄŁÄ±
Ġkur utma
ĠU marÄ±m
Ġmotiv asyon
Kam u
Ġm um
ĠT UR
Ġmer mer
Ġtat b
Ġ11 2
Ġyurt taÅŁ
ĠÅŁampiyon luk
Ġal Ã¼minyum
ĠÅŁ ov
ĠAk y
ĠTek in
Ġoynan acak
ĠBakÄ±r kÃ¶y
B una
Ġyap mam
Ġ6 1
Ġedilm esine
ĠAra ma
ĠmÃ¼ÅŁteriler imizin
ĠKaynak larÄ±
ĠH el
tan e
Ġkal eci
ĠDev r
ĠsaÃ§ ma
ĠðŁ ĺ
ĠÄ°h san
G Ã¼nde
dir ler
Ġuy k
ĠMuh asebe
ĠS AÄŀ
ĠÄ°ÅŁ birliÄŁi
ĠBaÅŁ arÄ±
g ren
r asÄ±
Â ¼
acak lar
Ġetik eti
ĠYah ud
Ġs Ä±y
us h
Ġin gilizce
ĠOlim piyat
Ġ ....
ĠbaÄŁ lama
Ġkapsam Ä±na
es k
ĠBen ce
ĠgÃ¶l g
ĠÃ¼lk elerden
U P
Ä±k Ã§Ä±
ĠÅŁ aÅŁkÄ±n
Ġalan larÄ±n
Ä±lÄ±r sa
Ġolab ilmektedir
Ġdon an
adÄ±ÄŁ Ä±mÄ±z
Ġolun ur
ĠÃľrÃ¼n ler
Ġada p
Ġarkada s
b urt
l aki
Ġkal maya
Ġ199 4
ĠÃ§Ä±karÄ± p
ĠF ah
iÄŁ ine
ĠK ans
Ġyap amaz
ĠMÃ¼slÃ¼man larÄ±n
Ġih rac
ĠEr kan
ĠparÃ§ alan
AB ER
ĠkuÅŁ ak
ĠbaÅŁkan larÄ±
Ġbelir tir
MA SI
ĠgÃ¶rÃ¼nt Ã¼sÃ¼
ĠTip i
ar ac
Ã¼l te
ĠkaldÄ±r mak
eks ika
Ġoldug unu
Ġat mÄ±ÅŁ
m o
Ġp ist
ĠV ur
ĠyÃ¶n Ã¼
Ġbenz ersiz
m art
Ġkal bi
Ġbulun arak
Ġola caÄŁÄ±na
Ġdestek li
M as
ĠW ashington
Ġteor ik
ĠdoÄŁrultu da
Ġbaz lÄ±
Ġvaz if
ĠOrta okulu
ĠØ§ ÙĦ
Ġg lobal
Ġsun du
ĠBiz i
ĠEy lem
ĠuÄŁr una
Ġkoruy an
Ġt adÄ±
Ġalan lara
ĠkuruluÅŁ larÄ±nÄ±n
Ġhesab Ä±na
S E
il ebilecek
ĠY es
Ġbur Ã§
Ä±k lÄ±k
ĠAy akkabÄ±
ĠkonuÅŁ mak
Ġsunu lacak
diÄŁ in
8 6
Ġhizmet lerinin
Ġdolay lÄ±
Ġuygulama yÄ±
Ġyer le
Ġkat Ä±lÄ±yor
Ġvak t
M ersin
Ġt elif
ĠsÄ±kÄ±ntÄ± lar
ĠgÃ¶rÃ¼l mesi
ĠyÄ±l Ä±nÄ±
Ġkarar laÅŁtÄ±r
Ġpat ik
D I
l eden
ĠÃ§ erez
us undan
ĠYan gÄ±n
ĠgeÃ§tik Ã§e
ĠÃĩ al
Ġtut ulmasÄ±
Ġsaat lerde
ĠyapÄ± larÄ±
Ġyaralan an
Ġr et
ĠKen an
ĠiÄŁ ne
ĠÄ° ster
ĠBur adan
K AN
ĠS o
Ã¼ÅŁ Ã¼
Ġad Ä±mÄ±
tar af
Ġdestek ler
Ġdiy elim
ĠÃ¶ÄŁret meni
Ġiz ler
ĠEr can
Ġuygula masÄ±nÄ±
Ġnokt alar
nam esi
Ġkurtar mak
ĠY Ã¼cel
ĠÄ°l han
Ġbit en
s Ä±na
y s
Ġm iyim
Ġdevam Ä±nÄ±
Ġil tih
ab ildiÄŁ
ĠU m
ĠaÄŁ acÄ±
Ġhep sinin
IN A
ĠkuruluÅŁ larÄ±n
Haz Ä±r
Ġnik ah
Ġp ul
ĠÃĸz bek
Ġproj eye
Ġtah rik
Ġn eyi
ĠÄ°ÅŁ ler
ĠH rist
ilm eyen
ĠÄ°nsan larÄ±n
Ġtrans feri
Ġkanal Ä±nda
ĠTak ip
8 9
Ġon ayÄ±
ĠÃĩank Ä±rÄ±
Ġs olu
ĠKon ferans
ĠkÄ±r k
Ġuzak lÄ±kta
Ġ199 6
ro ÅŁ
Ġih anet
ĠbaÅŁlat tÄ±ÄŁÄ±
as p
Ġkitab Ä±nda
×Ĺ×Ĺ ×Ĺ×Ĺ
ĠKur u
ĠgÃ¶rÃ¼ÅŁ mek
ĠPar Ã§a
w n
ilm eden
ĠsÄ±r f
ĠyÃ¼ksek Ã¶ÄŁretim
ĠOto matik
Ġbirik tir
Ġek lenmiÅŁ
Ġdurum dur
Ġmev du
Ġj andarma
ĠkoÅŁul lar
ĠhÃ¢l inde
ĠÃ§eÅŁ idi
ir ve
ĠAv cÄ±
Ġk ud
Ġc ad
ĠmÃ¼ barek
Ġsahn eye
ĠfÄ±kr asÄ±nÄ±n
G azet
ĠGel iÅŁim
ĠmÃ¼l akat
Ġf l
Ġc ir
Ġolur uz
Ġes mer
ĠÃ¶ÄŁren dim
ĠiÃ§er mektedir
Ġfik irler
Ġlist esine
ĠSor un
at ta
ĠAy v
gÄ± c
ĠaÄŁÄ±r lÄ±ÄŁÄ±
ĠÃ¶ner ileri
ĠÅŀim ÅŁek
g on
Ġar ma
ĠAl tÄ±
tib iyotik
Ġsitemiz den
op e
Ġbur juv
ĠÄ°z mit
ĠdeÄŁiÅŁik likleri
OL OJ
Ġistih barat
aman Ä±z
ĠDeÄŁ erli
el la
Ä±m lÄ±
Ġism inin
ĠNakl iye
ĠAfgan istan
Ã¼ leri
ĠsÃ¶y lenen
ĠÄ°ÅŁlem leri
ĠEb Ã»
S Ä±nÄ±f
Ä±l dÄ±m
ĠHazÄ±r lÄ±k
ĠKÄ±lav uzu
ĠS atÄ±lÄ±k
ĠMak am
200 5
Ġform Ã¼l
ĠtÃ¶ren ine
ĠBilim sel
Ġbir eyin
tern ational
Ġifad eleri
Ġodas Ä±nda
ĠH it
Ġdam g
Ġorganiz asyonu
g Ä±z
Ġay larda
lama yan
ĠyÃ¶n Ã¼ndeki
Ġengel ler
Ġgerekiyor du
L AMA
ĠD EN
Ġr it
Ġkay mak
ĠÃ¼retim inde
ĠSorum lu
D av
Ġbilg inin
ĠseÃ§ ilmiÅŁ
Ġmerkez e
Ġum arÄ±m
ĠkarÄ±ÅŁtÄ±r Ä±n
Ġbuyur du
Ġrehber lik
Ġkat Ä±larak
ĠÃ¶zel liÄŁine
ĠÃ§ar esiz
ĠÅŁim dilik
ĠAfyon karahisar
ĠyurtdÄ±ÅŁ Ä±nda
Ġklas Ã¶r
Ġor jinal
Ġgir dim
Ġoyn uyor
Ġbay raÄŁÄ±
ĠBÃ¶lg esinde
T aÅŁ
ĠA masya
Ġuzak lÄ±k
Ġgec eleri
ĠÃĩev r
ĠZ ek
Ġmuh t
Ġmis in
ĠM Ã¼s
Ġd or
ĠÃĩ ALIÅŀ
ĠAk saray
ĠFestiv al
Ġm p
ĠV it
abilir im
lendi ÄŁini
Ġsevin dir
Ġlog o
ĠT SK
Ġayr Ä±lÄ±r
Ġbelg elerin
Ġduyg usu
asÄ± dÄ±r
ĠÃ¶ÄŁrenc ilerine
ĠvatandaÅŁ Ä±n
M ustafa
ĠH oÅŁ
ist en
Ã¶l ye
Ġbah sede
M Ã¼ÅŁt
Ġk re
ĠgeÃ§ tiÄŁini
anlÄ±ÄŁ a
Ġpat lama
Son ra
ĠdeÄŁin en
Ġtap u
ĠPen dik
ĠM az
ĠSer t
D AN
g Ä±cÄ±
el d
Ġinsan lÄ±ÄŁÄ±n
ĠSiz lere
ĠSal dÄ±r
ĠBaÅŁbak anlÄ±k
ĠgÃ¶revl ileri
ĠK OBÄ°
Ġbelirt iyor
Ġac ent
ĠFir mamÄ±z
Ã¼z gar
ĠH or
Ġizley ebilirsiniz
Ġharca ma
r l
Ġhizmet lere
ĠDer in
Ġteknoloj inin
ledik ten
Ġal mÄ±ÅŁtÄ±
Ġko Ã§
Ġruh u
Ġolumsuz luk
ĠTerc ih
Ġil ki
ĠF inal
Ġmark anÄ±n
al p
uy an
ĠsektÃ¶r Ã¼ne
ĠTr av
ĠgÃ¼lÃ¼m s
Ġkab losuz
Ġam bar
Ġverm eyen
ĠKÃ¼r esel
ikat Ã¼r
el iler
ĠA tÄ±k
iyet le
Ġsen sÃ¶r
Ġpotansiy eli
Ġhav alandÄ±r
ĠSur esi
ĠMey dan
Ġzul Ã¼m
ĠEÄŁ len
Ġkum anda
ĠU laÅŁtÄ±rma
ĠcumhurbaÅŁk anÄ±
w in
... "
si on
K UR
ĠK eÃ§
Ġsor uyu
ĠA LI
ĠH is
ĠsaldÄ±r gan
ĠaÅŁk Ä±
K Ã¶
Ġk olu
ok e
ĠY TL
ĠÃ§Ã¶z mek
Ġistem eyen
Ġv ek
Ä±k lar
ĠÃ§ocuk larda
Ġiht il
ĠGar anti
ĠP laj
ĠsÃ¼r er
ĠÅŀ iÅŁli
z in
Ġyan Ä±ndaki
ĠgÃ¶rÃ¼ÅŁ leri
ĠList esi
Ġkur gu
ot ek
Ġhak sÄ±zlÄ±k
ĠbÄ±rak Ä±r
T AN
laÅŁ manÄ±n
Ġad Ä±nÄ±n
Ġsezon un
ĠTer im
m ediÄŁ
ed in
ĠS of
Ġkal dÄ±k
Ġbilg isini
ĠgÃ¼zel liÄŁi
ks Ã¼r
V EN
ĠdÃ¼zen ley
t Ã¼k
te fik
gel e
ĠadÄ±m larÄ±
ĠA C
Ġyar Ä±ÅŁÄ±
Äŀ Ãľ
ĠEdebiyat Ä±
Ġ3 50
Ġtasar lanmÄ±ÅŁtÄ±r
Ġbur cu
Ġekran da
ĠÃ¶ÄŁ Ã¼t
ĠPeygamber imiz
ĠalÄ±nacak tÄ±r
et tÃ¼r
Ġver ilebilir
Ġim ha
Ġsok aÄŁa
Ġkahv alt
ĠK lasik
ĠG Ä°R
Ġson bahar
ĠGay rimenkul
Ġita at
B ank
Y S
ĠC er
inc eye
ĠdÃ¼ÅŁÃ¼n mÃ¼yor
Ġsun maya
Ġoyn adÄ±
Ġba Ã¾
ĠDemok rat
ĠkÃ¢ ÄŁÄ±
k ah
ĠarttÄ±r mak
ĠhÃ¼km Ã¼
ĠVad isi
ĠSÃ¶z leÅŁme
Pro f
il in
Ġsonu ca
ĠsÄ±nÄ±f landÄ±r
B al
ĠR en
Ġmet od
Ġazalt mak
ĠE ki
ĠÅŀ Ä±rnak
ĠMuh tar
Ġiler iye
Ġcil d
Ġrisk ini
r ap
ĠS ub
ad Ä±ÅŁÄ±
ĠÅŀ erif
Ġsiz lerde
Ġend eksi
ĠÃĩaÄŁ rÄ±
ĠfarklÄ± dÄ±r
R Ã¼yada
ot t
EM Ä°
D Ä°R
Ġkur ulacak
ĠyÄ±l lara
ĠUl us
S abah
ĠS ap
ĠaÃ§ Ä±yor
Ġpar anÄ±n
eÄŁ imiz
Ġver diÄŁiniz
Ġbilin iyor
Ġu laÅŁtÄ±ÄŁ
Ġtut uyor
Ġem ri
meler e
Â ¬
Ġedilm ek
ĠgÃ¼r Ã¼lt
es iniz
ĠU Ã§ak
ĠAl tay
ĠKal esi
ĠDen et
Ġy edir
Ġak an
ĠgÃ¶z yaÅŁ
Ġsek ret
ĠBilg ileri
ĠMed ine
ĠÄ°dar e
ĠA rac
edik al
ust ur
Koca eli
O Z
ĠG rafik
Ġdo landÄ±rÄ±cÄ±
Ġz ahmet
ĠdiÄŁer leri
SÄ° AD
Ġgiy en
ĠGaz ze
Ġkred isi
ĠFaz la
m inin
eli ÄŁini
Ġail eleri
koÅŁ a
s ki
ĠÄ° K
Ġyeten ekli
ĠÄ±sÄ±t ma
av gat
ĠaÃ§Ä±k layan
Ġbek lemek
ĠMillet vekil
own load
Ġyurt dÄ±ÅŁÄ±
Ä°ST ANBUL
ĠÅŁÃ¼k Ã¼r
et o
ĠÄ° leri
ley se
ĠÃ§ek ilmiÅŁ
ĠÃ¶zellik lerine
Ġciv ar
Ġbir Ã§
Ġal Ä±yorum
Ġkir li
ĠeÄŁit men
c inin
ĠAr ÅŁiv
ĠÃ§ amur
Ġhedef leri
ĠÃ§aÄŁr Ä±sÄ±
veren gi
Ġs ih
Ġ199 2
al Ä±sÄ±nÄ±z
ĠAn lam
Ġik il
Ġgez dir
Ġs iv
Ġmesaj lar
Ġ Ä±z
ĠY eri
Ã¢ let
Ġsoru ya
ĠdÃ¼k k
ĠF lor
ĠyaÅŁ ant
Ġadr esini
ĠYÃĸN ETME
Ġyak Ä±ÅŁÄ±klÄ±
ĠyÃ¼z e
ĠmÃ¼slÃ¼m an
Ġkal kan
ĠkonuÅŁ uyor
Dev amÄ±
ĠBakanlÄ±ÄŁ Ä±nÄ±n
ĠI SO
Ġsat Ä±m
Bak an
Ġbul muÅŁ
âĢ¦ .
og a
dak ilerden
ĠalÄ±ÅŁ k
ĠKurum larÄ±
M U
ĠH ele
Ġkal dÄ±ÄŁÄ±nÄ±
ĠgÃ¼c Ã¼ne
ĠHÃ¼k m
Ġek lemek
m Ã¼l
4 00
s ah
y etik
ĠtarÄ±m sal
Ġmuhaf az
K endi
ic inin
ĠsÃ¶z lÃ¼k
or oloji
Ġalmak ta
Ġnih ai
ĠBÃ¼t Ã§e
a in
ĠK HK
ĠC insel
3 00
D ÃľR
F T
ĠV odafone
ĠKay n
Ar aÅŁtÄ±r
ilendir me
Ġok urken
Ġparla men
B ab
b n
Ġal masÄ±nÄ±
Ġif tir
mal Ä±yÄ±m
Ġgru ba
ĠolduÄŁumuz u
Ã¢ f
ĠbÄ±rak arak
Ġbeklen tiler
ĠbeÄŁ eni
h en
Ġyaz Ä±nÄ±n
Ġdayan Ä±ÅŁma
ĠLis e
Ġsol uk
Ġkural larÄ±na
Ġparamet r
Y ayÄ±n
ĠÅŁ i
ĠgÃ¼n kÃ¼
ĠSiyas i
Y eÅŁil
n ca
Ġvaz iyet
Ġbiy olojik
Ġh adi
ĠAr aba
ĠOn lara
ĠÃ§evr esindeki
ĠMet ro
art ma
ĠSay gÄ±
g s
Ġh e
Ġdir eksiyon
Ġbenz in
ĠsuÃ§ u
Ġversiyon u
o lasyon
el ler
leÅŁ mesi
Ġdilek Ã§
S iyas
ĠD ede
ic ilerin
Ġtesis leri
Ġrad ikal
x t
Ġbel de
ĠyaÅŁÄ±nda yÄ±m
Ġbelir leyen
allah u
Ġkend isiyle
ĠPa ul
Ġf u
Ġhak ik
ĠDeÄŁ iÅŁim
Ġsorum lusu
ĠEndÃ¼str iyel
Ã¼m Ã¼n
ĠEk rem
ĠBul uÅŁ
ĠB ingÃ¶l
Ġar adÄ±ÄŁÄ±nÄ±z
Ġkur arak
ĠÅŀ ark
Ġkend im
ĠfÄ±r Ä±nda
l ileri
Ġpart iler
Ġpolitik alarÄ±
ĠG o
Ġbulun muÅŁtur
ĠmÃ¼z e
ĠOk tay
Ġmol ek
m y
ĠL az
Ġadam lar
ĠRes mÃ®
200 4
ĠgÃ¼r eÅŁ
ĠA Ãĩ
ĠsektÃ¶r e
ĠdÃ¼ÅŁtÃ¼ ÄŁÃ¼
ĠteÅŁeb bÃ¼s
ĠT AN
ĠÄ° y
Ġkal madan
Ġyet kin
ĠÃ¶nc Ã¼lÃ¼ÄŁ
Ġmakam Ä±nda
ĠÃ§or ba
ih az
Ġsoru lara
ĠYet kili
__ __
ĠBoÄŁaz iÃ§i
K onu
Ġsev erek
ĠÃ¼lk edeki
ĠtÃ¼r den
Ã¶k Ã¼m
Ġrahat la
Ä°Z MET
p ik
uÅŁ ak
Ġbilm em
ĠÃ§ am
ĠiÅŁ leyen
oc u
Ġer gen
ĠÃ§evr esi
Ġn evi
Ġyaz arak
Ġas tr
Ġdiy ecek
K r
ĠKal iteli
ĠDak ika
Ġp adiÅŁah
ĠÅŁ un
Ä±lma mÄ±ÅŁ
ĠaldÄ± lar
ĠTesis leri
Ã ª
ĠsÃ¼r Ã¼mÃ¼
Ġgetir me
Ġesk ort
ĠZirv esi
an ik
Ġfrag manÄ±
ĠH oc
ĠÃ§Ä±kar Ä±lmasÄ±
ĠartÄ±ÅŁ la
Ġtef sir
ah tarÄ±
ĠgÃ¶ster miÅŁtir
Ġayr Ä±lmÄ±ÅŁ
M Ã¼z
is por
ĠT ef
ĠÃ¶zgÃ¼r lÃ¼ÄŁÃ¼
Ġente gr
8 3
ĠsÃ¼r eleri
ĠhÄ±r sÄ±zlÄ±k
B un
k est
Ġo pt
Ġal em
Ġbu t
Ġ7 9
Ġbay r
ĠTaÅŁÄ±ma cÄ±lÄ±k
al Ä±n
ĠÃĸ calan
os una
ig h
ĠMar s
ĠKullan Ä±mÄ±
Ġelem ent
Ġbulunma dÄ±ÄŁÄ±
Ġyap Ä±sÄ±na
ĠP orno
Ġuy ruklu
ĠW ord
Ġgal ip
ĠTat ar
ĠdÃ¼zen lenmesi
Ġlez z
n iz
p ost
Ġark e
ĠbÃ¼r Ã¼n
M alatya
Ġyap maz
ĠF onu
ĠtanÄ±n mÄ±ÅŁ
Ġk lip
ark lÄ±
ĠÃ§Ã¶zÃ¼m e
Ġleh ine
Ġadr esinde
Ġkullan dÄ±ÄŁÄ±mÄ±z
Ġl ojistik
ĠKor un
Ġdosy alar
ko Ã§
ĠÃĩank aya
, ,
Ġdur ur
ob ile
Ġkurul umu
ĠJ ack
Ġgelir i
Ġettik ten
Ġtahmin leri
ĠpeÅŁ in
eÄŁ er
ĠyÃ¼ksek liÄŁi
b Ã¶l
Ġkon usuna
ĠyaÅŁ Ä±nÄ±
ĠtasarÄ±m larÄ±
ĠÄ± lÄ±k
Ġr eg
Ġkay a
ĠAbd ul
n oloji
Ġ Ã¼
Ġsu bay
Ġgarant isi
Ġnez dinde
' ,
ĠgeÃ§ meden
Ġlist elen
È Ļ
ĠMic hael
Ġhamil elik
ĠE dit
Ġsan atÄ±
ĠOn larÄ±
Ġister se
Ġ199 3
Ġmesle ÄŁi
C h
Ù Ī
Ġbulun muyor
ing s
ĠBey koz
Ġgetir ip
raf t
Ġtan Ä±mÄ±
ĠBah is
Ä±sÄ±r a
ĠÃ¼retic isi
ar ch
ĠK u
ĠÄ°lk okulu
Ġyetkil iler
ĠGÃ¼ney doÄŁu
Ġmesl ektaÅŁ
Ġan talya
Ġbel lek
ĠEr ken
ĠTÃľ BÄ°TAK
ĠOper asyon
Ġsah aya
Ġhav aya
ĠkÄ±yas la
Ġg oogle
Ġistiyor sunuz
Ġyap Ä±sal
os unun
ĠV ir
Ġedil ip
il yon
ĠbÃ¼yÃ¼k lÃ¼ÄŁÃ¼nde
ĠG re
ĠaÃ§ Ä±lÄ±ÅŁÄ±
Ġun cu
ĠSem poz
ĠS Ä°ST
ĠÃ¶nem s
duÄŁ una
ĠgeliÅŁtir ilmiÅŁ
Ġul uslar
ĠyayÄ±m landÄ±
ĠolduÄŁunuz u
Ġy etim
Ġkullan abilir
ĠbaÄŁ layan
Ġdiler seniz
ĠÃĸde me
ĠkapÄ± larÄ±nÄ±
ĠBir im
Ġbak Ä±yor
Ġelem anlarÄ±
ĠY ayla
ĠAÄŁ a
Ġf ren
ĠÃ§ek ildi
mel iyat
Ġpro f
ĠdÃ¶n Ã¼yor
Ġ7 6
ĠSaÄŁ lÄ±klÄ±
ĠPla stik
Ġtut ulan
Ġsistem lerinin
ĠÄ°z in
Ġs ola
Ġi br
Ġtak Ä±ma
Ġzar if
ĠyatÄ±rÄ±m larÄ±
Ġdekor atif
Ġcaz ip
M et
ĠTur nuv
ĠPer forman
Ġar ayÄ±n
Ġel imizden
Ġolma mÄ±z
Ġsen edir
Ġzar arÄ±
ĠSh ow
b istan
Ġel le
ĠkonuÅŁ masÄ±nÄ±
ĠsÄ±nÄ±f ta
ĠKÃ¶r fez
at o
Ä±z Ä±n
Ġkoy uyor
Ġez ber
ĠAmaÃ§ lÄ±
at ch
em emiÅŁ
ĠÃ§alÄ±ÅŁ tÄ±ÄŁÄ±nÄ±
ĠsÄ±r alarda
ĠKam er
ĠkarÄ±ÅŁ Ä±mÄ±
ĠyÄ±ldÄ±z lÄ±
azz am
ĠbiÅŁ ey
ĠM U
ĠBur han
Ġkod larÄ±
s eler
Ġf oto
ĠgÃ¶ster mesi
ĠkarÅŁÄ± tÄ±
Ġterc Ã¼me
Ġkav ur
.. ...
Ġkend ilerinin
Ġw ith
ÃĸÄŁr enc
ĠS ipariÅŁ
Ġte Ã¢lÃ¢
Ġhukuk a
Ġhak larÄ±na
ĠÃ§ek iÅŁ
Ġtem s
ĠmÃ¼dÃ¼r lÃ¼k
ĠtÃ¶ren inde
ĠÃ¶nlem leri
Yak laÅŁÄ±k
Ġedilir ken
Ġvar d
ĠKend isi
Ġmahkem eye
Ġmini bÃ¼s
Ġkullan Ä±rken
ĠB AY
Ã¼k sel
Ġkullan Ä±cÄ±nÄ±n
ĠsÄ±r alama
A c
Ä± v
ĠU ÅŁak
ĠBur s
ĠmaÃ§ larÄ±
KÄ± brÄ±s
Ġo mur
Ġz anlÄ±
ĠÃ§Ä±k abilir
Ġfazla dÄ±r
Ġy ed
ĠK ULLAN
ĠsaÄŁ layabilir
Ġziyaret Ã§iler
ĠsÄ±ÄŁ Ä±nma
ĠÃĸdÃ¼l leri
b un
ĠBaÅŁkan lÄ±k
ĠÃ§iz im
ĠYÃ¼r Ã¼y
ĠGÃ¼Ã§ lÃ¼
r iye
Ġg azÄ±
ĠÃ¼ret iciler
Ġoyuncu larÄ±n
Ġokuy un
ĠDur sun
ĠgÃ¼ven ce
Ġyakal ay
D IR
ĠY AR
Ġortak lÄ±k
ĠsaÄŁlan maktadÄ±r
Ġeh il
Y ol
lem eler
ĠL id
ĠdÃ¶nem lerinde
ĠÃ§iz en
Ġharc am
abilm eniz
Sel am
ub at
S onuÃ§
ar aya
il an
Ġsun uyorum
Ãħ Å¸
leri dir
ĠÅŀub eleri
Ġbilm ez
m eme
u al
ĠS ER
Ġver sin
Ġzaman ki
ĠvatandaÅŁ lara
EM Ä°R
z acÄ±
Ġak Ä±ÅŁÄ±
ĠgÃ¼ven le
ĠKon feransÄ±
ĠbaÅŁk alarÄ±nÄ±n
ĠSonuÃ§ ta
ĠÃ¶n Ã¼nÃ¼
Ġtek ne
Ġak s
ĠgÃ¶rÃ¼n Ã¼mÃ¼
Ġoran Ä±nÄ±
ĠÅŁiddet le
ĠFÄ±k Ä±h
Ġtaktir de
D in
n ur
ĠsaÄŁ a
Ġverm ekte
Ġmon te
Ġstratej i
Ġb Ã¼k
oz isyon
Ġadres e
Ð° Ð
ĠKÄ±zÄ± lay
2 000
g ara
w ard
Ġp al
Ġf ena
Ġzaman dan
Ġ19 60
Ġtan Ä±y
ĠdÃ¶nem inin
Y et
Ġiz ah
im er
ĠM EB
Ġat Ä±p
ĠhazÄ±r lanmasÄ±
Ġbur da
Ġboya ma
g ay
ĠsaÄŁ lÄ±ÄŁÄ±nÄ±
Ġyan Ä±sÄ±ra
ĠEr c
Ġkurum un
Ġolab ilmek
Ġaf f
B ana
ĠK os
Ġil Ã¢h
ĠS ON
ĠKar arÄ±
adÄ±k larÄ±
Ġmahall esi
ĠH Ä°ZMET
Ġver mem
Ġtad ilat
Yak Ä±n
s uru
ĠM asa
ama men
Ġkaz asÄ±
Ġbam baÅŁka
j ik
ed onya
ĠÄ° TÃľ
ĠgÃ¼n delik
Ġces ur
M ehmet
e ma
ĠB B
ĠC oÄŁraf
ĠgÃ¶ster g
Ġor al
ĠErkek ler
ĠuÄŁ ra
ĠÃ¶de mek
ĠbaÅŁlan gÄ±c
c ilere
ĠK imi
ĠD ay
ilm esiyle
Ġak sam
Ġ20 23
ĠÃĸÄŁr et
ĠY ÃĸK
ĠYÃ¼z yÄ±l
A Ã§
D Ã¶n
Ġuygula mak
Ġham l
Ġefsan e
ĠCevap larÄ±
Ġin kÃ¢r
ĠC afe
Ġalan Ä±nÄ±n
Ġtem eli
Ġres sam
S Ä±r
ĠY ozgat
ĠG Ã¼z
Ġay aÄŁÄ±
nin g
Ġden eyin
ĠkullanÄ±m Ä±nÄ±
ĠTiyatro su
w are
Ġsav unan
ĠseÃ§en eÄŁini
var yum
ĠiÅŁken ce
Ã§ aÄŁ
lan masÄ±nÄ±
ĠR Ã¼yada
ĠaralÄ±k larla
ĠdÃ¼ÅŁ mesi
Ä±ntÄ± lÄ±
Ġp iyan
ĠedeceÄŁ im
9 2
ĠbÃ¶lÃ¼m Ã¼nÃ¼n
ĠÃ¶den mesi
Ġekley erek
Ġt etk
Ġtut ulur
ĠOrgan izasyon
k Ã¶
p ir
Ġt Ã¼c
Ġbir ileri
Ġkal or
ĠI V
ĠKamp any
ĠyÃ¼rÃ¼ttÃ¼ ÄŁÃ¼
H an
M ed
Ġiyi dir
edik lerini
ĠGÃ¶r sel
ĠLir asÄ±
p i
Ãĸ Y
Ġproj esinin
Ġekonom isine
Ġfaaliyet e
ĠÃ§evrim iÃ§i
Ġs eh
Ġc is
ot u
ĠHizmet i
ĠÄ°d lib
Ã¼ fer
ĠB Ä±rak
Ġal Ä±nÄ±p
ti j
ĠsÃ¼r Ã¼len
ĠL eyla
Ġtut up
ĠÃ¶nc esine
Ġkural lara
c asÄ±
Ġay dan
Ġinsan lardan
ĠYÄ±k ama
ĠÃ§alÄ±ÅŁ Ä±n
Ġkor idor
Ġfir masÄ±nÄ±n
Ġtemiz len
Ġav uÃ§
asay fa
ak ip
Ġbu laÅŁ
lu ÅŁtur
ĠÃ§ar e
ĠÃ§ap raz
ĠDil ek
B unu
ĠT E
Ġc ay
Ġkonu larÄ±n
Ġyeten eÄŁi
Ġyap malarÄ±
ĠsÃ¼r esini
Ġlig de
ĠOtom otiv
B at
ĠÃĩ il
Ġek lenen
Ġyet in
ĠgenÃ§ lere
Ä±lma masÄ±
ĠEtkin lik
Ġkoz metik
c istan
ĠA M
ĠS efer
Ġtak Ä±
ĠÃ¶dÃ¼l lendir
ĠP utin
ĠB Ã¶
ĠbaÄŁÄ±m sÄ±zlÄ±k
n ed
ĠsÃ¼r gÃ¼n
ĠÃ§ ukur
ĠD V
Ġsit elerinde
Ġolacak tÄ±
Ġte ma
Ġte masÄ±
Ġsevgil isi
ĠÃ¼stlen diÄŁi
P er
y anÄ±n
Ġs tand
Ä±r Ä±z
ĠiÅŁlev sel
f te
os unda
Ġ19 70
ĠÄ°z le
ĠÃ¶y l
ĠSÃ¼n net
Ġbun larla
ĠkaÃ§ an
ĠyÃ¶net meli
OB B
ĠGÃ¶rÃ¼n tÃ¼
ĠBÃ¼r o
iy eleri
ol uk
ĠaÃ§ abilir
diÄŁ inizde
ĠkadÄ±n larda
ï »¿
Ä° C
Ġsit esini
ĠeÅŁy alarÄ±
Ġimkan larÄ±
ĠBos na
Ġmuc iz
t Ä±na
ĠÅŁ aman
ĠÄ° LÄ°
ĠkullanÄ±l mak
ĠyÃ¼ks ektir
Bilg isayar
el ey
ĠM P
Ġu p
ĠkÄ±z larÄ±
Ġoluyor du
ĠgÃ¶m lek
ĠAl Ã¼minyum
Ġsev iyor
tÃ¼ el
Ġinan an
ĠDav id
Ġkoordin asyon
ĠT Ä±bbi
Ġar tacak
oÄŁ ullarÄ±
ĠsÃ¼r ek
ĠseÃ§ erek
ĠÄ°b n
Ġyap mamÄ±z
ib r
Ġsor ar
akk ab
ĠSonuÃ§ larÄ±
t le
ï ¼
ib a
ĠI sÄ±
ĠGerek li
Ġg ri
ĠbÃ¼yÃ¼k lÃ¼k
Ġes in
Ġyol unun
Ġgrub unda
ĠEndek si
Ġh amam
ĠA lacak
ĠsaÄŁ lÄ±ÄŁ
Ġhav alimanÄ±
Ġkolay dÄ±r
ĠRe al
ĠHÃ¼km Ã¼nde
ĠN amaz
Ġisteyen lerin
Ġiptal i
Ġmo tif
ak t
Ġyap acaÄŁÄ±nÄ±
ĠgeÃ§ erken
Ġkap Ä±yÄ±
ĠiÅŁlem lerinde
Ġhac mi
ĠÃ§ ayÄ±
Ġel indeki
Ġder di
ĠEn erj
ĠaraÅŁtÄ±r maya
Ġann esinin
ĠKara ca
ĠbÃ¼r o
ĠyÃ¼rÃ¼r lÃ¼k
Ġolmay abilir
ĠgÃ¶zÃ¼k Ã¼yor
ĠÃ¶n eri
Ġkon uÅŁtuk
if i
ĠÃ§ek meye
ĠUy gulan
ĠSigort asÄ±
G Ã¶k
ĠÃ§alÄ±ÅŁ tÄ±k
ĠMer al
Ġp orn
ĠBir likte
Ġoku du
o us
Ġar Ä±yor
Ġyer lerini
ĠKim lik
ĠdeÄŁerlendir en
B undan
leÅŁtir mek
ĠZ ey
ĠvatandaÅŁ larÄ±
lar in
Ġsay Ä±sal
ĠAl per
Y at
Ġm uv
ĠW ar
Ã¶ m
ĠaÃ§Ä±kla malarÄ±
Ġekib imiz
Gazi antep
f on
ĠgÃ¶ster meye
Ġ8 2
Ä°n gilizce
r ab
Ġan ma
Ġbirbir lerini
Ġuzman larÄ±
ĠGeÃ§ ici
Ġfar z
ĠNev ÅŁehir
ĠK AN
ĠsÃ¶yl ediler
ĠR efer
Ġsiz ce
ĠBur dur
Ġistem iyor
ĠStad Ä±
ArkadaÅŁ lar
Ġk Ã¶l
ĠÃľ R
ĠAr ka
ĠÅŁey lerden
8 4
Ġbil ek
Ġad Ä±ndan
Ġhay ali
ĠTek stil
MA Z
Ġlam b
H ocam
ĠB araj
ĠS ib
Ġtut ma
Ġders iniz
rah man
N o
ĠS te
ĠgÃ¶r ecek
Ġgel diniz
ĠÃ¼z Ã¼ntÃ¼
ĠyakÄ±n larÄ±nda
ĠtanÄ±t Ä±mÄ±
t ayÄ±
ĠS U
ĠP AR
ĠC ap
ĠdÃ¼ÅŁ kÃ¼n
ĠGel ecek
Ġunut ul
Ġotel de
b y
iyet e
Ġakl Ä±na
Ãĸr neÄŁin
ĠÄ°ST ANBUL
D Ã¼ÅŁ
lan masÄ±na
ĠbeÅŁ inci
ĠyÃ¶netic iler
Ġat ak
re dat
ĠÅŁark Ä±sÄ±
EH Ä°R
G Ã¼l
ĠP uan
dÄ±ÄŁ Ä±mda
uv ara
ĠYaz Ä±lÄ±
Ġharit a
Ġc Ä±k
lama dan
ĠAy ak
ĠÄ±ÅŁ Ä±l
ĠVol kan
ak Ã¢r
oz an
eti ce
Ġst art
ĠVat an
im deki
lan Ä±n
eÄŁ iniz
Ġgiz lilik
ĠBugÃ¼n e
LE Åŀ
z ade
Ġtar ama
Ġday at
ĠHÃ¼kÃ¼m eti
Ġk in
Ġt Ã¼tÃ¼n
ĠvÃ¼c uda
ĠtÃ¼rk iye
Ġaleyh ine
Ġs eg
ĠgÃ¶rev den
ov e
ĠyÃ¶ntem lerle
ĠartÄ±r Ä±lmasÄ±
rop ol
ĠâĢ Ķ
Ġek lendi
Ġvideo lar
ĠYet iÅŁtir
v ir
Ñ ı
ek in
kÃ¼ ler
Ġhast alarda
8 1
ĠH id
ĠsaÄŁ lamaya
ĠFeth iye
Ġalan daki
Ġev rim
Ġdevlet e
Ġotel leri
ĠYak asÄ±
Ġzorun luluÄŁu
Er z
Ġirtib ata
ĠÅŁ irin
Ġ7 4
Ġuzun luÄŁu
ĠbaÅŁvuru lar
an am
Ġv il
Ġver eceÄŁiz
ĠÃ¶ÄŁretmen lerin
ĠA fet
ĠarkadaÅŁ larÄ±m
Ġmark alar
Ġgider leri
ĠkarÅŁÄ±laÅŁt Ä±ÄŁ
Ġs c
ĠK linik
ut e
Ġsey red
ĠPol onya
ĠEnd Ã¼stri
ĠTaraf Ä±ndan
ĠpÃ¼r Ã¼z
S ah
Ġgelir ken
edd Ã¼t
Ġk asÄ±
Ġat Ä±ldÄ±
ĠseÃ§ mek
eder ken
ĠDemok ratik
ĠgÃ¼z eli
Ġikin cisi
] .
ĠM eÅŁ
Ġver ebilirsiniz
ĠaÃ§ Ä±n
ran Ã§
ĠtÄ±k an
Ġcevap lar
Ġin ter
ĠgÃ¶z de
Ġproj elerin
Ġdok Ã¼m
Ġcez asÄ±na
O G
Ġsor dum
n c
v ri
Ġdil de
dev let
Ġm eg
Ġdevam Ä±nda
Ġoyunc unun
h op
Ġd Ã¼s
de x
ĠB isiklet
Ġkullan acak
Ġyaz dÄ±m
Ġorta okul
lÃ¼ÄŁ Ã¼nÃ¼n
ĠT una
Ġpro v
ĠulaÅŁ abilir
ĠÃ¶rgÃ¼t leri
Ġver ilecektir
ĠyapÄ± larÄ±n
ĠvatandaÅŁ larÄ±mÄ±zÄ±n
Ġbayan lara
Ġsahib ine
ĠkarÅŁÄ± t
ĠhÄ±zlÄ± ca
ĠÄ±s Ä±r
d Ã¶rt
Ġ ur
mak sÄ±zÄ±n
Ġkapsam Ä±
c t
Ġyap acaÄŁÄ±m
Ġn da
Ġhal lerde
Ġhaz in
ĠPlan lama
GerÃ§ ek
Ä±l dÄ±ktan
li gi
ĠI M
I Y
r arÄ±
lay alÄ±m
r ad
ĠA g
ĠgÃ¶z lÃ¼k
Ġhayvan cÄ±lÄ±k
civ ert
T ube
ÅŁ an
Ġal maz
Ġkamu oyu
Ġhaz ret
ĠbÄ±rak tÄ±ÄŁÄ±
ĠÅŁu dur
Ġyap manÄ±n
Ġmut suz
Ġkr it
Ġh uy
Ġal ay
Ġkay dÄ±r
ĠgÃ¶rÃ¼ÅŁ lerini
Ġcin s
ĠTarif i
ĠA MA
Ġek ranÄ±
Ġhak larÄ±nÄ±n
ĠsavaÅŁ a
ay e
ĠS iirt
Ġrahat Ã§a
ĠGelen eksel
ĠdÃ¶n mek
Ġpar maÄŁ
ĠAy lÄ±k
Ġgecik me
Ġihrac atÄ±
S in
Ġkol larÄ±
Ġn isp
ĠC al
vur u
ĠMar ÅŁÄ±
Ġgiy s
ĠH ani
ĠiÅŁ lerde
Ġs adÄ±k
Ġkarar Ä±yla
Ġses len
Ġgec enin
Ä± tÄ±
Ġindir mek
DeÄŁ erli
h az
ĠD eri
Ġkat led
c id
Ġb aya
iy en
ĠH adi
Ġat lat
elendir me
C om
Ġs iber
Ġo z
ĠdÃ¼nya ca
Ġgider ilmesi
ĠyoÄŁun luÄŁu
Ġbec eri
Â ·
ak Ä±t
ĠS ir
ĠdavranÄ±ÅŁ larÄ±
Ġliste de
ĠAkÅŁ ener
Ġt rak
le ÄŁ
Ġhakk Ä±nÄ±n
Ġkonum una
ĠBit coin
Ġyap Ä±t
ĠgÃ¶nder ilir
Ġhus uslar
ĠkÄ±sÄ±t lÄ±
Ġfot okop
ĠS ec
ĠyayÄ±n larÄ±
ĠHay al
ĠDeniz cilik
ĠÃ§al Ä±n
Ġbeden sel
Ġkend imize
Ġhev es
Ġat anan
Ġdurum unun
Ġuygulan abilir
Ġ13 0
Ġhid ro
ĠP akistan
ĠAk ar
y r
Ġem zir
ĠYap Ä±lmasÄ±na
Ġengel lem
ĠkuÅŁ at
ĠSiyas et
ĠT ec
op ol
Ġola ya
ĠÃ§ev resel
ĠgerÃ§ekleÅŁtir ebilirsiniz
Ah met
ĠÃ Ŀ
ĠG am
Ġkon gre
Ġkonu lara
tiv e
Ġip uÃ§
ĠProgram larÄ±
L END
ĠM Ã¼r
ĠBel li
Ġyay Ä±lan
anlÄ±ÄŁ Ä±n
Ġdar al
Ġzeytin yaÄŁÄ±
ĠUY GUL
Ġan Ä±t
ĠyÃ¶n Ã¼yle
Ġyaz Ä±lÄ±r
ĠU s
ĠyerleÅŁtir me
ak lÄ±k
Ġres imli
Ġnak il
s n
ĠSev gi
iÅŁ kin
ĠgÃ¼n Ã¼nÃ¼
Y unan
Åŀ K
Ġhareket ler
ĠE D
Åŀ ehir
ĠsaÄŁ anak
ĠdeÄŁerlendir meleri
Ġmillet imizin
Ġtamam lanan
Ġbank alarÄ±n
ĠG iyim
ĠÃ¢ lim
ĠMad en
Ã¢ d
ĠAlan larÄ±
ĠÃĩ eÅŁme
ap on
Ã¼z Ã¼k
pek tif
eÄŁ li
Ġolay da
Ã» n
Ġtehlik eye
ma dÄ±k
emiz den
Ġiz ledi
ce des
Ġgel medi
ĠsaÄŁ layÄ±cÄ±
ber al
ĠÅŁarkÄ± larÄ±
ĠÄ°d di
Ġola caÄŁÄ±m
Ġ7 3
L AM
y y
Ġm l
ĠS oya
ĠeleÅŁtir i
ĠyÃ¼k lem
Ġaz iz
Ġelekt ro
Bel ediye
Ġani den
Ãľlk emizde
Ġtut tu
Ġmah rum
Ġey lÃ¼l
ĠgiriÅŁim ci
ĠS emin
ĠiÃ§eri ÄŁini
** **
ĠÃĸnc eki
ĠyapÄ±lab ilecek
Ġ ine
ĠT ic
ĠAv cÄ±lar
ĠÃ¶ bÃ¼r
Ġpar alar
Ġincel eyerek
ĠHaber leÅŁme
iy ye
Ġser tifika
Ġdiyor du
ĠMes ut
Ġtasarruf u
klar eli
ĠGÃ¶ÄŁ Ã¼s
dÃ¼k leri
ĠDayan Ä±ÅŁma
Ġtut tur
ĠkonuÅŁ ulan
Ġkud ret
ĠoluÅŁ u
ĠSev gili
Ġdakik alar
Ġokuy up
C an
lendir ici
ĠSay Ä±sal
Ġalg orit
Ġgib iydi
ĠD ah
Ġbirbir leriyle
Ġsin dir
Ġnokta dan
Ġgalib a
Ġdalg alan
p an
Ġh iz
ap Ä±
Ġkar lÄ±
ĠL ojistik
ĠgÃ¶ster ebilir
ĠMÃ¼dÃ¼r Ã¼mÃ¼z
Ġnot u
Ġ Î
Ġkullan mayÄ±
Ġ7 1
Ġ9 6
ĠgÃ¶nder mek
Ġkanal larÄ±
GÃ¼n eÅŁ
ĠTrak ya
ĠÃ§alÄ±ÅŁ acaÄŁÄ±z
Ġev inin
ĠsÄ±nav Ä±na
Ġbitir di
Ġkamuoy una
c es
Ġhar man
ĠÃ§erÃ§ev e
Mil let
F il
Ġd iÅŁi
Ġsor mak
ard o
s Ã¼r
eler deki
ĠN us
Ġkut up
ĠgÃ¼l dÃ¼r
ĠiÃ§erik li
ĠyapÄ±m cÄ±
ĠdÃ¼ÅŁ manÄ±
Ġmetrekar elik
Ġyap abileceÄŁiniz
ĠÃ§Ä±kar Ä±n
ĠMer haba
ĠkuÅŁ kusuz
Ã¼ h
Ġ3 60
ĠtÃ¼m Ã¼
Ġkan unun
Ġ20 20
Ġduygu larÄ±
Ġameliyat Ä±
em iÅŁtir
ĠaÃ§ mÄ±ÅŁ
ĠÃ§Ä±k tÄ±k
ĠmaÃ§ Ä±nÄ±
ĠbaÅŁlat Ä±ldÄ±
ĠBaÄŁ dat
ĠSah af
ĠP rens
ĠAllah Ã¼
lÃ¼l Ã¼k
ĠR ektÃ¶rÃ¼
ĠL ink
Ġsun uldu
ĠSan ay
Ä°N E
Ġyapar lar
ĠTemiz liÄŁi
c insel
Ä±m la
ĠT anÄ±t
ok sit
Ġkal ori
Ġot or
Ġun suru
sÄ±n lar
ĠYÃ¼r Ã¼t
ĠM ol
ĠBir imi
Ã¼v ey
Ġolma dÄ±ÄŁÄ±ndan
ĠalÄ±n abilir
Ġsipar iÅŁi
P eygamber
Ñ ĸ
ĠM erk
ĠaÃ§ acak
ĠYas asÄ±
ĠSoy lu
S C
Ġbelir ler
ĠAr if
Ġyol suzluk
or du
ĠC omp
ĠiliÅŁk ilerini
ĠÅŁik Ã¢yet
Ġzih in
l op
Ä±n Ã§
Ġs o
ĠgeÃ§ im
ĠOb ama
Ġpaz arÄ±
i es
ĠpaylaÅŁ Ä±mÄ±
ĠMer t
c Ã¼l
ĠD ip
ĠG lobal
Ġdiy abet
ĠpaylaÅŁ an
ĠbaÅŁk anlÄ±ÄŁÄ±
AS YON
ĠDeniz i
ĠForm u
YukarÄ± da
Ġz af
Ġmerkez de
ĠAs Ä±l
Ä±r sa
ĠY PG
Ġver miÅŁti
og rafik
ĠihtiyaÃ§ larÄ±na
Ġsenin le
Ġavantaj Ä±
ĠTal ep
ĠMahal le
K Ã¼r
Ġyapmak tan
ĠN a
n y
p en
Ġoda ya
ĠiÃ§ ini
Amer ika
ĠbÃ¼yÃ¼k lÃ¼ÄŁÃ¼
ĠdÃ¼zen lenmiÅŁ
cel ona
Ġyas aÄŁÄ±
ĠBur adaki
ĠAd li
Ġkaybet miÅŁ
D ik
larÄ±nÄ±z dan
ĠM ana
ĠEs ad
Ġtercih i
Ġ16 0
ĠAb dur
ĠHareket i
Ġay Ä±p
ĠÅŀ ev
ĠkarÅŁ Ä±nÄ±zda
Ġtop luluÄŁ
Ġdo larÄ±
Ġhat alar
tal ama
Ġeklen miÅŁtir
lÃ¢ k
Ġhayvan larÄ±
ĠkapÄ± larÄ±
Ġiz i
s asÄ±
v arÄ±
ler inizde
ĠK ale
Ġsu b
Ġede mey
ĠgeliÅŁtir erek
ĠkullanÄ±m Ä±nÄ±n
ĠN iÄŁde
ĠgÃ¶ster ecek
Ġ14 0
ĠKÃ¼t Ã¼phan
Ġdik iÅŁ
ĠtaÅŁÄ±ma cÄ±lÄ±ÄŁÄ±
I s
Ġd eki
ĠS TK
ev et
Ġyar al
Ä±cÄ± lar
Ġh Ã¼zÃ¼n
ĠsÄ±r aya
ĠkÄ±s alt
Ġkor ur
Ġtur larÄ±
ĠTop luluÄŁu
ĠDekor asyon
d yo
Ġk Ä±na
ĠT on
ers em
Ġbak Ä±p
Ġkut usu
Ġpir inÃ§
K Ã¼ltÃ¼r
s Ã¼nÃ¼z
Ä±n t
Ġat maya
Ġdav ada
ĠSon unda
ĠtartÄ±ÅŁ malar
ekil de
n Ã¢
Ġdiye b
9 6
Ġp eki
ĠM eksika
Ġbil diÄŁimiz
ĠÃ§ocuk larÄ±nÄ±
ĠiÅŁÃ§ inin
Ġheyecan la
ĠyansÄ± tan
ĠÄ°Ã§er ik
n n
Ġbulun abilir
Ġoda da
ĠÃĩ im
Ġproj eyi
Ġmu azzam
ĠsatÄ±ÅŁ larÄ±
fet tiÅŁ
k Ä±rÄ±m
ĠS om
ĠF it
ĠCey lan
ĠBir i
Ġgid in
ĠÅŁart tÄ±r
ĠgÃ¼c Ã¼nÃ¼n
ĠMev lÃ¼t
ĠMÃ¼ÅŁt er
ĠfÄ± st
Ġiktid arÄ±
Ġyer lerine
Ġgir meye
Ġoyn ar
Ġtep kiler
ĠeÄŁitim leri
Bir Ã§ok
ĠyaÅŁan Ä±yor
Ġmin net
Ġiktidar Ä±n
ĠÃ¶f k
Ġdin lenme
Ġdes tan
Fa cebook
r ent
ĠOl dukÃ§a
ĠVÃ¼c ut
Ãĩ E
Ġhav asÄ±
ĠGÃ¼n leri
ĠKol larÄ±
T B
m Ä±yoruz
maz sa
Ġinan Ä±yoruz
ĠMal zeme
ĠsÃ¶yley ebilirim
ĠKÄ±rÄ±k kale
T an
ĠyÄ±l lardan
ĠEr oÄŁlu
ĠÃ¼y eliÄŁi
ĠFik ret
kap Ä±
l esin
ĠN is
ĠEm ine
Ġzorunda yÄ±z
ĠfÄ±rsat larÄ±
Ġkoru maya
Ġiktid ara
ĠÃ§ Ä±tÄ±r
ĠulaÅŁ mÄ±ÅŁ
Ġisim lerin
Ġtalep lerini
Ġtedbir ler
b oy
ĠÃĩ iÄŁ
Ġkarar Ä±na
T ER
d alÄ±
ĠSah il
ĠYaÄŁ mur
ä ¸
Ġgetir meye
Ġmal um
Ġgelir se
Ġolab ildiÄŁ
Sev gili
Ġad min
ĠBir eysel
eti ÄŁi
Ġbayan larÄ±n
ĠkullanÄ± lamaz
Ġg o
Ġed erseniz
Ġtaraf Ä±n
ĠEr g
Ġdal Ä±nda
ĠOd alarÄ±
ĠkonuÅŁ masÄ±
om o
Ġpay daÅŁ
Ġs oÄŁu
Ä±m Ä±nÄ±
Ġgel meden
Ġist iÅŁ
Ġkur am
Ġdo main
ĠBay raÄŁÄ±
ĠÄ°c ra
Â ħ
ĠÃ¶zel leÅŁtir
ĠeÄŁitim ler
ĠulaÅŁ masÄ±
ĠS abancÄ±
ĠarkadaÅŁ larÄ±mÄ±z
Ġkaybet tiÄŁi
K uzey
n el
or ge
ti dar
Ġkoy ar
Ġteh di
k am
Ġterc Ã¼m
ĠsonuÃ§ lara
ĠSer isi
Ġgrub unun
has sa
D oÄŁu
u j
ĠM elek
ĠC eb
ĠÅŁirket lerinin
ĠelveriÅŁ li
Ġy ou
at h
ĠM uÅŁ
ĠÃĸz lem
Ġkonu ma
Ġ8 8
ĠtanÄ±m lanan
ĠdÄ±ÅŁarÄ± ya
-------- --------
ĠTed arik
Ã¢ tÄ±
Ġgetir dik
Ġyazar Ä±n
il asyon
eri a
ĠtaÅŁ eron
Ġhukuk u
ĠCem il
ĠSes li
ĠtaÅŁÄ± dÄ±ÄŁÄ±
Ġheyec anÄ±
ĠBÃ¶lg esel
ĠkarÅŁÄ±lÄ±ÄŁ Ä±nÄ±
ĠsÄ±kÄ±n tÄ±sÄ±
ĠsÃ¼p Ã¼r
Ġs ans
liÄŁ imiz
GÃ¼n ey
ĠÅŀehir ler
ĠPort ekiz
Dem ir
ef f
Ġetm ektir
Ġspor tif
Ġistiyor lar
Ġeylem i
em ber
let me
Ġpar fÃ¼m
uv al
Ġpolis in
Ġhesab Ä±nÄ±
c Ä±n
Ġesas lar
Ġetkinlik te
Ġk alarak
Ġbar Ä±n
Al tÄ±n
Ġalan Ä±nÄ±
ĠsÄ±kÄ±ntÄ± lÄ±
Ġalan larÄ±na
Ġsek ilde
ĠÅŁarkÄ± lar
Ġintik al
Ġvar ol
Ġter eddÃ¼t
Ġdurumda dÄ±r
Ġkadro muz
an Ä±za
Ġsor gulan
tar ma
ĠÅŁaÅŁÄ±r t
ĠMarmar is
b eÅŁ
ĠyaÅŁ larda
ĠAr asÄ±
abileceÄŁ imiz
Ġistis na
ev e
ĠO ran
Ġl Ã¢
Ġter im
Ġsun arak
Ġmerkez inin
Ġfilm inde
ĠKo operatif
Ġt aÃ§
yor um
ĠÃĸn Ã¼mÃ¼zdeki
Ġail elerin
Ġnot er
Ġbask Ä±sÄ±
Ġkomut an
S ize
m alÄ±k
Ãľ Y
Ġdin leme
Ġfaaliyet lerinin
Ġfirmalar a
ĠTeh lik
ĠdeyiÅŁ le
Ġdol gu
Ġstandart larÄ±
c y
y etler
Ø ª
Ġal malarÄ±
ilm emiÅŁ
Ġara ca
ĠTah ir
il et
ĠÄ° LE
Ġpek iÅŁtir
ĠÃ¼niversit esi
ĠÃĩalÄ±ÅŁ an
G A
T urk
j antin
Ġor da
Ġsal g
ĠÅŁart larÄ±na
ĠtÄ±k anÄ±klÄ±ÄŁÄ±
ĠSel ahattin
Ġtarz da
ĠgÃ¼neÅŁ in
in asyon
ĠgeÃ§ miÅŁtir
ĠV ah
ĠI stanbul
ĠAy ar
Ġform unu
abilm eleri
ĠS erkan
inde dir
ĠY alÄ±
ĠP YD
ĠyÃ¼k Ã¼
Ġcihaz Ä±n
ĠdaÄŁ Ä±n
ĠNÃ¼f us
Ġd r
Ä±l masÄ±yla
Ġyar Ä±da
ĠgÃ¶rÃ¼l mÃ¼ÅŁtÃ¼r
H AN
V C
g et
Ġz eki
ist lerin
Ġdin lemek
ĠseÃ§im inde
Ġsezon da
Ã½n Ã½n
Fran sa
ĠiÃ§ ki
Ġkar Ä±
tr af
ĠI N
tur e
Ġkem er
Ġtedbir leri
ie w
Ġver ilere
ĠdeÄŁer lerini
Ġmak ar
ĠgeliÅŁtir diÄŁi
s s
Ġt h
Ġol unan
ĠD emek
ĠN ar
ĠÃ§ocuk larÄ±na
ĠherÅŁ eyi
eyz aj
ĠÃ¶ÄŁr enin
Ġayar larÄ±
Ġkapasit eli
ĠAnd re
n en
Ġk ana
Ġyap masÄ±nÄ±
yon u
Ġaz a
Ġhedef liyor
ĠÃ§at lak
Ġusul Ã¼
BÃ¶l g
for d
ĠkullanÄ±l maya
Ġgem isi
Ġirtib at
Z aman
ĠbaÅŁ larÄ±nda
Ġhak lar
Ġmut luluÄŁu
Ġincel emek
Ġsohbet i
Ġyasak tÄ±r
ĠK O
ĠBaÅŁ langÄ±Ã§
ĠÃ¶n lenmesi
ĠiÅŁ g
Ġyol larla
Ġaz ami
ĠBahÃ§eli evler
r ut
Ġan lamaya
ĠOy n
Ġdokun uÅŁ
Ġters i
ĠÅŁekil lerde
ĠYÃĸN ETÄ°M
s ol
Ġc eket
Ġkap anÄ±ÅŁ
Ġgider mek
ĠsÃ¼reÃ§ leri
ĠmÃ¼cadel enin
ĠRad y
Ġtey it
ĠA san
it an
ĠD iler
ĠY erli
ada ÄŁ
Ġtut maya
Ġrenk te
ĠdÃ¼ÅŁÃ¼nc esi
ĠKÃ¶ pek
ĠbahÃ§ esinde
ĠBaÅŁkanlÄ±ÄŁ Ä±na
idd eti
v iv
Ġb adem
ĠyaÅŁ Ä±yorum
Ġhan i
ĠborÃ§ lu
Ġkullan dÄ±ÄŁÄ±nÄ±z
Ã® r
Ġred de
ĠDÃ¼ÅŁ Ã¼n
Ġilah i
D U
Ã§ am
ĠÃ¶ ksÃ¼r
Ġar Ä±tma
ĠiÅŁlem inin
ĠkÄ±z Ä±l
ĠyÃ¶netim ine
ĠBaÅŁkan vekili
ĠKÄ±brÄ±s lÄ±
ar aba
Ġvar mÄ±
ĠÃ¼rÃ¼n lere
ĠgeliÅŁim ini
Trabz on
Ġn iÃ§in
ĠR is
Ġdiz inin
Ġinternet e
Ġuygulama da
ĠKat ar
II I
ĠRoman ya
Ġc el
Ġist ekli
ĠsÃ¼r dÃ¼ÄŁÃ¼
Ġtak tik
Ġmark asÄ±nÄ±n
Ġkitab Ä±nÄ±
h il
ĠsÄ±k Ä±cÄ±
ĠÃ¼y elerin
ĠÅŁef kat
ĠaralÄ±k sÄ±z
Ġp ot
ĠP az
iyet in
Ġorta ma
ĠamaÃ§ layan
Ġkent te
ĠSat Ä±n
ste in
ĠÄ°lan Ä±
ĠDN A
C R
Ġs ter
ĠolduÄŁ unca
Ġarka dan
ĠÃĩukur ova
ĠY GS
Ġgec ede
Ġbiliyor sunuz
. ''
Ġed ine
Ġtak s
Ġetk ilerini
Ġzevk li
ĠgÃ¼r Ã¼ltÃ¼
ĠGÃľ VEN
Ġm Ã¢n
Ãľ T
Ġindir me
h oÅŁ
ĠÃ§alÄ±ÅŁ mÄ±ÅŁ
Ġkim ler
ĠÃ¼retim ini
ĠY edek
ĠTÃ¼ket ici
ĠP ower
Ġkullan Ä±c
ĠÅŁ erif
ĠAÅŁaÄŁÄ± da
D ers
ĠD ola
Ġmis afirler
ĠCerrah i
s Ä±nda
Ġbenz iyor
ĠÃ¶ner isi
Ä±nc aya
l s
Ġhedef ler
ĠhoÅŁ uma
k k
miÅŁ lerdir
ĠgerÃ§ ekte
ĠdeÄŁiÅŁtir ilmiÅŁtir
ĠUz ay
ĠTan r
Ġtap Ä±n
ĠbileÅŁ en
K ab
ĠoluÅŁ masÄ±
ĠpaylaÅŁtÄ± ÄŁÄ±
av at
Ġtem muz
Ġpuan la
ĠS et
Ġkur muÅŁ
Ġtop layan
Ġhav ale
Ġeh liyet
ĠS ky
ĠAn tal
Ġoyun unda
ĠbÃ¶lg eyi
Ġtamam lanmasÄ±
ĠBaÄŁ lÄ±
ĠFransÄ±z ca
S ig
Ġs ulan
st ur
Ġyap Ä±lacaÄŁÄ±nÄ±
ĠR eg
ĠÃ§alÄ±ÅŁ anÄ±
ĠsonuÃ§ larÄ±nÄ±n
Ġders in
hid rat
f lasyon
Ġyap acaÄŁ
Ġetm edi
ĠkonuÅŁ malar
Ġtas dik
ĠCen ter
Kon uÅŁ
d alar
ĠK Ã¼b
ĠSan ki
ĠAs lÄ±
ĠKap lama
Ġisten meyen
Ġincelen mesi
Ġsev erler
ĠAk sesuar
ĠÃ§Ä±kar Ä±ldÄ±
Ġdikkat le
ĠyaklaÅŁ Ä±mÄ±
ĠtÄ±k anÄ±k
ĠdÃ¼ÅŁÃ¼nc elerini
Ġkamer alÄ±
it leri
D en
iy se
ĠV el
Ġsorun unu
TÃ¼rk Ã§e
ĠMeh med
ĠaÃ§Ä± ÄŁÄ±
ĠDE AÅŀ
Ġak ar
Ġproj esinde
ĠbÄ±rak Ä±ldÄ±
ĠtakÄ±m Ä±nÄ±n
ĠsabÄ±r sÄ±z
eh an
ĠbÃ¶lÃ¼m den
meler inin
Ġlist esini
Ġsefer ber
Ġuygulamalar Ä±n
9 3
ĠH enÃ¼z
Ġolay lara
Ġanla dÄ±m
lÃ¼ÄŁ Ã¼n
ĠseÃ§enek ler
em eyiz
ti ca
Ġor g
k ele
Ġyap abilmek
ĠÃ§ek iliÅŁ
Ġsen esinde
Ġfiyat lÄ±
Ġvur an
iliÄŁ ine
ildiÄŁ iniz
ĠAda yÄ±
roÅŁ Ã¼r
Y en
Ġb ini
ĠOl du
ĠaralÄ±ÄŁ Ä±nda
L e
b atÄ±
ik ar
ĠP R
ĠgerÃ§ekleÅŁ mesi
ĠsÃ¶zleÅŁ meli
Ġhat asÄ±
Ġkes imi
Ġekip lerinin
un i
Ġ1 01
ĠUy du
ĠFel sef
Ġd Ã¶l
el iyim
Ġgit meye
ĠiÅŁ ver
Ġko ya
ĠEr iÅŁim
Ġolur um
Ġgelen ler
ĠfarklÄ± lÄ±klar
diÄŁ inden
ĠMak yaj
Ġot ele
gun luk
Ġservis leri
ary akÄ±t
ĠpiÅŁir in
ĠUygula malarÄ±
on da
ĠO luÅŁtur
Ġkayn at
ĠDEÄŀ ER
en ni
ĠS w
Ġgiy dir
di gi
ĠG ebze
ĠbÃ¶lg eleri
ĠbÃ¶lg esinin
Ġolan a
Ġbulun duÄŁunuz
Ġdel eg
ĠyÄ±p ran
ĠbÃ¼l ten
S p
Â §
ĠÃĩ Ä±nar
ĠgerÃ§ek lik
ĠHal buki
ĠmÃ¼ÅŁter ilerin
ĠAÄŁ aÃ§
ben im
c Ä±m
Ã¶ mer
Ġc umartesi
Ġazal ma
ĠMÃľ DÃľR
Ġt witter
Ġas lÄ±
ret tin
ĠGenel de
D EKÄ°
is as
ĠÃ§or ap
Ġkabil iyet
ĠKoÅŁ ul
v eti
ĠR AP
Ġmalzem elerin
Ġmiktar Ä±nÄ±
Ġfikir leri
I ST
av antaj
Ġazal tÄ±r
o lama
Kay seri
itab anÄ±
ĠANK ARA
es ses
ĠC lub
Ġsen de
ĠoluÅŁ acak
Ġetmek le
Ġgeliyor du
ĠGeÃ§ iÅŁ
A m
iy la
Ġyap ama
Ġmotor lu
ĠBaÅŁsav cÄ±lÄ±ÄŁÄ±
ada sÄ±
ĠtÃ¼m Ã¶r
ĠuÄŁr ayan
b esi
l iyesi
ad o
ĠsaÄŁ lÄ±ÄŁÄ±na
ĠdÄ±ÅŁ a
ĠtasarÄ±m lar
Ġen g
ĠKilis esi
Ġh om
Ġin kar
ĠbaÅŁar an
ĠkiÅŁiler den
ĠAl Ä±n
Ġkim ya
Ġ9 3
ĠÃ¶ÄŁ Ã¼n
Ġharit asÄ±
Ġolas Ä±lÄ±ÄŁÄ±
Ġkul Ã¼bÃ¼
ĠÅŁey lere
Ġokul larÄ±n
ĠTap u
Ġbel gelen
Ġoyun unu
for masyon
Ġrek ab
Al t
Ã¼nÃ¼z de
Ġsefer inde
ĠduruÅŁ u
ĠBoy ut
ĠKem er
ĠY emen
Ġtak lit
ĠkullanÄ±cÄ± larÄ±na
Ġzorun luluk
ĠÅŁif a
ĠKoordin atÃ¶rÃ¼
Ġh ibe
ul i
Ä° d
Ġkontrol lÃ¼
Ġkaynak lardan
LÃľ ÄŀÃľ
Ġniyet li
ab le
Ġver ilerek
Ġhayat larÄ±nÄ±
Ġtekrar dan
ĠkarÅŁÄ±la yacak
ĠkiÅŁiler de
ĠBor sa
Ġk iz
Ġd Ã¶
ĠN em
Ġilgilen en
Ġimzalan an
el ekt
Ġan tibiyotik
ĠAt illa
ĠiP ad
Ġbul maya
Ġyarat tÄ±
ĠGÃ¶z tepe
ĠBayan lar
Ġkar ayolu
ĠgerÃ§ eÄŁe
Ġ19 50
Ġmut ab
Ġuygu lamalÄ±
A lan
in ek
Ġkal siyum
Ġbas arak
ĠSÃ¶z ler
ĠbaÅŁlan gÄ±cÄ±
Ġlen s
ãģĤãģĤãģĤãģĤãģĤãģĤãģĤãģĤãģĤãģĤãģĤãģĤãģĤãģĤãģĤãģĤ ãģĤãģĤãģĤãģĤãģĤãģĤãģĤãģĤãģĤãģĤãģĤãģĤãģĤãģĤãģĤãģĤ
ĠDoÄŁ r
ĠyetiÅŁ en
ĠOrdu su
ĠLog o
N eden
Ġkullan dÄ±klarÄ±
caÄŁ Ä±mÄ±z
Ġsab aha
Ġkart larÄ±
ĠDiv an
ĠmÃ¼t tefik
? ,
ÅŁt a
Ġ8 7
Ġanlam Ä±nÄ±
Ġbelirlen miÅŁtir
Diy arbakÄ±r
c ess
es an
ul us
ĠA it
af et
ĠyayÄ±n ladÄ±ÄŁÄ±
Ġiy isini
Ġdondur ma
ma maktadÄ±r
Ġr ez
Ġmadde de
ĠPolitik asÄ±
W indows
ĠE V
ĠgÃ¶r eceÄŁiz
Ġed ersiniz
ĠL it
ĠÃ§ek il
ĠSer tifik
ĠkÄ±y amet
Ġderec esi
Ġaley hi
ĠW i
ĠmÃ¼z isyen
Ġpart ilerin
ĠDers i
ĠSt ore
ĠfaktÃ¶r ler
GÃ¼nde m
lek si
ĠHav acÄ±lÄ±k
Ä°n ÅŁ
iv an
Ġkav r
Ġmodel ini
Ġkelim eleri
Ġseyir ci
ĠKaÅŁ Ä±kÃ§Ä±
lem esine
od y
ĠJ ames
ĠbÄ±rak mÄ±yor
Ġmas k
illi am
ĠmÃ¼n aseb
ist im
ĠarkadaÅŁ Ä±nÄ±n
esi h
Ġay na
Ġhava alan
Ġj ener
ĠÄ° Ã§i
igit Ã¼rk
Ġnas il
ĠMesel eler
b le
iz ler
ĠS izi
ut a
Ġan ahtarÄ±
ĠN ehri
Ġev lerine
ĠTak v
Ġ199 1
G M
ĠY asa
Ġbulun duÄŁumuz
ob el
ĠhazÄ±r lamÄ±ÅŁ
ĠHay dar
ĠbuluÅŁ ma
Ġh usu
Ä±y o
Ġetm esine
Ġdestek lemek
ĠdeÄŁerlendir ildi
Ġcevap larÄ±
ĠÅŁaÅŁÄ±r tÄ±cÄ±
S U
ĠT HY
Ġtaraf sÄ±z
Ġas il
Ġgetir miÅŁtir
ĠÃ§Ä±kar Ä±r
Ã¼le b
Ġesn ada
ĠTes pit
Ġp Ã¼sk
ĠÅŁ an
Ġor adaki
Ġbulun abilirsiniz
ĠdÃ¶n Ã¼ÅŁtÃ¼
Ġ15 00
ĠtaÅŁÄ±n masÄ±
Ñ Į
ĠT EB
Ġul tr
ĠsÃ¼rÃ¼c Ã¼sÃ¼
K or
ĠH P
ĠayÄ±r an
ĠdÃ¶n mesi
ĠÃĸz er
8 7
H ava
Ġiz lerken
azÄ± t
Ġann eler
200 3
Ġproblem ler
k iÅŁ
Ġ Ã¼ÅŁ
ĠU SD
ĠÅŁey dir
Ġhat larÄ±
Ġkut lu
ĠFilm in
ĠTrans fer
Ġviz esi
a ge
m ark
lem i
Ġgir miÅŁtir
Ġgereken ler
Ġtest leri
Ġbin alar
ĠÃ¶de mesi
ĠiÅŁlet melerin
ĠsÃ¶zcÃ¼ ÄŁ
ĠanlaÅŁ masÄ±
Ġkilo gram
Ġ aman
ĠN am
diler de
ĠYat ak
ĠkÄ±v am
ĠDoktor a
ĠEr dal
Ġitibar i
Ġsandal ye
C en
iler imiz
ĠkarÅŁ Ä±lÄ±yor
ĠadÄ±m larla
ĠDÃ¼zen leme
Ġob ez
V an
ĠS iv
Ġsun ulmasÄ±
Ġ8 9
Ġdosy asÄ±nÄ±
Ġkapas ite
Ãľn lÃ¼
b is
n al
ley ebilirsiniz
Ġbek lediÄŁi
Ġpan ik
Y ET
ers pektif
ĠU laÅŁÄ±m
ĠbÃ¶lg elere
Ġsorun larÄ±na
Ġrisk li
ĠEngel liler
w a
y alar
ĠZ am
ĠKÄ±r gÄ±z
Ġlider lik
ĠBit lis
ĠGÄ°R Ä°Åŀ
ĠgÃ¶r kem
cÄ± lara
ĠsÃ¼r Ã¼n
Ġkurul duÄŁu
tÄ±ÄŁ Ä±nÄ±zda
ĠÅŁun lardÄ±r
Ġy on
ĠB eb
ĠH aÅŁ
Ġsat mak
ĠMÃ¼ ft
Ġtamam Ä±nÄ±n
Ġcihaz larÄ±n
Ġduy dum
ĠEs er
ĠBur aya
Ġtal ih
Ġduygu lar
anÄ±z Ä±n
s Ä±nÄ±n
Ġver diÄŁim
Ġhas ret
Ġdil edi
ĠgeÃ§miÅŁ e
ĠFik ir
ĠtÃ¼n el
ĠG roup
sa at
ula ÅŁtÄ±r
ĠOn dan
Ġ24 0
Ġsebep ten
ĠkÄ±ÅŁ Ä±n
ÃľL T
p ol
Ġ {
Ġkap aÄŁÄ±
Ġalan larÄ±nÄ±n
Ã¼b nan
Ġgrup ta
ĠoÄŁ ul
Ġgide b
ĠHerk esin
N asÄ±l
Ġdil iyoruz
Ġmez hep
ĠmÃ¼cadel eyi
ĠDetay lÄ±
ĠTÃľRK Ä°YE
ab ildiÄŁi
dÄ±r Ä±cÄ±
Ġmet ni
Ġelem anÄ±
ĠHava alanÄ±
ĠSonr asÄ±
G erek
len meye
Ġbilg ilerine
Ġhav anÄ±n
ĠSar Ä±yer
Ġyor ul
P KK
r if
um dan
ec ilerin
eler ce
Ġtab l
abÄ± ta
ĠBay burt
Ġdok unun
h aber
iy es
ide o
ĠSan cak
A dÄ±
T ah
ĠkarÅŁ Ä±sÄ±ndaki
Ġtan Ä±yan
ĠMev lana
Ġdil ini
ed ilen
ĠgÃ¶rÃ¼n Ã¼ÅŁ
ĠYar gÄ±
ĠHav uz
ĠsaldÄ±rÄ± ya
Ġport akal
en Ã§
ir m
ĠD EV
ĠÃ§Ä±kar Ä±yor
ĠbÄ±rak Ä±lan
Ġdin sel
An ne
Pro j
ĠanlaÅŁ maya
ĠMaÄŁ az
Ì ĩ
Ġs ac
ĠeÅŁit lik
mÄ±z Ä±lÄ±
ĠmÃ¼j de
C A
c is
Ġy edik
am la
Ġkullan manÄ±z
Ġbek leme
Ġhav lu
ĠUy gur
s y
Ġkon tÃ¶r
ram v
ĠÃ¶r tÃ¼
ĠÃ¶ÄŁrenc iye
ĠOf isi
ĠKaynak lar
iy ana
Ġgel diler
eb elik
Ġay aÄŁ
ĠaÃ§ Ä±lÄ±yor
Ġko operatif
ĠDeÄŁ il
ĠkazandÄ±r an
Ġbir e
ĠM alat
ad is
ĠÃ§alÄ±ÅŁ Ä±yorlar
iÃ§ e
est ezi
ĠgÃ¼zel di
Ġm art
ĠYap Ä±lacak
ĠdediÄŁ im
Ġbir inden
ev r
ĠgÃ¶rÃ¼ÅŁ meleri
Ġisim lerinden
ĠhastalÄ±k larÄ±n
ĠiÅŁley iÅŁ
Tal ep
L EN
il ar
Ã¼l in
ĠÄ°z zet
ĠyÄ±k Ä±m
Ter Ã¶r
D il
ĠgÃ¶rev lerini
Ġkoy muÅŁ
ĠIn ternational
ĠkÄ±yafet leri
ĠG ibi
ĠgeliÅŁim ine
ĠMas ter
Es kiÅŁehir
ĠÅŀen ol
ĠL av
Ġyaz Ä±mda
Ġuzun luÄŁunda
ĠgÃ¶tÃ¼r dÃ¼
ĠacÄ± masÄ±z
ĠkÃ¶ÅŁ esinde
Ä°l Ã§
ĠfÄ±kr asÄ±
ĠÅŁirket inin
Ġtoplam Ä±
opar l
ĠY ÃľK
Äŀ Ä°
ĠFran k
Ġtoz u
Ġyorgun luk
D ar
d iz
ĠAn aliz
Ġgetir ilir
S ivas
l ekli
mas Ã½
ĠY anlÄ±ÅŁ
Ġkar Ä±sÄ±
Ġel lerinde
ĠkonuÅŁ maya
ĠTeÅŁkil at
S AV
Ġplan lÄ±
Ðµ r
Ġs ultan
Ġm ul
ĠS tu
ĠsÃ¼r Ã¼l
Ġbelir lediÄŁi
Ã¼s Ã¼nden
ĠgerÃ§ek leri
Ġiler leme
ĠSendik asÄ±
A ile
t atÃ¶r
ĠÃ¶nem e
err y
ĠbuluÅŁ an
Ġverilm esini
Ġdog ru
ĠÅŁ ak
ĠR em
Ġuygula masÄ±na
tÄ± lacak
Ġkal mÄ±yor
Ġkr ip
ĠseÃ§im e
ĠDÃ¶nÃ¼ÅŁ Ã¼m
os na
Ġot orit
Ġifad eler
ĠÄ°k ili
Ġgir meden
Ġyakal amak
ĠRob ert
k itap
Ã§Ä± larÄ±n
ĠKal em
ĠBey likdÃ¼zÃ¼
mey le
Ġar amÄ±zda
Ġkal Ä±b
Ġkur siy
tÄ±ÄŁ Ä±na
Ã¼lÃ¼ ÄŁÃ¼
Ġy Ã¼c
ĠS Ã¼m
ĠAn ahtar
lat mak
Ġam er
ĠÃ§alÄ±ÅŁan larÄ±nÄ±n
Ġkurab iye
Ġkula ÄŁ
Ġal arm
Ġhikay eleri
Ġdenetim i
Ġgezeg en
ĠÅŀÃ¼k rÃ¼
k az
al Ä±yÄ±z
Ġa ilen
omet rik
ĠyapÄ±m Ä±nda
AÅŁ k
ak il
Ġt Ã¢
ĠgiriÅŁim cilik
st at
Ġr utin
Ġder se
ĠiÅŁlem ci
ĠÃ¶mÃ¼r lÃ¼
Ġkuy ruk
Ù ĩ
Ġduy uyor
Ġotur du
Ġtas lak
ĠtecrÃ¼b esi
Ġfelsef e
Ġhediy eler
Sor u
k isel
Ġr ok
lendir mek
ĠoluÅŁtur du
Ġsahn ede
Ġtad Ä±na
Q L
t Ã½r
Ġd Ä±r
Ġmark alarÄ±n
OR UM
ĠgeleceÄŁ in
ĠEmek lilik
Ã Ĺ
Ġb Ã¼f
ĠÅŀ iÅŁ
Ġgid iyoruz
ĠYar Ä±ÅŁma
Ġamac Ä±na
ĠGazet eciler
ĠDÃ¼ÅŁ Ã¼k
we et
ĠSez on
Ġmuhat ap
Ġistin aden
ĠbaÅŁ layÄ±n
ilm eleri
Ġkur maya
asÄ± ya
edir gin
Ġsan tim
ĠalÄ±n dÄ±ÄŁÄ±nÄ±
Ġeden lerin
AS A
lenir ken
Top lum
Ġdilek Ã§e
K A
M obil
y ah
ĠsÃ¼r at
Ġbilg ilerinin
Ġilk Ã¶ÄŁretim
Ġder giler
Ġlev h
Ġs ilme
uÅŁtur ma
dik Ã§e
Ġerkek lere
O ÄŁ
Ġc anÄ±
ĠV ef
Ġbas ka
ĠsÄ±nÄ±r landÄ±r
ĠPolitik alar
ek le
ĠÃ¶ d
st yle
Ġtan r
Ġd uman
ĠG ELÄ°
Ġyar Ä±sÄ±nÄ±
Ġincelem elerde
ik ayet
Ġin iÅŁ
ĠF I
ĠÅŀ ener
ĠyÃ¼z Ã¼k
Ġhaber e
Ġpol isi
ĠhemÅŁ ir
Ġperiy odik
Ġtem yiz
ĠsaÄŁla mÄ±ÅŁ
amaz lar
ĠbaÅŁk asÄ±
Ġmensup larÄ±
ĠS osy
ĠR ahat
lam Ä±yorum
Ġ9 00
ĠkiÅŁiler le
ĠolabildiÄŁ ince
Ġk Ã¼s
emez siniz
ĠO HAL
Ġgec elik
ek Ã¶y
ĠD OÄŀ
ĠP or
ĠV ic
Ġgerek Ã§e
ĠZ engin
ES CO
ĠMut f
Ek onomi
Ġk ub
la maktadÄ±r
la masÄ±na
ĠÃ¶n Ã¼nden
ic iliÄŁi
ĠyerleÅŁ ik
Ġhissed iyorum
Ġlan et
Ġtrak tÃ¶r
S aÃ§
Ġk rom
ĠB ina
ĠÅŁ ut
Ġay gÄ±t
ĠAl ey
mektedir ler
ĠsaldÄ±r Ä±sÄ±
Ġbeklent ileri
ĠAbdÃ¼l ham
ĠgÃ¶nder me
ĠÃľy eleri
ĠK ep
ĠT Ã¶r
ĠoluÅŁ muÅŁ
AL ARI
Ġ17 0
Ġbal on
ĠedilmiÅŁ ti
Ġmay Ä±s
ĠDaÄŁÄ± tÄ±m
T icaret
v iz
as an
ĠM eg
unu cu
ĠÃ¼lk elerine
Ġbas Ä±na
ĠgÃ¶rev ler
Ġanlat Ä±lan
ĠhoÅŁ gÃ¶r
Ġmekan larÄ±
ĠMon taj
ĠetkileÅŁ im
G EB
H am
ĠeÅŁ im
Ġkalk Ä±p
Ġbirinc isi
saÄŁ lÄ±ÄŁÄ±
b eli
p on
Ġd alÄ±
ĠÄ° H
Ġr est
ih an
ĠAn ma
ĠAr Ã§elik
EN T
Ġpolitik alar
ĠhazÄ±rlan Ä±r
ĠGÃ¼r cistan
Ġsim g
ĠgÃ¼ndem de
ĠdonanÄ±m lÄ±
Ġc isim
erk es
ĠseÃ§ me
ĠdeÄŁer inin
ĠAk soy
Ġhast asÄ±
ĠyÃ¶net tiÄŁi
Ġverm iyor
Ġdok Ã¼man
ĠÃ¶den en
Ġmanz ara
al amak
Ġbul duk
Ġ8 6
ĠhoÅŁ lan
rol ik
Ġettir en
ĠmÃ¼sa ade
iÄŁ inde
Ġmil lÃ®
Ġ8 3
Ġ:) )
Ġide olojik
Ġbulacak sÄ±nÄ±z
S akarya
ĠT art
ĠL atin
ĠÄ°ÅŁ in
ĠbÃ¶lÃ¼m ler
c em
iz de
ĠA let
ob e
ĠgÃ¼zel likleri
Ġuygula dÄ±ÄŁÄ±
Ġrak ibi
ceÄŁ iz
E f
f un
ĠD UR
ĠdÃ¶n g
ons olos
ĠYÃ¼z de
Ġakl Ä±nÄ±za
ĠAnn em
ĠmÃ¼lt eci
Ãľ Åŀ
iliÄŁ inin
ĠAm balaj
iter atÃ¼r
Ġfi dan
r ep
ĠmÃ¼t ev
ĠKesin likle
9 4
iz za
ĠkÃ¼ltÃ¼r Ã¼nÃ¼
ĠyaygÄ±n laÅŁtÄ±r
ĠyaÅŁadÄ±ÄŁ Ä±nÄ±
S EL
ĠY AZ
Ġhay ret
elik li
Ġgit mesi
ĠoluÅŁ abilecek
sin ler
Ġedin mek
Ġkuzey inde
ĠAnal izi
P azar
ĠÃ¼Ã§ lÃ¼
ĠGÃ¼nde m
ic ilik
Ġev lerinde
Ġtak ma
Ġiz lemeye
ĠGÃ¼n dÃ¼z
Ġziyaret e
Ġsig ar
abil iyoruz
ĠpeÅŁ inden
Y ok
ĠP i
ĠgeÃ§ ersiz
Ġoyn amaya
Ġtelefon larÄ±
. ÂĶ
c esi
Ġs uyla
Ġmodel lerini
ĠY ILI
Ġver ebilecek
ĠiÅŁlet mec
ĠAb bas
ĠÃĩalÄ±ÅŁ malarÄ±
ĠÃ§Ä±k aracak
ĠHay atÄ±
Ġotel ler
Ġfiz y
ĠCoÅŁ kun
ĠR Ã¼zgar
Ġkork usu
ĠÄ±s Ä±nma
ĠÃ§ap lÄ±
ĠMac book
ĠOd alar
p ati
Ãĸn ce
c en
ĠgeÃ§ir miÅŁ
Ġverm edi
ĠgerÃ§ekleÅŁ ir
Ġkategor ide
ĠBanka cÄ±lÄ±k
ĠTAR Ä°H
j der
p et
ĠB artÄ±n
ĠD ini
ĠgÃ¶r Ã¼ÅŁtÃ¼
ĠiÃ§er iyor
ĠCem iyeti
S h
S ey
et tepe
Ġin di
ede cek
ĠBaÅŁ ta
ĠÃ¶ner ilir
Ġkoru masÄ±
isy enler
G ESÄ°
ĠtÃ¼m Ã¼ne
ĠÃ¼lk esinde
ĠÃ§ar ÅŁ
Ġav uk
ĠkarÅŁÄ±laÅŁ ma
ĠaydÄ±n lÄ±k
Ġrej imi
Ġdur du
ĠÃ¼Ã§ te
ĠkoÅŁ u
Ġner den
EM E
ĠDeÄŁ iÅŁtir
Ġprogram larÄ±na
ĠHar it
ES K
Ġistek leri
9 7
H Ã¼kÃ¼m
im arka
Ä° m
ĠÄ° li
ĠL ider
ĠgeÃ§ tikten
Ġdev ri
Ġbelir leyici
ĠAt Ã¶ly
Ġsak lÄ±dÄ±r
Ġtemel ini
oksi dan
il ince
ĠM uz
dÃ¼r Ã¼lebilir
liliÄŁ in
ĠLef koÅŁa
ĠNor veÃ§
Ġmevdu at
Ġm ant
ĠÃ§ alan
ĠÅŁ amp
Ġsu lar
liÄŁ indeki
Ġfaaliyet i
Ġm iyiz
ĠAn Ä±t
ĠMak edonya
T e
an sta
Åŀ anlÄ±urfa
Ġkullan Ä±ldÄ±
Ġtelefon da
ĠayrÄ± lÄ±k
Ġyans Ä±m
ĠB ro
ĠgÃ¼Ã§ ler
Ġtur k
Ġbenz eyen
ĠsÃ¶zleÅŁ menin
ĠKurul um
Ġsoy un
ÃĸÄŁr etmen
hats app
ĠcÃ¼z dan
Ġortala masÄ±
K ir
ĠbaÅŁ lanan
tad ir
ĠseÃ§ ip
ĠilÃ§ esindeki
ĠÃ§iz giler
ĠBaÅŁar Ä±lÄ±
Ġg azi
Ġbelirt ilmiÅŁtir
ĠgÃ¼Ã§ lerinin
ĠYÄ±l Ä±nda
ĠMerkez inde
ĠUlu daÄŁ
ĠÃĩat al
Ġzaman larÄ±n
Ġbah an
ĠaraÅŁtÄ±r masÄ±
Ġunut ma
d om
ĠC hat
ĠsÃ¼r t
ĠKÃ¶ tÃ¼
ĠSah ibi
Ġnazar an
K ara
Ġk li
ĠG etir
Ġr ent
ĠAr asÄ±nda
Ġfiyat larÄ±nÄ±n
ĠiÅŁÃ§ ilik
Ġhat alarÄ±
Ġotur uyor
ĠMan avgat
Ġ198 9
Ñ ĭ
ĠT ac
Ġf r
ĠsÄ±nÄ±r larÄ±nÄ±
Ġgelin lik
ĠDir ektÃ¶r
M I
a ce
ĠD ÃĸN
Ġsev erim
ĠÃ¼lk elerinin
Ġgec eler
ena ult
Ġmacer a
ĠkÄ±lav uzu
an oz
ot al
las Ä±n
ĠbiÃ§im inde
ĠEng lish
E dinilen
g Ã¢h
l uyorum
Ġa Ã¶f
Ġr us
ark adaÅŁ
Ġbak tÄ±
ĠAy Ä±
ĠeÄŁitim ine
Ġart tÄ±ÄŁÄ±
Ġann enin
al leri
Ġger eÃ§
Ġtop lamak
ĠeÅŁ inin
Ġb Ä±k
Ã¼l ya
Ġc er
ĠÃ§ek imi
ĠCih an
ĠRabb im
H izmet
af Ã¶r
ĠgÃ¶rev inden
ĠUy sal
Ġbilgiler inizi
Ġtoprak larÄ±
Ġgal er
Pro je
Ġotomobil in
d unun
z ar
ĠB Ä°LÄ°
ĠÃ§ it
ĠM Ä°T
ĠR od
ĠgÃ¶ster isi
Ġetm elisiniz
ĠkÃ¶y de
Ġbecer ileri
ĠsarÄ±m sak
ĠKole ji
Ġm iydi
ĠsaÄŁlamak tÄ±r
ĠSov yet
I rak
ĠG R
Ġort al
Ġmet ot
ĠDevlet in
ĠTe Ã¢lÃ¢
ĠAL LAH
Haber ler
Ġk uyu
Ã¢ ye
Ġkap Ä±sÄ±nÄ±
Ãľ cret
Ġpolis e
Ġsonuc una
Ġap ar
Top lantÄ±
ĠDis iplin
S c
l ist
Ġgit tiÄŁini
Ġyay Ä±na
Ġtelefon un
ĠsaldÄ±r Ä±da
Ġmus un
Kat egor
KÄ±s a
R ad
k um
ĠD izi
Ġay Ä±ndan
ĠyÃ¶n e
asyon larÄ±
Ġtah akk
Ġbon usu
ĠÃĩ erÃ§ev
Ġalt yazÄ±lÄ±
Ġid daa
Ġv eteriner
Ġkullan dÄ±m
Ġbah Ã§esi
ĠKal Ä±n
Ġma v
ĠdÃ¶nÃ¼ÅŁ Ã¼
ĠAL T
an ce
ĠÃ¶lÃ¼m Ã¼ne
Ġf eda
ĠH Ã¼c
os s
Ġiz olasyon
Ġkum ar
Ġate ÅŁte
n az
ĠyÄ±l baÅŁÄ±
Ä±mÄ±z daki
ep siyon
Ġdil le
ĠÃ¶rgÃ¼tÃ¼n Ã¼n
ĠAk su
Ġsaf h
ĠMilliyet Ã§i
ĠYou Tube
ada stro
Ġek leme
ĠÃ¼ret ilmektedir
Ġedeb iliyor
ĠYÃ¶net ici
d Ã¼ÅŁ
ĠkeÅŁ ke
ĠyÃ¶r esel
ĠmÃ¼h Ã¼r
M Ä°R
k adir
od yum
Ġsun i
Ġsit eyi
ag a
Ġvurgu layarak
Ġpil av
ĠdeÄŁerlendir mesi
ĠyaklaÅŁ an
ĠOn ay
Ġre el
ĠAÃ§Ä±k lama
emey eceÄŁi
App le
Ġbuzdola b
b log
ĠD or
Ġsanat Ã§Ä±sÄ±
Ġiddi asÄ±
ĠSor ularÄ±
ĠB us
ĠT Ã¶ren
Ġekonom isinin
ĠDers im
ĠnÃ¼fus un
ĠS ik
Ã¼m r
Ġin stagram
ĠÅŀ ti
ĠoluÅŁtur ulmuÅŁ
ĠMer ve
Ðµ Ð
ĠMacar istan
G er
N er
Ġo lamaya
la dÄ±ÄŁÄ±nÄ±z
Ġc ek
Ġbilin ci
Ġseviy esini
Ġal mayan
ĠalÄ±n tÄ±
Ġdil inde
Ġtamam lanmÄ±ÅŁ
ĠyakÄ±n Ä±nda
ĠaÃ§Ä±kla masÄ±nÄ±
Ġsey irler
Ġsebeb iyet
ĠKim se
amaya caÄŁÄ±
ĠkÃ¼t l
Ġseyir c
Ġsilin dir
K ent
ay iÅŁ
Ġn ehir
Ġprogram lama
ĠkÄ±sm Ä±ndan
Ġayak larÄ±
ĠUygula masÄ±
O Y
l ock
Ġt edirgin
eb ap
ĠÃ§Ä±k masÄ±na
Ġhedef e
Bil in
Ġfonksiyon u
Ġkons olos
n at
Ġk Ä±lÄ±Ã§
ĠÃ¶ teki
dÄ±ÄŁ Ä±nÄ±zÄ±
Ġsev giler
Ġer dir
Ġediyor sunuz
ĠamaÃ§ lar
ĠamaÃ§ larÄ±
ĠkÄ±v r
em iyoruz
ed isi
ĠS k
Ġel imden
Ġziyaret te
Ġtr ilyon
Ġyapacak larÄ±
Ġverim lilik
G Ã¶
ĠR ot
ĠgeliÅŁ mekte
Ġzengin lik
Ġtehlik esi
on al
ĠKitap larÄ±
ĠiÅŁlev i
ĠKav ram
a gu
h el
Ġyer inin
ĠMer yem
Ġgol Ã¼
Ġsad akat
Ġil lerde
ĠF ev
Ġsu larÄ±
ch ester
ras ya
IM I
Ġistif ade
S es
Ä±k larÄ±
ti ons
ĠAr Ä±
Ġ12 5
ĠSÃ¼r Ã¼cÃ¼
ĠKend isine
Ġkapital ist
s Ã¢
ilm emesi
ĠiÅŁlem in
Ġyarar Ä±na
ĠKÄ±r ÅŁehir
ĠBaÄŁ lantÄ±
Ġduygu larÄ±nÄ±
Ð¸ Ð
ir siniz
Ġr ahim
ĠaÃ§ Ä±lÄ±m
ĠyÃ¶ntem le
Ġfirmalar Ä±nÄ±n
Ġpas if
L ig
Ġay arÄ±
ĠL u
ĠL oto
Ġkap tÄ±r
Ġkr istal
Ġbit er
pr Ã¼
ĠÄ°t hal
Ġ Äł
Ãĩ anakkale
Ġsaat e
ĠgerÃ§ekleÅŁtir dik
ĠKoordin asyon
M ac
r ok
ĠÃ§Ä±k mÄ±ÅŁtÄ±
Ġilk esi
Ġisteyen lere
ĠBul varÄ±
Ġtor b
Ġb unda
ĠÃ§ok lu
Ġden gel
ĠkarÅŁÄ± layan
ĠyoÄŁ ur
ĠEmek li
ĠSorum luluk
Ġg raf
Ġanlam sÄ±z
Ġtah vil
Ġbelirlen ecek
t Ä±nÄ±z
ĠO v
Ġtar ayÄ±
ĠAn tren
Ġsev gisi
Ġpar asÄ±nÄ±
ĠhazÄ±r lama
Ġkazan acak
Ġend eks
ĠfÄ±k ra
alar daki
Ġc ahil
Ġder gisi
Ġah laki
Ġruh unu
ĠgÃ¶rdÃ¼ÄŁ Ã¼nÃ¼
ĠcoÄŁraf ya
GÃ¶n der
K amp
ĠB eh
ilm esinden
Ġbak Ä±ma
Ġuzak ta
ĠmÃ¼cadel eye
B S
K E
K art
ĠÃ¶dÃ¼l Ã¼nÃ¼
GÃ¼n lÃ¼k
ĠBr it
ĠyatÄ±r ma
Ġtraf iÄŁe
Ġm d
Ġar ar
lama yacak
Ġolabilir ler
ĠkullanÄ±cÄ± ya
Ġverir ler
ĠbÃ¶yl esine
t Ã¼m
Ĥ ¬
la dim
ĠyÃ¶netim indeki
ĠÄ°m alat
Ġt onu
Ġrapor da
ĠiÃ§eri de
la mÄ±ÅŁtÄ±r
ĠE UR
maya caÄŁÄ±
Ġbildir en
len mek
Ġsit elerinin
ĠÃ¼y eliÄŁ
ĠYÃ¶n etmen
Ġla ik
ĠÃ§arp tÄ±r
ĠdÃ¼zelt me
Ġbeklent isi
ĠBe dava
Ġfed akar
Ġk l
ĠÃĩ erkez
ĠAk tif
Ġsanat sal
ĠtÃ¼ket iciler
Ne w
liliÄŁ inin
Ä° h
ĠP ER
may arak
op a
ĠalÄ±n Ä±yor
Ġgrup larÄ±n
ĠTam ir
ĠDep rem
B in
ul um
uz zle
Ġgel i
Ã¼y dÃ¼
AN A
ĠyÃ¼r Ã¼me
ĠMev zu
ĠProt okol
N A
da d
Ġal abilecek
ĠO kan
Ġpara graf
Ġvah ÅŁi
ĠDan Ä±ÅŁma
a masÄ±
v iÅŁ
ay ip
may Ä±z
ĠdeÄŁer inde
ĠÃ¼retim e
Ġef ekt
Ġbahset mek
aÃ§ lÄ±
ĠhÃ¼c um
ĠtÃ¼rk Ã¼
Ġantik a
Ġacel e
V at
ĠLib ya
har d
ĠTes ti
Ġkonsan tr
lama dÄ±
ĠW hatsApp
ĠaraÃ§ larÄ±nÄ±n
ĠÃ¶ner gesi
ÄŁ dÄ±r
Ġsu ik
Ġsorun larÄ±nÄ±n
Ġtutar lÄ±
ĠgÃ¶rÃ¼nÃ¼m lÃ¼
Ġyur tiÃ§i
T D
Ã§ ocuk
Ġkat alog
ĠdÃ¼zen siz
ĠeÄŁitim de
Ġkadros una
F arklÄ±
d r
Ġn i
Ġ9 4
ĠW in
ekk Ã¼l
ĠÃ¼retim inin
ĠkÃ¶t Ã¼ye
M ay
Ġ4 50
Ġfi ili
ĠP TT
ĠkÄ±s Ä±r
Ġ9 2
ĠStratej ik
k m
Ġal acaktÄ±r
ecek lerini
ĠÅŀ iddet
ĠdÃ¼ÅŁÃ¼n Ã¼len
Ġtab el
Ġhaber leÅŁme
ladÄ± lar
Ġkaps ar
L a
¸ ı
Ġal abilmek
Ġor anÄ±n
Ġat let
Ġmik rop
Ġmontaj Ä±
M em
ĠiÃ§ mek
Ġen str
eÅŁ ehir
Ġetm emiz
ester ol
ĠkÄ±lÄ± f
S aat
Y abancÄ±
Ġsor ul
ĠÃ§Ä±kar maya
Ġyay Ä±nÄ±
Ġbirbir iyle
ĠÃ§arp tÄ±
Ġekib inin
ĠÄ°LÄ° ÅŀK
un k
ĠdÃ¼zen lemek
ub a
Ġtamam lamÄ±ÅŁ
ĠvÃ¼cut ta
Ġsunul muÅŁtur
Ġantren Ã¶r
Ġpres tij
Ġol alÄ±m
Ġp lat
Ã¼st e
ileceÄŁ ine
ĠAÅŁ Ä±rÄ±
v en
ĠN iÅŁ
Ġok uyor
ĠEr eÄŁli
ĠkoÅŁul larÄ±na
Ġgrub una
Ġbag aj
ĠAkÄ±n cÄ±
Ġs per
Ġad liy
ĠbÃ¼yÃ¼k tÃ¼r
Ġduy uyorum
ĠKap lan
ĠdÃ¼ÅŁÃ¼nÃ¼yor sanÄ±z
leriniz le
ĠKahv altÄ±
ĠyÃ¼kÃ¼mlÃ¼ dÃ¼r
Ġfes h
Ġibr az
ĠO ut
Ġtamam lamak
ĠBur asÄ±
Ġpuan larÄ±
oun d
ĠBes lenme
F atih
eÅŁ e
ĠR ic
leÅŁ ik
ĠterÃ¶r le
Ġbron z
Ã¼ d
lan ta
Ġsev dim
ĠalÄ±n masÄ±nÄ±
Ġsayf asÄ±na
Ġmo du
Ġ asÄ±
al in
ĠEs k
Ġtah rip
Ġkomp le
Ġcas us
ĠgÃ¼b re
S at
Ġduy mak
ĠgeliÅŁtir meye
ĠilÃ§ elerinde
Ġum ur
Ġarama ya
Ġdam ga
Ù ĳ
as s
ĠG ur
asyon lar
ĠEr gen
ĠYÃ¶n elik
Ġkaybet meden
Ġmahk Ã»m
Ġedit Ã¶r
P R
ĠB DP
Ġamac Ä±mÄ±z
g erÃ§
ĠÅŁ iddeti
Ġz Ä±p
Ġver eceÄŁim
ĠO S
Ġc aiz
ĠZ el
Ġoyn ayacak
Ġkalit esinde
Ġses ler
ĠKad ar
r Ä±n
Ġf ut
Ġn emli
Ġtar la
ĠgeÃ§ it
ĠHat ice
Ġbol ca
ĠsÃ¼n ger
Ġiktis adi
eg as
ĠbaÅŁvur an
ĠÃ¼niversit eye
ĠmaÄŁ ar
ĠiÃ§ecek ler
ĠHal uk
OR T
Ġdu alar
d Ã¶
ol ik
ĠF ord
Ġyer lerinden
ĠgeÃ§ mektedir
Ġat Ä±f
ĠdÃ¼ÅŁÃ¼n dÃ¼r
ĠÃ¼rÃ¼n lerde
Ġekonom inin
ĠÃ¶ner g
ĠiÅŁÃ§ ileri
Ġaley hissel
C K
D ur
E G
ĠEn ver
Ġkolay lÄ±ÄŁÄ±
ĠdeÄŁerlendir di
ĠbaÅŁk asÄ±na
Ġperformans Ä±nÄ±
ĠSÄ±r a
ĠgÃ¶rmez den
Ġal dÄ±klarÄ±nÄ±
Ġr ay
Ġhaz iran
Ġduy uyoruz
Ġtem enni
ĠÃ¼st esinden
ĠKay ak
Ġkut lama
ĠÃĸrg Ã¼t
t v
Ġn Ã¼s
ĠÃ§Ä±k masÄ±nÄ±
ĠV eysel
ĠÅŀ irin
amaz sÄ±nÄ±z
ĠyatÄ±r Ä±mÄ±
Ġpozisyon da
ĠyÄ±ÄŁ Ä±n
Ġberek et
Ä±r dÄ±
ĠB ut
Ġhizmet lerinden
ĠtaÅŁ larÄ±
Ġolmak tÄ±r
ĠmÃ¼dÃ¼r lÃ¼ÄŁÃ¼
ĠyaÅŁadÄ±k larÄ±nÄ±
Ġbil eÅŁik
enek on
ĠÃ§at Ä±sÄ±
ĠfÄ±rsat lar
Ã§ ik
ĠDav et
Ġsim gesi
in dir
ĠkÄ±r Ä±l
ĠfÄ±r tÄ±n
Ġolanak larÄ±
ĠG iy
Ġyol lardan
ĠdÃ¼ÅŁÃ¼n me
mam Ä±
Ġmark alarÄ±
ĠbÃ¼yÃ¼m esi
ĠhastalÄ±ÄŁ a
h um
ĠM S
Ġyap mÄ±yor
Ġ8 4
Ġhesap lama
Ġimz alÄ±
ĠFu at
F or
ĠA meliyat
ĠS ing
ĠÃ¶ÄŁren dik
ĠW al
Ġincel eyen
ĠkÃ¼ltÃ¼r Ã¼nÃ¼n
lis ans
Ġgiz emli
Ġgerektir diÄŁi
ĠSab it
b ilim
iÅŁ Ã¶rt
Ã¢ z
ĠgÃ¶ster ge
Ġtat ile
Ġotel in
Ġib ad
ĠkullanÄ±lab ilecek
K Ã¶y
am dan
Ġilk eleri
ĠkÄ±l mak
Ġl Ã¼t
Ġsit emize
Ġ9 7
Ġreh beri
Ġsayg Ä±lÄ±
ed u
am Ä±yoruz
Ġyar dim
Ġhar ici
oloj inin
OS GEB
Ġhoc alar
Ġmezun iyet
at ya
Ġgerek ebilir
maya caÄŁÄ±nÄ±
Ġyak alama
Ãĩ Ä°
Ġbit tikten
Ġcin sinden
Ġsin dirim
Ġyeter lilik
ĠArda han
ir lik
ĠK uv
Ġde z
ic le
ĠGen eral
ĠhazÄ±r layan
ĠdoÄŁru dur
Ġpart isinin
ĠseÃ§enek lerini
ĠDanÄ±ÅŁ tay
ma ma
ĠÄ° kin
Ġc et
ĠL am
Ġkan ama
ĠetmiÅŁ lerdir
ĠDuy gu
Ġuy umu
Ġ19 20
Ġolmaya caÄŁÄ±nÄ±
ĠhÃ¼cr eleri
m ud
Ġkat Ä±na
ley i
Ġder e
Ġciv arÄ±
Dem ok
Ġmolek Ã¼l
eh ra
Ġdiy enler
Ġmillet e
ĠÃ¼niversit eler
ĠPsik olojik
ĠKaÃ§ ak
larÄ±n ca
Ġhedef imiz
Ġcin si
GeÃ§ miÅŁ
ĠNil Ã¼fer
K ol
k Ä±z
Ġy Ä±rt
as la
Ġver diklerini
ĠiÅŁ bu
Ġdiz isinin
ĠHar p
Ġkeyif le
ĠÃ§oÄŁun luk
g Ã¼zel
ĠM edi
Ġyaz Ä±sÄ±nda
Ġbit iÅŁ
ĠHaf if
Ġkon f
ĠiÅŁ lerinde
Ġhizmet lerinde
Ġkazan Ä±yor
ĠIn ter
ĠÄ°t tifak
F in
ar sa
ĠÃ§ Ã¶l
ĠkadÄ±n la
ĠEs enler
ĠOs car
b asyon
dÄ± ma
ĠAn laÅŁ
Ġnokt alara
Ġkop yal
Ġhip er
Ġb and
ĠM id
ĠO zan
isi on
mek Ã¶y
Ġyaz dÄ±k
Ġkom edi
ĠErmen istan
Ġmaks ad
Ġgir erken
Ġsab un
ĠsaÄŁlan acak
ĠM ul
dÄ±r lar
Ġkal mayacak
ĠdoÄŁ anÄ±n
ĠÄ°n c
Ġ7 50
ĠKab lo
ĠÃĩaÄŁ daÅŁ
ĠpoÅŁ et
C on
Ġ ler
Ġ unu
ey l
Ġr Ã¼t
Ġc ildi
Ġas l
200 2
ĠD Ä°
Ġetk iliyor
Ġik isinin
Ġtutan ak
M AK
c ev
ĠK AL
Ġgir in
Ġhedef liyoruz
ĠSam i
ĠS AT
ab inde
ĠH AY
ĠBel irt
Ġmet n
Ġpay laÅŁtÄ±ÄŁ
ĠTaÅŁ Ä±n
Ġdekor asyonu
ĠsaÄŁla masÄ±
ĠYÃ¼z me
Ġsayg Ä±yla
l ut
ĠB U
ĠgÃ¶z altÄ±
ĠiÃ§er diÄŁi
ant el
ĠgeliÅŁtir en
ĠNaz Ä±m
en en
Ġd iger
Ġkil oda
ĠÅŁim diki
ĠToplum sal
ĠSorum lusu
Ġbir iydi
ĠT OKÄ°
Ġp ansiyon
Ġel lerinden
Ġetkilen en
Ġalg Ä±la
Ġreng ini
ĠÃ¶ncÃ¼lÃ¼ÄŁ Ã¼nde
Ġyap Ä±lÄ±ÅŁÄ±
Ġdev asa
ĠoluÅŁtur arak
ba a
ĠBar celona
ĠYaÅŁ lÄ±
F et
ĠY or
ĠÃ¶ÄŁrenciler imiz
ĠSili vri
ĠB ektaÅŁ
ĠM AK
Ġek lenir
Ġtut ku
Ġhas tal
Ġbur ayÄ±
IN I
ĠÃĸnc esi
Ġ02 12
Ġbot u
ĠT amamen
di g
Ġdevlet inin
Ġman ken
bah is
ĠÅŁampiyon u
Ġro manÄ±
ik asyon
ĠÃ¶ le
ĠdeÄŁerlendir mesinde
ĠtanÄ± dÄ±k
at aÅŁ
ĠÃ¼lk emizi
Ġbelirt ildiÄŁi
Ġasker ler
OL U
Ġd uvara
Ġan larÄ±
ĠÃĩ ub
Ġokul dan
Ġsokak larda
Ġsendik a
H S
ar dÄ±
Ġpar aya
Ġsonuc unu
Ġlok al
ĠulaÅŁtÄ± ÄŁÄ±
Ġil acÄ±
ic al
os h
ĠbÃ¶lÃ¼m e
ĠBr un
Ġz a
oc i
ĠsÄ±r asÄ±
Ġfir maya
Ġsal Ä±n
Ġoku duÄŁum
Ġnormal de
Ġsunu c
Ä°l Ã§e
ĠSa adet
M Ã¼slÃ¼m
Ġk uv
ĠB y
Ġil m
ÅŁt an
ĠO SB
Ãĩ aÄŁ
Ġnumar asÄ±nÄ±
ĠhastalÄ±k lara
Ġpas lanmaz
Ġ \
ĠÃ§ en
ĠiÅŁ lere
ĠÃĩ oban
Ġsoy ut
ly wood
b Ã¼yÃ¼k
ĠS i
oÄŁ ol
ĠAl Ä±nan
ĠKar iyer
ĠgÃ¼Ã§ lerin
mez ler
Ġid rak
ĠdavranÄ±ÅŁ lar
& #
D D
s ch
ĠB UR
Ġkur uma
Ġsonra da
ĠdÃ¼nya dan
ĠLin ux
ĠM aliyet
cÄ± oÄŁlu
ĠF ed
Ġgetir ilmiÅŁtir
Ġsistem lerinde
Ġfa izi
Ġsak so
ĠmÃ¼ÅŁ rik
ĠDub laj
Ġmuam el
E x
ĠS us
Ġn eyin
ĠbaÅŁ larÄ±na
Ġsor ulan
ĠulaÅŁ Ä±labilir
Ġziyaret inde
Ġistiyor du
Ã¾ Ã½
Ġetap ta
l uyuz
ĠP encere
Ġem ret
ĠÄ°nsan Ä±n
ĠÄ°ktis adi
. :
Ġm ola
larÄ± ma
Ġan droid
ĠÃ§alÄ±ÅŁ Ä±p
ĠaÃ§Ä±k lÄ±k
Ġyet eri
Ġkaz asÄ±nda
ĠuÃ§ aÄŁÄ±
ĠKap Ä±sÄ±
Ðµ n
Ġbilir siniz
Top lam
ĠHÄ±rist iyan
S ez
ĠM ES
ĠÅŁ ab
ĠartÄ±r Ä±r
ĠdaÄŁÄ±lÄ±m Ä±
ĠT ru
ĠG i
Ġkar tal
ĠF rag
Ġes en
liÄŁ imizi
ele ÅŁtir
Ġindir ebilirsiniz
ĠhÃ¼kÃ¼met inin
ĠbÃ¶yl elikle
ĠÃ¶l Ã¼me
ĠarkadaÅŁ larÄ±nÄ±n
elen en
ĠKurul unun
M EN
f in
Ã§ Ä±lÄ±ÄŁÄ±
ti ci
Siz in
ĠTeknoloj isi
V A
Ġma m
DÃ¼n yada
Ġpen altÄ±
Pol is
Ã§ ilere
Ġkon v
ĠU laÅŁ
Ġtab los
Ġkampany alarÄ±
Ġhac im
Ġrakam lar
ĠH AS
ĠF o
Ġma zer
lÃ¼ ler
Ġalan larÄ±nÄ±
Ġdo wn
end ek
Ġsefer de
ĠMey ve
ĠTun Ã§
ÃĩalÄ±ÅŁ ma
y id
Ġk lor
Ġo m
Ġbir iyim
ĠgÃ¶rÃ¼n Ã¼me
ĠÃ§alÄ±ÅŁmalar Ä±mÄ±z
Ġten is
PD Y
D O
r iz
Ã¼r et
ad iye
miÅŁ ler
Ġhav ayolu
Ġiade si
ĠN okt
ĠulaÅŁ Ä±r
ĠÄ°Ã§ indekiler
ĠHat Ä±r
adÄ±k tan
ĠhazÄ±rlÄ±k larÄ±nÄ±
ĠÃ§ub uk
ĠDV D
Ġp df
ĠG izli
Ġr ock
Ġilgili dir
Ġedilm eli
ĠdÃ¼zenlem eleri
Ġmekt ubu
ĠHAK K
ĠanlaÅŁ Ä±l
ĠAd il
Ġmens ubu
Ġfrag man
b Ã¼l
ĠF re
Ġbilg isine
ĠEr as
Ġbur c
Ġpazar Ä±nda
Ġtoprak larda
ĠÄ°r landa
n it
ĠH ur
len mesini
Ġkullan mÄ±ÅŁ
ĠÃ¶z erk
ĠtÃ¼m Ã¼yle
Ġkazan arak
ĠarkadaÅŁ Ä±mÄ±z
Ġkalit eyi
ĠAc aba
ĠAt let
ĠKay ser
Ġoluyor um
ĠFÄ±r Ä±n
ĠEg emen
ĠgÃ¶rÃ¼ntÃ¼l eme
ĠÃĩ ap
ĠÃ§Ä±k acaktÄ±r
eceÄŁ in
Ġolma mÄ±ÅŁ
Ġyarat Ä±yor
ĠseÃ§im de
ĠÃ¶zellik lerinden
bo ard
ĠTeÅŁekkÃ¼r ler
Ġcehenn em
D e
Ġyap acaÄŁÄ±mÄ±z
laÅŁ a
ĠkardeÅŁ lik
Ġcid d
ak s
at on
ĠH Ã¢
Ġbin asÄ±nda
Ġdik ey
Ġdevlet ler
Ġadres leri
GÃ¼n cel
Ġverim liliÄŁi
Ġdez avantaj
Ġp erspektif
ĠR ol
ĠR ep
Ġser isinin
Ġaz ap
Ġkontrol Ã¼nÃ¼
Ġsosyal ist
Ġiddi alarÄ±
Ġsunmak tayÄ±z
ĠHÄ±r vat
ĠiÅŁit me
y azar
Ġyaz Ä±m
Ġolmak ta
bo lan
Ġbeklen medik
ĠMÃ¼z iÄŁi
Ġinf az
Ġk Ä±p
ĠSan Ä±rÄ±m
Ġtah am
ĠFeder asyon
ï ¸ı
Ä± cÄ±sÄ±
Ġn de
ĠC eh
Ġpiyas asÄ±
Ġhaft alarda
eyt ing
ĠAvrup alÄ±
ĠB ec
Ġel lerini
Ġfiyat lara
Ġokul larÄ±
ĠÃ§iÃ§ eÄŁi
Ġko st
ĠYen ilik
ĠL Ã¼bnan
ĠÃĸz al
Ġem isyon
Ġoto masyon
ĠSeÃ§ me
ĠÅŁer it
ĠLim anÄ±
ĠsanÄ± ÄŁÄ±n
H ik
l Ã¼yor
t ing
eb ook
Ġkazan maya
Ġ9 1
ĠtakÄ±m lar
ĠsaÄŁlan mÄ±ÅŁ
ĠÃĩocuk larÄ±n
Ġaray abilirsiniz
uÅŁtuÄŁ unu
han esi
Ġsistem iyle
ĠBen zer
duÄŁ undan
Ġfirmalar dan
ĠÃ ®
ef endi
ĠsÃ¶y le
Ġmerkez lerinde
ĠgeÃ§ir ilmesi
Ġtur izmi
Ġkaf e
Ġcil din
ĠeriÅŁ imi
Ġolan Ä±n
Ġhaf Ä±za
ĠBas k
ebil iyoruz
Ġy Ä±r
ĠÃ¶z eti
ĠÃ¶z deÅŁ
Cev ap
B r
y ok
Ġko ÅŁt
ĠbÃ¶lg eden
ĠoluÅŁ umu
Tek nik
anÄ±z da
ĠMu ay
M ec
in ess
ek ir
la ÄŁÄ±
ĠK op
Ġak tarÄ±
ĠÃ¼rÃ¼n e
ĠOsman iye
Ġedeb ileceÄŁiniz
ht ml
ĠTam iri
ĠyalÄ± tÄ±mÄ±
Ġkor san
ĠMÃ¼ hendisi
Ġkaynak larÄ±nÄ±n
Ġyatak ta
Ġ Ã¼f
Ġb alÄ±ÄŁÄ±
Ġz alim
Ġbil diÄŁiniz
ĠiÅŁ lenmiÅŁ
ans Ä±n
Ġart maktadÄ±r
Ġuzun luk
ĠmÃ¼te akip
YukarÄ± daki
ad il
Ġhay kÄ±r
ĠgÃ¶z etim
DoÄŁ ru
Ġal etleri
acak larÄ±nÄ±
ĠÃ¶nc Ã¼lÃ¼k
Ġkir let
ĠmÃ¼m in
Bil gi
Ġaktiv ite
Ġeh li
Ġkontenj an
ĠKorun masÄ±
B eni
Ġkazan mÄ±ÅŁtÄ±r
Ġam ir
laÅŁtÄ±r Ä±lmÄ±ÅŁ
ĠoÄŁ lunun
liliÄŁ e
ĠDanÄ±ÅŁ manÄ±
Ġed ince
Ġay akkab
Ġyar atÄ±
Ġgir dik
ĠHalk la
Ġrestor asyon
BalÄ±k esir
S tr
ĠT oy
Ġsor uyor
Ġyas tÄ±k
ĠyayÄ±n lar
Ã¾ tir
Ġaktar mak
ĠKaz a
Ġar ap
ĠG ER
Ġas ist
Ġgetir mektedir
ĠW illiam
bi e
Ġdok usu
G ÃľN
Ġs kan
st Ã¼r
ĠdoÄŁ muÅŁ
ĠÃ¶ngÃ¶r Ã¼l
Ã¶mer t
Ġf ederasyon
ĠAy rÄ±
ĠYÄ±l Ä±n
Ġedil ebilecek
ĠkoÅŁul larÄ±nda
ĠOkul larÄ±
ĠEngel li
ed an
ad ok
Ġyap mÄ±ÅŁtÄ±
Ä±nÄ± fa
Ġyaz Ä±cÄ±
Ġot u
ĠHal ep
Ġdol gun
Ġkart on
ĠTun celi
ĠÅŁÃ¼k ran
ar dan
Ġve f
Ġh Ã¼rriyet
Ġplan lÄ±yor
Ġtelefon lar
Ġam p
ĠsonuÃ§ landÄ±r
Ġekib in
b or
on line
Ġz irve
Ġyan da
oz u
yan us
ĠsaÄŁlÄ±yor uz
Ġk lim
Ġd usun
Ġser gisi
ĠdeÄŁiÅŁ mektedir
Ġkapat ma
ĠYas in
Ġemperyal ist
ĠaÃ§Ä±k Ã§asÄ±
elen miÅŁ
Ġhikay esini
ĠaÄŁz Ä±
Ġ lu
Ġb eye
ek onomik
alar i
Ġyaz Ä±yorum
ĠVer ilen
Ġsel lem
ĠOyun lar
ĠsoruÅŁtur masÄ±
P at
ĠAr ke
Ġah ir
B AÅŀ
R abb
if or
ĠÂ ©
ĠKend ini
ĠsÃ¶ylen iyor
Ġkonu lardan
Ġgit me
Ġproj elere
Ġses le
larÄ±m dan
ĠKes kin
TM L
Ġiltih ap
m uÅŁtum
ĠsÄ±r alar
Ġbin alarÄ±n
Ġtab iki
ĠyarÄ±ÅŁ masÄ±
ĠÃ§iÃ§ek ler
ĠmÃ¼zak ere
ul h
ad ig
esi gn
Ġtar ikat
Ġark aya
Ġdoldur an
ĠÃ§oÄŁ alt
Ġunsur lar
as tr
ĠT Ä°C
Ä±z lÄ±
ic rosoft
ĠyÃ¶net meni
Ġkah verengi
Ġteknoloj iyi
ĠsaldÄ±rÄ± larÄ±
ĠKitap lar
S AL
ĠS icil
Ġyaz Ä±mÄ±z
Ġdur mak
Ġoy u
ĠW il
Ġgelir ler
Ġseviy esinin
Ġverildi ÄŁini
Ġmedy anÄ±n
d alarÄ±
ĠP rim
tÄ±r ma
ĠAk taÅŁ
K S
iy ade
st Ä±r
lama y
Ġfer t
ĠgÃ¼ndem ine
BÃ¼yÃ¼k ÅŁehir
O tel
m Ä±s
Ġay lar
Ġyer lerin
ĠÃ§alÄ±ÅŁ masÄ±na
Ã¢ v
ĠkÄ±s Ä±mda
ĠÃ¶de meleri
ĠAÃ§ Ä±lÄ±ÅŁ
ĠNok ia
ĠSempoz yumu
R ek
l ali
l iyim
Ġen ter
malar Ä±ndan
ĠW h
Ġam cÄ±ÄŁ
ĠalÄ±r lar
ĠEski den
Ġyolc uluÄŁu
Ġyakalan an
Ġmimar lÄ±k
ĠZeytin burnu
viv or
f ilm
Ġben t
ĠAr jantin
ĠBil ge
Ġayr Ä±lma
Ġiler liyor
la dÄ±ÄŁÄ±nÄ±
ec an
ĠÅŀ Ã¶yle
Ġyarat Ä±r
ĠgiriÅŁ inde
dÄ±ÄŁÄ±mÄ±z da
ĠgÃ¶rkem li
B er
an ne
Ġz ed
ley ebilir
ĠZ er
ĠPar Ã§
ĠS taj
Ġfin ale
T un
ĠS ÃľR
laÅŁ Ä±yor
ĠAl kol
alan masÄ±
ĠkÄ±z a
memiÅŁ ti
lerim le
ĠÃľzer inde
ĠCep h
ĠY iÄŁit
ra de
Ġerkek lerde
Ġoran Ä±na
ĠbaÅŁk alarÄ±na
ĠAlt un
ĠGÃ¶rev lisi
Ġcal is
D oÃ§
iyor sun
em on
Ġp arkÄ±
Ġar ta
ĠAl lÃ¢h
Ġkes ilir
ĠÅŁehir lerde
ĠBas it
ĠateÅŁ i
ĠNum arasÄ±
Ġkullan masÄ±
ĠV AR
Ġber taraf
ĠsayÄ± lar
Ġhafif Ã§e
s Ä±k
ĠS ÃĸZ
Ġn ey
Ġn isan
Ġkal masÄ±nÄ±
Ã¶l Ã§
Ġbek lerken
ĠgeliÅŁ melerin
ĠSar Ä±k
Ġsorunun un
ĠÅŀem siyesi
ĠF Ä±ndÄ±k
Ġkay Ä±n
ĠkÄ±z gÄ±n
ĠAraÅŁtÄ±r malarÄ±
Ġfil tre
ĠÃ§ocuk larÄ±mÄ±zÄ±n
k l
ĠB ang
ro me
Ã¢ met
ĠBiz de
ĠyetiÅŁtir mek
ĠsÃ¶ylen ebilir
S a
h ret
ok al
Ġay larÄ±
ĠR ock
Ġma aÅŁÄ±
ĠÃ¼cret in
Ġli gin
ĠfÄ±rsat ta
Ġbank asÄ±
ĠzayÄ±f lama
Ġihtimal le
K ad
K Ã¼rt
Ġkayb Ä±na
ĠForum u
l inde
ÄŁ ine
abilir sin
ĠOk tar
P U
S istem
Ø ¨
Ä° F
Ġz Ä±t
Ġyan aÅŁ
Ġetm eli
Ġ Ã¼vey
iÅŁ eler
Ġel inizde
ĠoluÅŁtur abilirsiniz
Ġbit miÅŁ
Ġnak li
ĠYukarÄ± da
Ġ Ã¼rk
ĠZ ih
Ġelekt ron
ĠEb ru
y azÄ±
la tÄ±r
Y aÄŁ
g usal
Ġp ed
ĠgerÃ§ekleÅŁtir ilmesi
Ġdin dar
ĠmÃ¼ÅŁter iye
ĠÃ§ab asÄ±
ĠtÃ¼rÃ¼ dÃ¼r
ĠpÃ¼rÃ¼z sÃ¼z
S Ã¼per
ma mÄ±ÅŁtÄ±r
ĠY ayÄ±m
ekt Ã¼el
est el
ĠYar Ä±n
ĠeÅŁy alarÄ±n
ĠtanÄ±t mak
ĠmÃ¼hendis liÄŁi
ĠÃĩÄ±k ar
ĠÄ±srar la
ĠmutluluÄŁ unu
ibil ity
ĠD enk
Ġet menizi
Ġbil emiyorum
ĠW est
Ã» met
e a
u de
it aban
Ġetkin liÄŁe
Ġtedav iye
ĠDer ne
ĠÅŁikayet Ã§i
Ġpik nik
Elekt rik
ĠAbdur rahman
t lar
Ġh ort
ekt im
ĠiÅŁ lenen
ĠdÃ¼ÅŁÃ¼n meye
mamÄ±z a
ĠSoya dÄ±
s unu
ĠÃ§alÄ±ÅŁmalar la
Ġef endim
ĠkÄ± dem
Ġdu ya
ĠdÃ¶v Ã¼ÅŁ
ĠBakanlÄ±ÄŁ Ä±ndan
ĠpÄ±r Ä±l
ah Ã¼r
Ġyap Ä±sÄ±nÄ±n
ĠÄ° hal
Ġif las
Ġolay la
ĠTeÅŁ vik
Ġesk isi
ĠbÃ¶yl esi
er cin
ma c
Ġal alÄ±m
ĠOr talama
Ġtuz ak
F utbol
Ġbu lamaz
ĠV illa
Ġtaraf lar
Ġisim lerini
tas iye
Ġnaz ik
B ebek
T arÄ±m
ĠOk uma
Ġyal Ä±n
ĠÃ¶ÄŁretmen lik
Ġesas larÄ±
ĠmaÄŁdur iyet
Ġbulab ileceÄŁiniz
ĠB eyin
Ġkurum lara
Ġhesap larÄ±
ĠkarÅŁÄ±laÅŁt Ä±ÄŁÄ±
P A
la masÄ±nÄ±
ĠD Ä±ÅŁÄ±
ol un
Ġist eÄŁe
ĠyÃ¼z leÅŁ
ĠsaÄŁla mÄ±ÅŁtÄ±r
Ġzinc iri
Y as
ĠT o
Ġgetir ilmiÅŁ
ĠkaldÄ±r ma
ĠRes taurant
ĠÃ§arp an
yÄ±l dÄ±z
Ġfas ul
P ay
ĠD ans
Ã¼ÅŁ vet
ĠYar Ä±m
Ġman uel
ĠÅŁah si
ĠinÅŁaat Ä±
Ġsakin leri
Ġsembol Ã¼
R amazan
iy eye
ĠA lem
Ġgelen e
ĠanlaÅŁ Ä±lmasÄ±
ĠpeÅŁ ine
k inden
Ġy aya
Ġas k
ĠkaÃ§ aÄŁÄ±
ĠdeÄŁiÅŁtir ilmesi
Ġyakal adÄ±
ĠBakanlÄ±ÄŁ Ä±na
Ġak Ä±mÄ±
ĠKon f
alat a
ĠKad ro
En erji
ĠhÄ±r s
ĠtanÄ±k lÄ±k
Ġc ocuk
Ġon ce
ĠBir den
AR ET
Ġsayf asÄ±ndan
Ġpiyas asÄ±nda
ĠKÃ¼ltÃ¼r Ã¼
Ġmasa Ã¼stÃ¼
ĠYay Ä±nÄ±
Ġtitiz likle
ĠKafkas ya
D AR
Ġkar ayol
lu lar
ĠsavaÅŁ ta
ĠyaÅŁat mak
ĠgÃ¶ÄŁ s
Ġolmay Ä±p
ĠboÅŁan ma
ĠPerforman s
el em
ĠS ORU
Ġyan larÄ±nda
ĠalÄ±n malÄ±dÄ±r
ĠBakanlÄ±ÄŁ Ä±nca
Ġarayan lar
ĠGe orge
ĠbasÄ± lÄ±
al Ä±nÄ±n
lan Ä±rken
han g
Ġsun ulur
Ul usal
ĠKUR ULU
Ġoyn arken
yacak sÄ±nÄ±z
Ġkas Ä±m
ĠjÃ¼r i
Ġol sam
ĠgÃ¶r ebilir
Ġyan Ä±mda
Ġder inden
Ġuygula masÄ±nÄ±n
Ġkaynak larÄ±n
ĠGÃ¼mÃ¼ÅŁ hane
Ġavuk atÄ±
ut er
Ġ3 000
ĠU f
ĠyaÅŁan mÄ±ÅŁ
ĠgÃ¼ney inde
Ġdedik odu
eÃ§h iz
ĠZ emin
ĠÅŁah sen
Ġmensup larÄ±nÄ±n
Ġyiyecek ler
ĠK uz
ĠbaÅŁ bak
ĠÃ¼z Ã¼nt
Ġyal var
ĠBun lara
Ġkategor i
ĠTurk ey
ĠÃ§ik olat
Ġkarbon hidrat
Ġkont eyn
1 50
is ta
ĠD osy
ĠP omp
ĠÃ¶l Ã¼r
ĠGÃ¼zel lik
ĠBÃ¼yÃ¼kel Ã§isi
( )
ama mÄ±
Ġtaraf larÄ±n
Ġoyun larÄ±nÄ±
ĠÅŁart larÄ±nÄ±
AY IN
ceÄŁ im
ĠgÄ±d alar
Ġh uz
mas Ä±ndaki
ĠV eteriner
Ġgid ilir
Ġhareket in
Ġkurum larÄ±nÄ±n
Ġmek anda
Ġcan avar
ĠMer cedes
ĠmÃ¼cadel esinde
ĠKullan Ä±lan
ĠTan er
Ġism iyle
Ġs n
Ġi Ã¾
Ġal Ä±k
Ġden emek
Ġdikkat leri
Ġerkek leri
ĠÅŁekl ini
Ġbedel ini
Ġunsur larÄ±
ĠiÄŁ n
Ġfav or
B R
el eyen
ĠP DF
ĠyaÅŁ adÄ±m
Ġsev diÄŁiniz
Ġaz ar
Ġbas ar
Ġdiz el
ĠbuluÅŁ acak
d Ã½r
ĠA str
ĠkarÅŁÄ± lama
Ġtem alÄ±
Ġplan lar
Ġkir eÃ§
Ġab dest
ĠAraÅŁtÄ±r malar
osk op
A raÃ§
ĠÃ§evr ili
Ġgazet eciler
Ġfaydalan mak
ĠdaÄŁÄ±t Ä±mÄ±
ĠPan el
ĠAil esi
Ġs Ã¼tÃ¼n
am med
Ġhizmet lerine
asyon el
Ġk ili
ay abilirsiniz
Ġol salar
ĠAk hisar
meler inde
Ġrapor larÄ±
ĠMev lÃ¢
ĠÃĸÄŁren im
ĠyeryÃ¼z Ã¼nde
1 000
ey de
ĠD osya
ĠÃĸz et
Ġdiz isinde
Ġoku ya
ÃĦ Å¸
ĠkonuÅŁma cÄ±
d eleri
ĠS lov
Ġmed res
ĠsÃ¼rdÃ¼r mektedir
luÄŁ undan
Ġcenaz esi
Ø ¯
Ġd alÄ±ÅŁ
bah Ã§e
Amer ikan
sc he
9 1
F r
ĠH AZ
Ġel lerine
ĠAra cÄ±
Ġyapabilir iz
ĠBat Ä±lÄ±
ĠkÃ¼t Ã¼phane
Tem el
ĠÃ§Ã¶zÃ¼nÃ¼r lÃ¼k
ĠiÃ§ ers
lan dÄ±ÄŁÄ±nda
ĠÃ¶z Ã¼
Ġdosy ayÄ±
ĠÅŁer bet
ĠOD TÃľ
ĠbaÅŁar Ä±yÄ±
ĠÃ¼niversit ede
ĠKam il
ĠFon ksiyon
ak tadÄ±r
ĠT ro
Ġbelir ledi
Ġter as
ĠhÃ¼kÃ¼m dar
Ġnes ne
ĠSem ih
U Åŀ
ÅŁ er
Ġsahip liÄŁinde
ĠÃ¼rÃ¼n lerden
Ġyararlan arak
Ġbed eni
Ġcinsel lik
Ġbulundur an
B unlar
ĠG rand
Ġmak ro
ĠRes imleri
ĠtaÅŁÄ±y Ä±cÄ±
ĠkazandÄ±r mak
Ġaltyap Ä±sÄ±
ĠRabb imiz
Ġdet erj
C am
ĠbaÅŁ layabilirsiniz
ĠTÃ¼rk leri
ĠkiÅŁ iyle
Ġsit eniz
emez ler
Ð° r
Ġfi ilen
Ġcemaat ler
Ġb inden
Ġp ud
ĠY outube
ĠV eya
AC AK
Ġbilinc inde
Ġkr ediler
ĠÃ¶zg Ã¼ven
pt om
hay Ä±r
Ġlak in
O f
ey ip
Ġin at
ĠalÄ±n maktadÄ±r
ðŁ ĺ
ĠbaÅŁlay Ä±nca
n d
ta da
Ġkal mÄ±ÅŁtÄ±
Ġtop ladÄ±
Ġham le
dÃ¼k lerini
ĠdÃ¼ÅŁÃ¼nc eleri
ĠFilm i
ĠGÃ¶k Ã§e
Ġ198 7
LAN I
DoÄŁ al
ĠT ren
Ġr i
ĠC Ã¼n
ĠV iyana
Ġev lerde
Ġfaz l
ĠÃľniversit emiz
Ġaday larÄ±nÄ±n
Ä±f Ä±r
Ġh ol
Ġn ev
ĠgÃ¼zel ce
ĠiÅŁlem lerinizi
ĠyÃ¼ksek lik
Ġilet iÅŁimi
ĠkapÄ± lar
ĠKÄ±r klareli
emey eceÄŁini
DoÄŁ um
Ġy eÅŁ
Ġz er
ĠbaÅŁ saÄŁlÄ±ÄŁÄ±
Ġtab losu
ĠhÃ¼kÃ¼m ler
Ġpazar da
Yer el
t l
Ġy Ä±
ĠB ig
ĠÃ§ok Ã§a
Ġkap tan
ĠgenÃ§ leri
ĠyÃ¶net en
ĠParla ment
ÅŁ ah
ĠL G
Ġis raf
ĠhazÄ±r lÄ±klarÄ±
Ġekonom iye
Ġbildir ilir
ĠtakÄ±m da
Ġuc unda
ĠGÃ¶k Ã§
Ġstat Ã¼
s enin
ĠT ech
Ġdo ya
ch er
Ġsayf alarÄ±
Ġedecek siniz
ĠdÃ¼zenlem esi
ĠSig ara
ĠkÃ¶p Ã¼k
ĠtÃ¼c car
iz le
st rÃ¼k
Ġolma masÄ±na
ĠÃ§ocuk larla
ĠbaÅŁar Ä±sÄ±nÄ±
ĠyÃ¼rÃ¼y en
Ġust asÄ±
S Ä±nav
t ap
ĠÃ¶n Ã¼
Ġyaz Ä±ÅŁ
Ġolab ilmesi
Ġhava dan
mey ecektir
Ar t
Ġdis ip
ĠyaÅŁamak tadÄ±r
ĠKarar nam
ĠhazÄ±rla dÄ±ÄŁÄ±mÄ±z
ĠDok uz
ĠTol ga
Ġmuhabir ine
ÃĸÄŁr etim
Ġkadros unda
ĠAntal yaspor
F Ä±r
y eÅŁil
Ġkend ilerinden
ĠÃ¶yk Ã¼sÃ¼
ĠT IR
Ã¶z Ã¼
Ġis min
Ġproj esini
Ġkurum larÄ±nda
Ġmek anlar
Ġs ulu
ĠG ran
ĠN ov
ĠyapÄ±l dÄ±ktan
Ġmilyon a
ĠBr Ã¼ksel
ĠGÃ¼r eÅŁ
d k
ĠÃĸ TV
ĠOr al
Ġhaber lerin
ĠateÅŁ e
ĠSonr aki
in di
ĠB az
ĠK alan
ĠdoÄŁ aya
Ġgen cin
Ġas lan
ĠÃ§ek ilmesi
ĠBaÅŁ kent
ĠGir ne
ĠGiz lilik
at tan
Ã¼n cÃ¼sÃ¼
lÄ± larÄ±n
anÄ± ma
ecek leri
ĠAn ket
ĠtartÄ±ÅŁ maya
Ġarma ÄŁan
ĠÃ¶yl esine
s ayÄ±
s eydi
Ġb aÄŁÄ±
Ġd ist
Ġh ekt
Ġyay Ä±nda
M en
c ili
t ah
Ġ eki
Ġp azartesi
ev k
ĠbaÅŁ Ä±ma
ĠR om
Ġgerek mez
ĠyapÄ±l mak
ĠtaÅŁ lar
ĠKon uk
ĠulaÅŁ ma
Tel efon
C AN
p g
ĠM Ä°L
Ġkam usal
caÄŁ Ä±ndan
ĠdeÄŁiÅŁtir en
ĠsaldÄ±rÄ± lar
ĠKol tuk
k om
Ä± cak
Ġol masÄ±yla
Ġkay da
ĠÃ¶ÄŁren meye
ĠAy kut
ĠdÃ¼zen lenir
ĠHak em
Ġboyut ta
ĠvasÄ± f
p u
Ġan Ä±sÄ±na
Ġken te
Ġat abilirsiniz
ĠEn te
Ġmal Ä±n
Ġerk eÄŁi
ĠÅŁah ane
Ġ* *
Ã¼ se
ir alama
Ġkur tu
Ġbak teri
Ġtah lil
ĠHal a
Ġcid diye
ĠÃĸÄŁren me
ĠMez un
Ġf al
Ġist asyonu
Ä±yor sa
Ġinsan lÄ±ÄŁa
ĠKur ucu
Ġmiktar Ä±nÄ±n
ĠsÃ¶zcÃ¼ ÄŁÃ¼
Ġver elim
Ġbur n
mayan lar
ĠKasÄ±m paÅŁa
Ġpan eli
ĠÃĸÄŁretmen liÄŁi
ĠyaÅŁadÄ±ÄŁ Ä±m
Ġiyil eÅŁme
Ä±l makta
aÄŁ aÃ§
Ġneden lerden
Ġsit emizi
mey eceÄŁini
Ġkadro ya
ĠÃ¼retic ileri
ĠHarek atÄ±
Ġumu du
Ġart tÄ±ÄŁÄ±nÄ±
Ġtez ahÃ¼r
Ġyitir di
ĠdÃ¶ÅŁ eme
ĠÃĩ amaÅŁÄ±r
Ġon da
Ġor gaz
Ġekran larÄ±nda
Ġazal Ä±r
land alÄ±
doÄŁ du
ĠhÃ¢l de
ĠdÃ¼ÅŁÃ¼ndÃ¼ÄŁ Ã¼m
tal i
Ġortak laÅŁa
ĠkardeÅŁ ler
V al
en im
len ip
Ġat Ä±lÄ±r
ĠDem et
Ġucuz a
Ġbeb eÄŁi
ĠgÃ¶rdÃ¼k leri
T AÅŀ
ĠbaÅŁ bakan
ĠC es
Ġel li
ĠdeÄŁer lerin
Ġhaber imizde
T BMM
Ġb roÅŁÃ¼r
Ġin ek
Ġpro fesÃ¶r
Ġkat arak
Ãĩ evre
yor du
ĠaraÅŁtÄ±rma cÄ±
Ġbesin ler
ĠMÃ¼ÅŁt eriler
T Ä°K
ok iralama
Ġbu tik
Ġel ime
ĠL Ã¼t
ĠhazÄ±r ladÄ±
Ġbelirt iler
ĠKut lu
Ġfav ori
S ultan
t ab
Ġt om
Ġbir iyle
ur i
ĠT FF
ĠF M
ram anÄ±
ĠVar lÄ±k
Ġbirik imi
Ġop tik
ĠgeliÅŁmeler e
Ä±m Ä±na
ĠT Ã¼n
ĠE fes
Ġev lerin
oz it
ĠÃ¶ner irim
ĠtaÅŁÄ± dÄ±
Ġizley erek
Ġkilometr elik
ĠrÃ¼zg Ã¢r
Ġol mal
cÄ± lÄ±ÄŁÄ±n
lem ektedir
Ã¢ de
ĠbÃ¼yÃ¼k el
ĠmÃ¼ esses
ĠteÅŁ h
Ġders eniz
Ġtav iz
ĠÃĸÄŁrenc ilerin
f o
Ġen tel
Ġbil diÄŁim
Ġben di
ĠÃ¶nc esinden
Ġbat Ä±r
ĠSek s
Ġyav r
ĠyÃ¶netmen liÄŁini
Ä±l masÄ±ndan
Ġhaft aya
Ġtrib Ã¼n
ĠÅŁ al
ĠP S
iyat Ä±
ĠT AK
ĠsÃ¼r enin
Ġsun mayÄ±
ide m
Ġsal t
ver iÅŁi
tek in
ĠUst asÄ±
B atÄ±
il eme
Ġt raj
ĠB re
ĠB eton
Ġn Ã¶r
Ġet men
ĠdoÄŁ duÄŁu
ĠkÄ±z larÄ±n
ĠkullanÄ±cÄ± larÄ±nÄ±n
ĠÃ¼niversit enin
land iya
Ġhab ersiz
ĠgÃ¼v eni
Ġkesi ci
K Ä±ÅŁ
ĠgÃ¶r erek
Ġkullan madan
ĠAn onim
Ġat Ä±lmasÄ±
Ġneden se
DeÄŁ iÅŁik
ĠsÃ¶ylemiÅŁ ti
Ġseg ment
Ġes rar
Ġyat aÄŁa
ĠSiz de
Ä°nsan lar
E LÄ°K
am Ä±ÅŁtÄ±r
Ġetm elidir
ĠsaÃ§ lÄ±
Ġetkili dir
ĠbaÅŁlar ken
ĠBayrak tar
ĠÄ°htiy aÃ§
Y P
Ġ ~
Ġo g
ey ecektir
ĠF OR
malar dan
ru c
Ġyak Ä±nÄ±n
Ġden iyor
Ġzor laÅŁtÄ±r
caÄŁ Ä±nÄ±n
Ġyazar lar
ĠKaz Ä±m
ĠyargÄ± lama
Ġistikrar lÄ±
Ġmaz lum
Deniz li
Ġzarf Ä±nda
ir di
ĠiÅŁ lerine
ĠÅŁu ur
ĠBay kal
ĠÅŁah siyet
ĠKÃ¼rt ler
Ġtraf iÄŁi
ĠiÃ§eriÄŁ inde
E mek
ĠT il
Ġak Ä±
Ġdik tatÃ¶r
Ġgid iyorum
ĠgeÃ§ir erek
Ġdin leyen
ĠSon y
ĠÃ¶t esi
On lar
Ġbozukluk larÄ±
M Ä°Åŀ
Ġh Ã¼s
Ġin ovasyon
ĠAl tan
Ġsu dan
ĠkÃ¶ fte
Ġhast aya
An asayfa
Ġsanat Ã§Ä±nÄ±n
Ġtep e
Ġgerekiyor sa
ĠkatkÄ± lar
adÄ±ÄŁ Ä±m
ĠFa iz
ebiliyor sunuz
Ġd um
sÃ¼z lÃ¼k
ĠMÃľDÃľR LÃľÄŀÃľ
Ġal acaÄŁÄ±z
lem eleri
ĠR am
ĠL CD
Ġyaz arken
ĠÃ¼r etir
Ġev inizde
Ġyol lara
Ġpar asal
Ġdiz in
ĠaltÄ±nda dÄ±r
Ġtav r
ĠmÃ¼ÅŁter ileri
ey ler
malar la
Ġev imde
ĠulaÅŁ arak
ĠbÄ±rak Ä±yor
ĠyÃ¼rÃ¼t mek
Ġkaf es
ĠkÄ±y Ä±sÄ±nda
Ġistis n
vis ibility
osman paÅŁa
V ali
ĠM um
Ġr amazan
ĠAl ternatif
ĠBak Ä±ÅŁ
Ġmek anÄ±
Ġab art
Ġtesis atÄ±
ahh it
ĠcÃ¼ml eler
it me
ab e
ĠH ost
aÃ§ a
Ġat Ã¶lye
Ġgetir in
laÅŁt Ä±m
ĠaÃ§Ä±kla dÄ±ÄŁÄ±
ĠÄ±s lah
ĠKil o
Ġtablo da
ĠSe dat
ĠB T
Ġde de
Ġar Ä±yorsanÄ±z
Ġver giler
iv a
ĠSan dal
Ġcan Ä±nÄ±
ĠSar aÃ§
ĠKÄ±s acasÄ±
Ġaf fet
ay ir
is te
Ġekip lerince
ĠbasÄ±n cÄ±
ĠAÄŁ Ä±z
Ġyel ken
M ark
Ġil mek
ti hat
Ġdev i
Ġmas asÄ±
ĠbaÅŁlan mÄ±ÅŁtÄ±r
ĠKans er
DEKÄ° LER
ĠÃ¼n itesi
Ġmah sus
ĠHastan e
ĠSa id
ĠFer hat
ĠH ABER
Ã¼m cek
Ġed ileceÄŁi
ĠyÄ±l an
ran Ä±ÅŁ
Ġter mal
ĠPro blem
Ġintik am
Ġs Ä±nÄ±fa
lar ini
di o
Ġver ebilmek
ĠÃĸ k
acak larÄ±
Ġiz lenen
Ġkazan masÄ±
ĠyÃ¶ntem iyle
Ġbank anÄ±n
rem it
Ġrakam larÄ±
Ġordus unun
ĠaskÄ± ya
m Ã½Ã¾
lÄ± m
Ġp e
Ġin en
mÄ±ÅŁ tÄ±k
uma ÅŁ
Ġtip ik
Ġyapar sanÄ±z
ĠBin asÄ±
Ġoyunc uluk
em edik
ĠÃ§ alar
Ġek si
ĠdÃ¼zen e
ĠaraÃ§ la
Ġokul lara
ĠÃ¶den ecek
Ġmaliyet leri
ĠPROGRAM I
Ġar adÄ±
ĠÃ§alÄ±ÅŁ tÄ±klarÄ±nÄ±
for ma
ĠmÃ¼ÅŁter ilerinin
ĠÅŁans Ä±nÄ±
ĠÃĸzgÃ¼r lÃ¼k
ĠDan imarka
iz asyonu
ik ip
Ġyap abiliyor
ĠF lash
ĠdÃ¼z eye
ĠilÃ§ esinin
Ġmillet inin
ĠÃ§evr esine
Ġyapar Ä±m
Ġkavram larÄ±
Ġkanun i
Ġfonksiyon el
ĠÅŁekil leri
ĠdÃ¶nem inden
ĠaynÄ± dÄ±r
ĠEv lilik
Ġilet ken
ĠHar un
ĠbÃ¼yÃ¼m eye
ĠÃ¶f ke
Ġ `
Ġsor usunu
Ġbenim sen
Ġcil de
lanma mÄ±ÅŁ
ĠKamp Ã¼sÃ¼
KiÅŁ isel
T eÅŁ
is iyim
Ġal acaÄŁ
ĠyÄ±l ki
ĠdÃ¶n mÃ¼ÅŁ
re am
ĠyapÄ±l malÄ±
Ġyarat ma
Ġkurs larÄ±
Ġalkol lÃ¼
ĠgÃ¶rÃ¼le cek
m Ã¼ÅŁt
ĠAK TS
Ġah lÃ¢k
ĠiÃ§erik leri
ĠyanÄ±t ladÄ±
Ġbecer ilerini
uluÄŁ unu
Res mi
ĠCumhurbaÅŁkan Ä±mÄ±z
C U
H ol
Ġa bar
Ġgelir leri
ĠOl mak
ANK ARA
ĠK ub
ĠZ ayÄ±f
ĠmÃ¼cadel esini
ĠÄ°k lim
ĠK OM
aÄŁ Ä±mÄ±z
Ġkar ikatÃ¼r
ĠsÃ¶z leriyle
ĠEk mek
Ġpark e
. ),
? âĢĻ
in s
al ma
uy un
Ġkat Ä±lmÄ±ÅŁ
ĠtÃ¼r Ã¼ne
Ġkes ilen
Ġeser in
Ġokuy arak
Ġ198 8
ĠKapsam Ä±nda
Herk es
Ġol malarÄ±nÄ±
ul muÅŁtur
ĠS Ã¶n
ĠgÃ¶ster ilir
Ġic at
ĠÃľst Ã¼n
ĠgÃ¶rm edim
ĠkÄ±yafet ler
Fir mamÄ±z
Ġy outube
lar lar
ĠAk Ä±l
otos hop
iti on
ĠkulÃ¼b Ã¼n
c alÄ±
p il
Ġbank aya
Ġpsik olog
ĠEvren sel
ĠT S
Ġsaat lerce
Ġfilm ini
ĠEx press
ĠBÃ¼r osu
ĠOK U
ĠiÅŁken c
H Ã¼rriyet
Ġyap Ä±cÄ±
ĠE ce
yon un
ac Ä±nÄ±n
ĠhÄ±z Ä±nÄ±
ma malÄ±dÄ±r
Ġbar Ä±ÅŁÄ±
S arÄ±
bir lik
Ġ/ /
ĠbaÅŁvur usunda
ĠgeÃ§miÅŁ ten
k ey
ĠgeÃ§ iÅŁi
ĠbaÅŁla dÄ±ÄŁÄ±nda
Ġtas avvuf
biy en
ĠÃ§eyr eÄŁinde
M urat
ĠH en
ĠV izyon
Ġister ler
Ġsem poz
ĠOyun cak
Ġyans Ä±yan
Ġtoplant Ä±sÄ±na
Ġkriz in
Ġdeng esiz
ĠyÄ±ldÃ¶n Ã¼mÃ¼
ĠMÃ¼k emmel
g Ã¼ven
Ġkap Ä±da
ĠmaÃ§ Ä±nÄ±n
ĠÃĩÄ±k Ä±ÅŁ
ĠUN ESCO
ĠgÃ¶tÃ¼r Ã¼r
Ġbayram Ä±
ĠaÄŁz Ä±ndan
Ġalak asÄ±
ph p
Ġmetr elik
Ġph p
iy eri
ĠH uzur
oÄŁ a
dur ma
Ġmerkez inden
Ġkil ise
Ġetkil eyecek
Ġasker leri
ĠNef es
k anlÄ±
Ġy iye
ĠyÃ¼z Ã¼nde
Ġolay dan
Ã» d
ĠkÃ¶y Ã¼n
ĠhatÄ±r a
abilecek siniz
ĠHem ÅŁir
ĠbaÄŁlam Ä±nda
ĠÃ¶rgÃ¼tÃ¼n e
g or
ĠS SK
Ġdur madan
Ġhal indeki
Ġkaz ada
Ã¼yor du
ĠNur ettin
ĠKÄ±s aca
Ġdemir yolu
doÄŁ ru
ĠKUR UM
ĠiÃ§ sel
Ġen stit
Ġtop raÄŁÄ±
Ġbelir leme
Ġtut muÅŁ
Ġmerkez lerinden
Ġeser lerin
ĠYer leÅŁ
ĠK ing
Ġel imde
ĠtaÅŁÄ± yacak
av e
ĠÃ¼stÃ¼n lÃ¼k
ĠÅŁi iri
ramv ay
G EN
ĠK AD
Ġar alÄ±ÄŁÄ±
ĠparÃ§ acÄ±k
Ġaday lÄ±ÄŁÄ±
ĠÅŁart lara
Ġsoy kÄ±rÄ±m
ekil iÅŁ
ĠPRO J
ĠBuz dola
G elen
K il
Ġd aki
at Ä±nÄ±
ekt eyim
ĠsÃ¼r eler
ĠsektÃ¶r Ã¼ndeki
Ġhesap lanÄ±r
ĠHak im
Ġkapat mak
Ġmuht elif
c ed
Ġs Ã¼l
maz on
ĠuÄŁr amÄ±ÅŁ
ĠVÃ¼c ud
ĠÃ§Ä±k tÄ±m
iv i
Ġinan cÄ±
ĠseÃ§im lere
Ġrapor unda
Ã¢n Ã®
Ġbedel inin
Ã¼ley ici
ĠCeza evi
CumhurbaÅŁk anlÄ±ÄŁÄ±
ĠDoÄŁal gaz
AR K
ĠdeÄŁerlendir ilir
Ġ198 4
kin lik
ĠdÃ¶nem ini
Ġmut luyum
ant Ä±sÄ±
ĠSan al
ĠOl ur
Ġizin siz
ma ÄŁÄ±
ĠS ex
ok u
tik lerini
ĠdÃ¼ÅŁÃ¼n Ã¼p
van ya
ĠanlaÅŁ Ä±lan
ĠÃ¶ner ilen
Ġip ek
Ġburs ada
Ġmateryal ler
Ġard Ä±nda
ĠT u
Ġl ed
Ġuz laÅŁ
Bir inci
Ġvur g
gar enk
Ad alet
ĠKer em
ĠFabrik asÄ±
oz of
Ġam c
liliÄŁ ine
ris ti
ĠM Ã¼m
st ar
ĠN OT
Ġsaat ten
tiÄŁ ine
ĠdeÄŁiÅŁik liÄŁe
Ä°n giliz
Ġbes lenen
ĠÃ¶ldÃ¼r Ã¼len
ĠaraÅŁtÄ±rma da
ĠbuluÅŁ uyor
ĠÃĩift Ã§i
H emen
Ã Ń
ĠT K
Ã¶r neÄŁin
ĠAy et
ĠgÃ¶nder erek
ĠyakÄ±n larÄ±na
M on
O nun
Ġf ah
Ġsan iyede
Ġman yetik
Ġindir imi
ĠÃ¼retim ine
ĠAd resi
Ġst abil
ulacak tÄ±r
ĠsÄ±y r
Erz urum
ay nÄ±
at ar
Ä±m lar
ti han
Ġel imizde
sel en
ĠÃ¶ÄŁren en
alan dÄ±
Ġkor e
ĠAv rasya
diÄŁ imi
ĠbÃ¶lÃ¼m Ã¼n
Ġzar ara
Ġdiyor sanÄ±z
ĠÅŁah sÄ±n
Ġettir mek
ĠdÃ¼zenlen miÅŁtir
ĠÅŁub esi
Tab ii
E b
K AR
b es
ĠÄ° ler
ĠP oÅŁ
ist er
Ġbay i
ĠHat tÄ±
Ġanti oksidan
t t
ev leri
ĠH ic
Ġvar Ä±ÅŁ
Ġu laÅŁtÄ±k
Ġl iteratÃ¼r
Ġgetir mesi
ĠÃ¶l dÃ¼ÄŁÃ¼
Ġdep osu
Ġkaf asÄ±nÄ±
ĠuÄŁraÅŁ an
EO G
ĠBo stan
Ġzann ed
Ġmutab akat
m iyoruz
Ġt ik
ĠD C
ĠÅŁ aÅŁ
ĠgeÃ§ tim
ĠÃ§Ä±k Ä±nca
ĠÃ¼z gÃ¼n
Ġgerek ecek
ĠdeÄŁerlendir meye
Ġavantaj larÄ±
ord s
Ġmiz ah
Ġs alÄ±
al li
is s
ĠK Ä±l
Ġf Ä±s
Ġyar amaz
Ħ ¢
ĠM oÄŁol
Ġher gÃ¼n
ĠÃ¶lÃ§ ek
Ġbor s
Ġann emin
ĠNot alarÄ±
ĠKategor iler
Ġdamg asÄ±nÄ±
Ġar at
Ġak sak
ĠgÃ¶ster in
Ġsit elerine
Ãĩ ift
Ãĩ ocuÄŁ
ĠBab asÄ±
ĠMÃ¼dÃ¼rlÃ¼ÄŁ Ã¼nÃ¼n
Ġyur d
Ġsekret er
m ese
ĠS aman
Ã¼l Ã¼p
imiz dir
Ġak aryakÄ±t
ĠdoÄŁ usunda
ĠKar am
ĠdÃ¼ny asÄ±nÄ±
ĠÃ¼retim in
ĠiÅŁlet menin
ĠKr alÄ±
ĠÅŁiir ler
Ġatan dÄ±
Ġfutbolcu lar
Ġgecik tir
ĠÃĸÄŀR EN
? '
D ep
d Ã½
ilm iyor
ĠC O
ĠÃ§Ä±k tÄ±ÄŁÄ±nda
Ã½ s
ĠHal en
? ..
ĠD igitÃ¼rk
ĠY AT
Ġbin ada
Ġdil eÄŁiyle
Ġart masÄ±na
ĠmaÄŁ lub
orn ova
ĠtÃ¶ren de
ĠKah ve
Ġdeng esini
ĠPiyas a
Ġtakib en
G ar
ĠyaÅŁ larÄ±nda
ĠKon yaspor
Ġmak sat
ĠEs ra
ĠÄ°z leme
ĠTÄ±p kÄ±
Ġlav abo
r ic
w eb
Ġg u
ul up
Ġsun umu
ent s
Ġengel leyen
ĠdeÄŁiÅŁim e
Ġekipman larÄ±
I CI
Ġf are
Ġn ic
Ġprogram larÄ±nÄ±n
ĠBÃ¼yÃ¼kel Ã§iliÄŁi
ey ken
id im
Ġkim liÄŁini
is iyat
ĠM im
du y
os istem
ĠeÅŁ deÄŁer
ĠiliÅŁk iyi
Ġhafif let
ĠÄ°ktis at
Ġkrip to
t am
Ġdil in
ev her
Ġbu da
Ġkarar la
Ġedilm eye
ĠTÃ¼r Ã¼
ĠTim es
Z eytin
Ġsen et
ĠyaÅŁan acak
ĠfotoÄŁraf larÄ±nÄ±
anlÄ±ÄŁ Ä±na
ĠyÃ¼rÃ¼t me
ĠMahall esinde
Ġdiplo matik
ĠC e
Ġist eyecek
Ġtamam layarak
ĠDers leri
ĠÅŁub at
** *
Ġmuk av
Bay ram
ak e
it Ã¶r
ĠgeÃ§ir meye
ĠgÃ¶nder ilmesi
ĠyÃ¶netim ini
Ġtermin al
Ġt iÅŁÃ¶rt
de p
eh li
Ãľ S
Ġark asÄ±ndaki
ĠÃ¶l mÃ¼ÅŁ
ĠMÃ¼ f
Ġman tÄ±ÄŁÄ±
Ġfaaliyet te
20 01
Ġyenil g
ĠALI CI
c tr
an dan
Ġd omuz
ĠH isar
iyet ine
ĠyÃ¼z y
Ġmuh aseb
Ġmev z
ĠÃ§alÄ±ÅŁan larÄ±na
ĠÃ¶den ek
YaÅŁ am
SeÃ§ im
g Ä±m
Ġd amak
Åŀ Ã¼ph
ĠÃ¶lÃ§ Ã¼t
ĠanlaÅŁ Ä±lmaktadÄ±r
abil ecektir
Ġol malÄ±sÄ±nÄ±z
Ã¼z yon
ĠÃĸ lÃ¼
Ġyar dÄ±ma
Ġhayat Ä±mda
ĠiliÅŁk ilendir
ĠÃ§iz di
ĠMart in
Ġham uru
ĠbaÄŁlantÄ± larÄ±
ĠTah min
Ġokun masÄ±
Samsun g
S avaÅŁ
d Ã¼nÃ¼z
i dat
ag en
Ġbor sa
ĠbeÄŁ endim
Ġtas fiye
OS Y
ĠBer at
D on
Ġz il
ĠF enerbah
ĠdÃ¼ÅŁ me
Ã½ lÃ½
ĠyayÄ±n lanacak
lÄ±yor du
ĠSur iyel
ĠyayÄ±m ladÄ±
Ġsalon da
Ġeb ed
Ġtetk ik
ĠSib el
is er
ĠG PS
ĠN E
Ġedilm esinin
Ġedin miÅŁ
ĠkatÄ±lÄ±m cÄ±lar
ati ons
Ġsavun du
Ä°s p
Ġtemel li
ĠYer leÅŁtirme
eÄŁ imizi
Ġbil imi
ĠEr han
Ġorta Ã¶ÄŁretim
Ġpat layÄ±cÄ±
Ġzek Ã¢
diy se
ĠbÃ¼rok rat
ĠazÄ±n lÄ±k
Ġsuik ast
Ġbak Ä±yorum
Ġ10 80
Ġkan unu
ĠJ on
ĠgeliÅŁ mesine
Ġhast alarÄ±
ĠaraÃ§ larÄ±nÄ±
Ġkol esterol
kon usu
Ġedebilir iz
ĠdanÄ±ÅŁman lÄ±ÄŁÄ±
ĠZor unlu
I G
Ġan ki
man n
ĠdeÄŁer lere
lÄ±ÄŁ Ä±mÄ±z
Ġtemiz lemek
ĠMan chester
Ã Ŀ
Ġist ir
ĠL os
Ġkoy ma
ĠÃ¶ÄŁretmen leri
ĠAsan sÃ¶r
6 00
y ali
ĠgerÃ§ ektir
ĠseÃ§ tiÄŁiniz
Ġtut tuÄŁu
ĠÃ§ek mektedir
ĠSer gi
Ġfaaliyet lerin
omet ri
Ġaf iÅŁ
ĠÃ¶rt Ã¼sÃ¼
ĠDuy uru
Af yon
Ġkat ta
Ġl ob
re at
ĠdeÄŁiÅŁ mesi
Ġindir ip
Ð° n
ĠÃ¶ÄŁrenciler imizin
Ġuygulamalar Ä±nÄ±
ĠCep he
Ø ³
Ġgel se
os it
Ġak tÃ¼el
ĠbÃ¼yÃ¼k ÅŁehir
Ġmodel inin
Ġkapat Ä±p
Ġdavet iye
Ġ198 5
Ġp usu
Ġsak Ä±nc
Ġgez ilecek
ĠAydÄ±n latma
Ġyiy en
A dam
L O
ĠgÃ¶ b
Ġin anÄ±n
ĠR ezerv
ĠR enault
Ġer im
Ġmalzem enin
ĠAÅŁ Ä±k
Mod ern
k Ä±s
ĠK un
ĠT OBB
Ġyap Ä±lÄ±p
ĠG Ã¼
Ġyaz dÄ±ÄŁÄ±m
caÄŁ Ä±nda
ĠÃ¼zer ini
Ġboy lu
ĠSon u
ust ik
Ġhedef lerine
Ġdeneyim ini
Ãĸnc eki
ĠstÃ¼ dyo
c it
or s
Ä° Ãĩ
uÅŁt a
ĠBil al
ĠTar Ä±k
ĠÃ¶lÃ¼m Ã¼nden
Ġn cÄ±
Ġdir i
ĠÄ°lk okul
Ġbab anÄ±n
ĠmÃ¼dÃ¼r leri
ĠanlayÄ±ÅŁ Ä±nÄ±
ĠLim an
oparl Ã¶r
H D
P en
Ġol im
Åŀ im
Ġkat an
Ġuygu layan
ĠÄ°ncel eme
Ġc afe
ĠeÄŁ r
Ġih lali
Ã® l
ĠilÃ§ enin
ĠÃ§ar ÅŁÄ±
ĠHam il
ĠHam di
ĠEx p
Ġstandar d
Ġkaymak am
ĠMalat yaspor
Ġs usuz
Ġak Ä±cÄ±
Ġhalk Ä±mÄ±zÄ±n
ĠkÃ¶y e
Ġazal masÄ±
Ġbebek ler
ĠHac ettepe
s Ä±r
at il
ĠC ad
Ġhizmet inde
ĠgÃ¼nde mi
ĠRAP ORU
r r
Ġg Ã¼ce
Ġsistem li
Ġboy an
Ġkes iÅŁ
ĠSer amik
ĠF ur
ĠseÃ§ ilir
ĠdÃ¶nÃ¼ÅŁ Ã¼r
Ġkelim esinin
ĠYÃ¶net icisi
Ġolmas aydÄ±
ĠNo te
Ġpsik iyat
ĠyoÄŁun laÅŁ
ĠbaÄŁÄ±mlÄ± lÄ±k
Â ĵ
Ġs ilikon
at om
ĠEr gÃ¼n
Ġayr Ä±mÄ±
ĠdeÄŁerlendir meler
Ġail eye
ĠÃ¼niversit elerin
Ġklav ye
ĠAyv alÄ±k
Z iyaret
Ġ ÄĲ
la ÄŁ
ĠyaÅŁ arken
ĠUy gu
ĠSÄ±r p
Ġkomisyon u
ĠBon us
Ġd uvarÄ±
ĠH ersek
ada mÄ±
Ġail esini
ĠsÄ±kÄ±ntÄ± larÄ±
ros k
K urt
m Ã¼n
Ġt im
Ġgel me
Ġma tr
Ġat Ä±l
ĠZ inc
Ġsun muÅŁ
ĠkaldÄ±r Ä±lan
Ġyarg Ä±la
ĠhatÄ±rlat tÄ±
ĠSayf ada
ĠDiler seniz
D IN
Ġm ur
Ġmer div
Ġasker lerin
Ġkayb eder
Ġteknoloj iye
ĠÅŁiÅŁ e
ĠnÃ¼fus unun
ĠBek len
Ġbilgisay ara
ĠTop tan
Ġham madde
En d
ĠYak up
ĠÃ¶dÃ¼l lÃ¼
Ġgay ri
mÃ¼ dÃ¼r
Y orum
Ġd os
ama mÄ±ÅŁ
ĠmaÃ§ lar
ĠgerÃ§ekleÅŁ tiÄŁi
ĠDo larÄ±
Ar ap
Ġlit r
Ġpaz ara
S EK
æ ľ
af fer
ĠP oli
Ġev deki
eg o
Ġer dem
ĠulaÅŁ Ä±n
ĠyaÄŁ lar
Ġhalk la
Ġgider ler
ĠbaÅŁk alarÄ±
Ġtuz lu
ĠRe ad
ĠOf fice
B Ä°R
Ġko ÅŁtur
ĠiÃ§er isinden
Ġik isini
uÃ§ uk
ĠHam za
á Ģ
Ġkullan dÄ±ÄŁÄ±m
ĠU Z
ĠAr ena
Ġberaber e
Ã¼nÃ¼z Ã¼n
ĠÃ§oÄŁ unun
Ġtali matÄ±
P ort
Ġ Ã¼t
an Ã§
man a
Ġtel aÅŁ
luk lar
ĠeÄŁitim li
Ġdah ili
Ġab lam
ĠasÄ±l lÄ±
Ġmanz arasÄ±
Ġmakal emizde
ĠkÃ¶p eÄŁi
Ġsosy o
I SI
Z or
n ut
em emesi
Ġf e
ĠÃ§alÄ±ÅŁ mÄ±yor
ĠÅŀ afak
Ġsaat inde
Ġkes en
AL IK
Ġhiss eder
ĠTeb liÄŁi
ĠkÄ±skan Ã§
Ġyar arÄ±
leÅŁ ti
An ayasa
ĠÃ§Ä±k madan
ĠsaÄŁ landÄ±
Ġkay bolan
ĠyÃ¼z eyi
Ġtab anÄ±
ĠkÃ¢ÄŁÄ± t
Ġtaham mÃ¼l
K eÅŁ
T ag
g it
Ġ2 20
Ġan layan
alÄ± cÄ±
ĠyapÄ±l maz
Ġart mÄ±ÅŁ
Ġorgan larÄ±
ĠilaÃ§ larÄ±n
ĠMÃ¼hendis leri
Ġsis tematik
ĠG SM
ĠgeÃ§ir dik
Ġayr Ä±lmak
Ġkontrol Ã¼nde
ĠfotoÄŁraf Ä±nÄ±
Ġkorun ma
H DP
f l
h ol
ĠK AT
ĠS ep
Ġkal mayÄ±
ĠgeÃ§ meye
erk ek
ĠaraÃ§ lara
Ġaday Ä±n
Ġav rupa
ĠKÃ¼ltÃ¼r el
ĠÃľlk emizin
ĠeÄŁit ici
S AM
Ġb ezi
Ġal mÄ±yor
ĠÄ° de
isi dir
Ġkav ray
Ġesas lÄ±
ĠMas aj
ĠKamp anya
Ġgeril edi
ĠJe an
at epe
Ġm y
ĠS ef
ĠD P
ĠdÃ¶n erek
Ġdin lendir
ĠÃ¼ret ken
ĠEl ma
ĠUn iversit
ĠYen ik
Ġturist lerin
AÅŁaÄŁÄ± daki
r un
ĠB ÃľY
am it
ĠS uyu
ĠT M
ĠP lat
ĠO Y
Ġdav ul
mem i
Ġedildi ÄŁinde
ĠÃ¶ner iriz
ĠuÄŁr adÄ±
ĠSy stem
S ab
T av
Ġy alamaya
ĠY AÅŀ
if li
ĠGÃ¼n Ã¼n
ĠYap Ä±lÄ±r
Ġend Ã¼stri
Ġeklen t
ĠkarÅŁÄ±laÅŁtÄ±r ma
ĠkatÄ±lÄ±mcÄ± lara
TAL YA
ĠAÃĩ IK
la di
ĠK edi
Ġdin ler
Ġboyut larÄ±
Ġkorun mak
Ġistek lerini
ĠGer Ã§i
ĠiÅŁyer inde
ĠF ant
Ġtop luluÄŁu
Ġort asÄ±na
ĠI ÄŁdÄ±r
Ġot op
ĠmÃ¼ÅŁter inin
LI ÄŀI
Ġkamer asÄ±
ĠZor lu
ma hal
ĠgÃ¶z Ã¼nÃ¼
ĠkÃ¶ le
Ġbulunma masÄ±
Ġkoc asÄ±
Ġmotiv e
T abi
h izmet
ÄŁ inin
lÄ± can
Ġkullan Ä±yoruz
Ġmuh ar
UR U
Ġrisk leri
ĠToplan t
ĠÃ§ekir de
ĠEsen yurt
et ini
az in
ĠN Ã¶
ĠÃ§alÄ±ÅŁ Ä±lan
ĠV ize
Ġsev enler
ĠEl de
Ġyan ma
ĠBaÅŁk onsolos
Man isa
r Ã¢
t il
Ġat tÄ±m
ĠAl l
Ã½ na
Ġsen edi
lo ud
ĠfÄ±r tÄ±na
Ġgol le
Ġtencer eye
B azen
ĠyÄ±l Ä±ndaki
ĠL o
ĠBir incisi
Ġedecek lerini
Ġfor vet
ĠsÃ¶yley eyim
ĠÅŁÃ¶ len
m Ã¢n
Ã İ
Ġk aka
Ġm iy
ĠD inÃ§
ĠG emi
Ġok uyorum
ĠI m
ĠÃ§ek ecek
Ġkr emi
Ä±ÄŁ Ä±n
Ġdayan Ä±r
Ġkalk tÄ±
ĠMec l
ĠFaz Ä±l
Ġharek at
n ar
ĠS up
ĠY avaÅŁ
ez e
ĠÃ¶n ler
Ġsay Ä±labilir
Ġbiz lerin
Ġter tip
Ġkonu ÄŁu
Ġdiz ide
ĠyaÄŁ Ä±ÅŁÄ±
ĠAlt yapÄ±
ĠSÃ¼r esi
Ġyararlan abilirsiniz
ildiÄŁ ine
eto oth
agu e
ĠN eb
ĠÃ¼y elerinden
ĠyaÅŁÄ±nda yken
Ġsalon larÄ±
ĠmÃ¼f redat
al oÄŁu
Ġm eb
le p
ĠP VC
ĠÃ¶n leyici
Ġis hal
Ġsebep leri
ledik Ã§e
Ġmeyv eler
ĠAky Ã¼rek
OLOJ Ä°
Ġt uzu
ĠD ec
Ġbulun maz
ĠAr as
ĠAr zu
Ġhizmet inizde
ĠZ ehra
ĠÃ¼lk elerinden
Ġ7 20
Ġsal ata
ĠaraÅŁtÄ±r malarÄ±
Ġtarz Ä±nda
ĠSultan beyli
out h
Ġyoksul luk
= "
ĠgÃ¼n lerin
ef abrik
Ġok unan
Ġbah ane
Ġkom it
ĠOsman gazi
ĠÃ§or b
ĠKral lÄ±k
ĠyakÄ±ÅŁ Ä±r
c iye
v az
Ġmu dur
ĠhÃ¼cr eler
r ey
Ġbir isinin
Ġz at
ĠV ers
ĠdÃ¶n Ã¼mÃ¼
ĠÅŁirket e
ĠyÃ¶netim in
Ġzeytin yaÄŁ
D R
b l
Ġev ini
ĠKar tÄ±
ĠgeÃ§ir ir
ĠyapÄ± lamaz
Ġdoktor lar
Ġsem pat
ĠyaÅŁama yÄ±
Ġs Ã»
ĠT O
Ġar adÄ±m
ĠH ip
ĠBu da
Ġart tÄ±kÃ§a
ĠGÃ¼ven li
ĠBor sasÄ±
Ġhapis han
ĠKurs larÄ±
ĠMERKEZ Ä°
Ġenj eksiyon
M P
ĠH ilmi
Ġ5 000
ĠgÃ¶rÃ¼l meye
Ġbab alar
Ġvit es
ĠTav an
press o
ĠhÃ¼r met
f urt
ĠR oy
Ġduy duÄŁum
iliyor du
An droid
ĠkarÅŁÄ±laÅŁ Ä±lan
ĠkapÄ± dan
K Ãľ
em an
Ġel bet
Ġdestek lenen
ĠkatÄ±lÄ±m cÄ±larÄ±n
Ġdep artman
ĠSÃ¼r eÃ§
ĠÃ§ab al
ĠUn ited
Ġyapabilir im
l ili
y alarÄ±
Ã§ Ä±lÄ±ÄŁ
Ġal eti
ros s
ĠÃ¼lkemiz deki
ĠBl ok
Ġslogan Ä±yla
Ã¶ÄŁ Ã¼t
ru h
Ġkap Ä±nÄ±n
ileceÄŁ imiz
ĠkonuÅŁ ur
Ġkalk ar
ĠMa alesef
ĠEd ilen
ho mas
ĠkÃ¼Ã§ Ã¼lt
Ġvaziyet te
Ġtut tuÄŁ
ĠoluÅŁtur acak
Ġtep s
ĠyavaÅŁ Ã§a
d inin
ĠiÅŁ inde
Ġservis e
ĠhoÅŁ gel
ĠanlayÄ±ÅŁ Ä±yla
ĠGerÃ§ek leÅŁtir
Ġinf o
Ġsec de
ĠDEÄŀER LEND
Ġz arÄ±
ĠbaÄŁ lar
ĠEÄŁ it
Ġproj elerini
Ġtoplan masÄ±
ĠsÄ±nÄ±f Ä±nÄ±n
Ġalacak larÄ±
oter ap
ek e
la stik
ĠR eÅŁ
Ġgir me
ĠÃ¼ret ilmiÅŁtir
Ġhisset tim
ĠNet work
m iye
Ä±m larÄ±
Ġko van
Ġhaz ir
Ġ10 5
ĠiÅŁlem ine
ĠÃ§Ä±kar arak
ĠÃ¼Ã§ gen
ĠgÃ¶rÃ¼ÅŁ mesi
ĠiliÅŁk inin
Ġuygulan maktadÄ±r
Ġip lik
Ġhesab Ä±nÄ±za
ĠSÄ±r bistan
Ġyenilik ler
ĠFeder al
Ġy in
Ġhar fi
ĠÃĩalÄ±ÅŁ malar
ceÄŁ ini
ĠyÃ¼rÃ¼y erek
Av ust
ĠkÄ±sÄ±m larÄ±
Ġizliyor sunuz
m uyorum
Ġv inÃ§
Ġh o
Ġh ile
Ġa ÄŁustos
Ġn is
ĠgÃ¶r ebilmek
ĠO N
ĠgÃ¶ster ilmesi
ĠkatkÄ± larÄ±
Ġ198 2
ĠArkadaÅŁ lar
ĠYalnÄ±z ca
T EM
ĠS ektÃ¶rÃ¼
ĠÃ¼r eme
ran Ä±n
ĠgerÃ§ekleÅŁtir ecek
AÅŀ TIR
Ġkonum landÄ±r
ĠFet ullah
ĠTanÄ±t Ä±mÄ±
B odrum
ĠÅŀ air
Ġer g
Ġtamam Ä±na
Ġkir liliÄŁi
Ġdayan Ä±ÅŁ
ĠDoÄŁ uÅŁ
ĠgiriÅŁim inin
ĠbaÅŁlar lar
Ġadliy eye
B P
ĠE den
uy o
Ġson da
av ig
ĠC enk
anÄ± larak
Ġma x
Ġgerek lilik
Ġyaz lÄ±k
ĠU p
Ġtan Ä±ÅŁtÄ±r
Ġli beral
ĠYer ler
ĠÅŁiddet e
ĠmÃ¼ÅŁteriler imiz
Ġincelen diÄŁinde
ĠUr fa
V Ã¼c
ir me
Ġc d
ĠkiÅŁi dir
ĠanlaÅŁ Ä±lÄ±yor
ĠKul ak
Ġkok ulu
Ġkomb ine
b ack
tiÄŁ in
Ġbirbir imize
Ġlis esi
Ġod un
Ġbeyan nam
ĠDaÄŁ larÄ±
Ġmevki inde
ĠH ediye
ark i
Ġyar ayan
Ġyan daÅŁ
Ġ4 44
Ġbak acak
ran bolu
ĠoluÅŁ masÄ±na
Ġdin Ã®
ĠaraÃ§ ta
ĠkoÅŁul larÄ±nÄ±
ĠKiÅŁ ilik
Ġihal eye
ĠiyileÅŁtir me
ĠYes evi
ĠD Ã¶ÅŁ
ru Ã§
Ġzehir li
D uy
Ø ¹
Ġar g
av un
Ġtem ini
Ġtem enn
ĠgeÃ§ir me
Ġmer teb
ĠDer ec
ĠDÄ±ÅŁ arÄ±
Ġhaft asÄ±
Ġizley in
Ġdemokras inin
ĠhazÄ±rla dÄ±k
Ġgazetec ilerin
Ġgazetec ilere
Ġsper m
Ġver eceÄŁini
Ġbul masÄ±
ĠdeÄŁiÅŁtir ildi
Ġizley ici
Ġmahkem ece
ĠHaft alÄ±k
Ġï »¿
ĠÄ°stih dam
ĠPaz arÄ±
T asar
Ġan estezi
ĠolduÄŁ un
Ġetm emiÅŁ
Ġuyar Ä±sÄ±
la masÄ±yla
ĠD at
Ġkullan dÄ±r
ĠeÅŁ cinsel
tÄ±ÄŁ Ä±n
Ġmadde ye
Ġ> >
ĠTe or
olog y
Ġyenilen ebilir
ĠkaÄŁÄ±t larÄ±
Ġmasraf larÄ±
Ġadap te
Vat andaÅŁ
s up
x x
ĠyardÄ±m laÅŁma
ĠMar aÅŁ
ĠBer g
ĠÃ¶t ek
ĠyansÄ± dÄ±
ĠH Ã¼lya
ĠyÃ¶n lendirme
ĠtaÅŁ Ä±nÄ±r
Ġyapmak tayÄ±z
Ä°M Ä°
Ġetmektedir ler
ĠyaÅŁadÄ±ÄŁ Ä±nÄ±z
we i
Yal nÄ±z
es ti
ĠK OSGEB
ĠG Ã¼cÃ¼
Ġolacak lar
Ġayr Ä±lmasÄ±
ĠKim yasal
Ã§ Ä±l
iz mir
ĠK oy
Ä±m daki
ĠT ali
Ġel leri
Ġtes limi
ĠaÄŁ abey
Ġtalep ler
lin k
ĠAlan lar
ĠBenim le
bin lerce
Ġg am
Ġgen c
Ġoyun dan
ĠgÃ¼ven de
ĠKon gr
ni a
ĠGÃ¶r mek
ĠÃ¶ldÃ¼r Ã¼ldÃ¼
ĠSov yetler
ĠyÄ±ldÃ¶n Ã¼m
ĠLid eri
ab at
Ġer otik
ĠYÄ±l lar
Ġkarakter ini
Ġ197 4
Ġmahall esinde
ĠÄ°lah iyat
ĠY ENÄ°
Ġz enci
Ġbul unup
ĠÃĸ den
Ġark asÄ±
Ġerkek lerle
ĠTer min
Ġkuvvet leri
Bel ki
ĠVol eybol
Ġsamim iyet
C H
S oÄŁ
ĠR ev
Ġdur up
Ġtan Ä±r
Ġrapor lar
ĠÃľy elik
Ã ³
Ġama ca
Ġbilin mez
Ġkaynak lanÄ±yor
ĠÃ§ift lik
ĠalgÄ± lama
im dir
Ġtoplan dÄ±
Ġnokt ayÄ±
yar dÄ±m
ĠBaÄŁ cÄ±lar
ĠÐ ¿
Ġpozisyon u
ĠAc ar
ĠaÅŁa masÄ±na
Ġcemaat lar
ĠÅŀer ef
Ġil mi
Ġn iz
Ġver itabanÄ±
tr y
ĠbaÄŁ lanan
Ġiz ledim
Ġduy duklarÄ±
Ġgit meden
ost al
Ġbat Ä±sÄ±nda
ĠÃĩar p
ĠBayrak larÄ±
Ġzan net
Ġy y
ĠseÃ§im lerin
ĠAlt Ä±nda
ĠÅŁÃ¼ph elen
ĠtanÄ±ÅŁ mak
ĠBAK ANLIÄŀI
c raft
k iÅŁi
ĠM elik
ĠE din
ĠP osta
oy ol
Ġtab ur
ĠkonuÅŁ urken
dak iler
En gel
Ġokum uÅŁ
ĠT AÅŀ
lat Ä±n
Ġdedi ÄŁini
ĠgeÃ§ir iyor
Ġyal ovadaki
Ġir ad
ĠYal ovadaki
Ġap tal
Ġyama Ã§
ĠBEL ED
ĠEras mus
ĠDerne gÄ±
ĠÃ¼zer lerine
ĠsÄ± h
sik lop
ron un
ĠkoÅŁ ulu
ĠKÃ¶ se
Ġeb at
ĠUzak tan
V ar
Ġ qu
Ġt eÃ§hiz
Ġver meniz
ĠR AM
Ġtak Ä±n
ĠbÄ±rak mÄ±ÅŁ
Ġasker in
ĠkÃ¢ fir
Ġy eg
Ġyap mayan
Ġgel mesiyle
Ġyol larda
Ġduy duÄŁumuz
ĠoluÅŁtur maya
ediÄŁ in
Ä±ntÄ± lar
ĠÃ¶ldÃ¼r dÃ¼
Ġceza i
ĠJo se
Ġkesi p
Ġh ediyesi
ĠaÃ§ maya
ĠV il
ĠhÄ±z Ä±yla
Ġpazar lÄ±k
Ġhukuk un
Ġplatform da
D ern
V ER
l ÃĦ
ĠP iÅŁ
ĠiÅŁ lenmesi
om er
sel am
ayÄ±n dÄ±r
Ġsit elerinden
Ġayr Ä±ÅŁtÄ±r
ĠYÃĸN ER
Ġmemleket i
ĠHotel s
Ġma gaz
AM AN
ik ten
Ġger eÄŁini
Ġden gesi
Ġbirlik leri
Ġuygun luk
ov ic
ĠYar alÄ±
ĠÃ§alÄ±ÅŁmalar Ä±yla
ĠaÅŁaÄŁÄ± dakilerden
ĠyatÄ±rÄ±m larÄ±n
ĠÃ¶rgÃ¼t lerinin
Ġo sman
Ġf laÅŁ
Ġist emek
ĠTar sus
ĠFilm ler
alÄ±ÄŁ a
ĠMis afir
Ġhusu sta
g Ã¶
Ġver itaban
ĠâĢ º
ĠdeÄŁiÅŁ mez
Ġkurul tay
Ġtesis lerinde
ĠgÃ¶tÃ¼r Ã¼ldÃ¼
atur a
Ġap aÃ§Ä±k
ĠÄ°r fan
D OÄŀ
F orum
u lamaz
ĠM B
ĠM av
eb ildiÄŁi
Ã¼yor lar
Ġbulunan lar
Ġtah s
Ġistem ektedir
Ġdar p
ĠiÅŁaret tir
ĠRek abet
C C
p le
p uz
z ani
Ġt Ã¼l
Ġtop lar
Ġak varyum
Ġ19 19
ĠhazÄ±r da
ĠEk ibi
Ġortak lÄ±ÄŁÄ±
ĠartÄ±r an
Ġdef ned
ĠaÃ§Ä±lÄ±ÅŁ Ä±nÄ±
Ġv ekili
la dÄ±klarÄ±
Ġm enkul
Ġr ap
mek sizin
Ġtarih lerde
ĠbÃ¶lg elerine
ĠyaÄŁ Ä±ÅŁlÄ±
Ġst op
ĠKiÅŁ inin
San at
Ġlin ki
ĠFev zi
Ä±yor sun
ĠAn i
ĠKon usu
Ġtah rib
Ġoluyor lar
Ġav ro
Ġazalt Ä±lmasÄ±
M ag
Ġb odrum
ĠM uk
Ġbil hassa
siz liÄŁi
ĠÃ§aÄŁ Ä±n
ĠUy arÄ±
ĠyatÄ±rÄ±m cÄ±lar
Ġzengin leÅŁtir
ĠEÅŁ it
Ġgr ip
Ġtok at
ĠHey eti
ĠneÅŁ eli
Ġuyg ar
Ġok uyu
ĠÃ§ek miÅŁ
Ġoku mayÄ±
Ġadres inize
ĠgÃ¶rÃ¼ÅŁmeler de
Ġinc eler
ĠÃ¶mr Ã¼nÃ¼
Ãľniversit e
D el
ĠY edi
Ġdevlet lerin
Bir az
An n
Ġedilir se
ĠÃ¶dÃ¼l leri
ĠÃ§ab alarÄ±
K Ä°
ĠA ram
Ġc ansÄ±z
Ġad larÄ±
Ġden edim
ekk ep
Ġverm ekten
Ġboz an
Ġoperasyon lar
AV UZ
ĠÃĩek mekÃ¶y
ĠÃľl kenin
c us
y dÄ±m
Ã¼m le
lem eyi
... )
Ġtaraf tarÄ±
Ġisim lendir
ĠgeniÅŁ liÄŁi
Ġiddi anam
Ġiler ley
Ä±c Ä±k
ĠeÄŁlenc eler
ĠAnt laÅŁmasÄ±
ĠdÃ¼ÅŁÃ¼nmÃ¼yor um
Ġb ik
ir en
Ġg an
ĠH un
ĠP L
Ġyer dir
Ġkur up
ĠgÃ¶z lÃ¼
ĠkadÄ±n Ä±m
ĠdeÄŁiÅŁtir erek
ĠayÄ±r mak
ĠÃ¶den ir
Ġprot ez
Ġsonsuz a
ĠKoc aman
D o
dan ya
Ġter api
Ġ12 8
Ġkaynak larÄ±nÄ±
Ġlist eye
ĠRenk li
G O
] [
inde x
ĠG old
Ġdav asÄ±nda
Ġadam la
ĠyÃ¶net mek
Ġbildir i
ĠÃ¶zellik lerinin
ĠtasarÄ±m cÄ±
ĠKos ova
ir seniz
ĠY ET
Ã¢ det
Ġbak Ä±nÄ±z
ĠsÄ±r rÄ±
ĠgÃ¶z Ã¼yle
Ġim tihan
Ġyas ama
Ġanlat tÄ±ÄŁÄ±
Ġperson ele
ĠHalk Ä±n
Ġeylem leri
ĠÃĩak mak
S iyah
en te
Ġy udum
Ġyap Ä±sÄ±yla
Ġger isinde
ĠyatÄ±rÄ±m cÄ±larÄ±n
ĠYardÄ±m laÅŁma
Ġyum ruk
ĠBos ch
Ġsep et
r iyat
s osyal
Ġg asp
as u
ĠiÅŁ inin
ĠsÃ¼r erken
ĠgeÃ§ mesine
Ġsiyas eti
Ġrapor una
ĠProj eleri
Ġsabah Ä±
ĠiÃ§erik ler
ĠkÄ±ÅŁ kÄ±r
Ġklav y
Ġon ca
Ġsit elerin
Ġtes ettÃ¼r
ĠyapÄ±yor sunuz
Ġpsik oloj
ĠSa int
HiÃ§ bir
Ġkrit erler
ĠgÃ¶r meden
ĠgÃ¶ster ilmiÅŁtir
ĠkaldÄ±r Ä±p
ĠgerÃ§ekleÅŁ miÅŁtir
ĠhoÅŁ una
Ġbeklent ilerini
ĠyapÄ±lab ilmesi
S UN
un us
Ġz ap
Ġfiyat Ä±nÄ±n
enk Ã¶y
Ġplan lanÄ±yor
ĠaraÃ§ larla
ĠilaÃ§ larÄ±
ĠGec esi
B ek
Ġs aman
Ã¶r dÃ¼ncÃ¼
Ãĩ ek
ĠgÃ¶rÃ¼ÅŁ Ã¼nÃ¼
ĠalÄ±ÅŁ veriÅŁi
kir alik
Ġsporcu lar
ĠSn ap
Ġbr Ã¼t
ab Ä±n
Ã¼z zaman
lay t
ĠÃ¼ret meye
Ġverm esini
Ġayar lar
ĠYet enek
Ġihtiyac Ä±nÄ±n
ĠKons olos
ĠsÄ±z dÄ±r
ĠFay dalarÄ±
B e
m da
â Ħ¢
Ġv eli
ul malÄ±dÄ±r
ĠT ers
Ġyar Ä±yÄ±l
Ġhaf tadÄ±r
ĠbÃ¶lÃ¼m lerinde
Ġsayf amÄ±zda
ĠÃ¶ÄŁ leden
Ġincelem eye
Bah Ã§e
F er
ĠC oun
anlÄ± lar
ĠaÄŁaÃ§ larÄ±
ulma malÄ±dÄ±r
ĠgÃ¼b r
Ġk okt
Ġg Ã¼le
ĠyÃ¶n erg
ĠgÃ¶ster im
Ġetk isinin
ĠKul Ã¼b
AY A
Ġcez alarÄ±
Ġisten di
ĠdanÄ±ÅŁ manÄ±
Ġanlata caÄŁÄ±m
Ġpet ek
il eÅŁ
ĠB iÃ§
ĠgÃ¼n Ã¼nden
ĠL ez
ĠAl ma
ĠÃ¼rÃ¼n dÃ¼r
ĠbaÅŁla dÄ±ktan
Ġbek ar
esel a
Ġkut lamalar
Ben de
ĠIn tel
ĠgÃ¼c Ã¼n
ĠTim ur
S il
Ġp Ã¼f
Ãĸ yle
ĠÄ°ÅŁ yeri
uc uk
Ġverilm elidir
Ġpsik oloji
ĠÃĸÄŁretmen ler
Ġgayret i
ĠStratej i
GerÃ§ ekten
y Ã¶n
Ġon larda
Ġinsan larda
ĠÃ¼lk esine
ĠbÃ¶lg esinden
Ġsen ede
Ġyetk ilendir
Ġtest ler
Ġveriyor lar
Ġihtiyac Ä±m
Ġevlen mek
ĠBilin diÄŁi
y aliz
ĠiÃ§ imde
Ġgir dikten
ĠAma cÄ±
Ġotel lerde
Ġdel alet
ĠEnd iÅŁeler
Sar ay
ĠS tep
ĠgÃ¶ster diÄŁini
Ġetm emek
Ġem sal
oh umu
Ġisim lerden
ĠkaldÄ±r dÄ±
ĠparÃ§ al
ĠsaÃ§ larÄ±
Ġpeyn iri
ĠTez gah
BÃ¶yle ce
ĠSÄ°ST EM
adok ya
T UR
v Ä±
ak er
ĠM enkul
Ġev inize
Ġhizmet ten
Ġbur alarda
ĠarkadaÅŁ Ä±nÄ±
Ġkayn aÄŁÄ±ndan
ĠDer ya
Ġyapar Ä±z
ĠgÃ¼c Ã¼yle
ĠbaÅŁlangÄ±Ã§ ta
GÃ¼ven lik
k it
k adÄ±n
â ĸ
eler inizi
ada yÄ±
ĠÅŀ ek
Ġkat mak
Ġben dinde
ĠgÃ¶rev liler
Ġkes mek
ber t
ĠyanÄ± tÄ±
Ġdir ektÃ¶rÃ¼
ĠbaÅŁk asÄ±nÄ±n
ĠKitab evi
ed it
Ġde ger
Ġr Ã¼ÅŁvet
ĠP iyan
id o
ĠoluÅŁtur ulur
Ġdem iÅŁtir
ĠYap Ä±lmasÄ±
Ġyen erek
Ã¼lt eni
Ġdeniz in
Ġnakl ed
ĠAngel es
ĠK ek
ĠiÃ§er iye
ĠmÃ¼ÅŁt erek
ĠyaptÄ±r Ä±lan
ĠOrta okul
ĠoluÅŁtu ÄŁu
Ġb inin
Ġp uzzle
ĠY ER
ĠbaÅŁ Ä±ndaki
ĠÃ§alÄ±ÅŁ tÄ±klarÄ±
ans u
ĠU R
ĠdeÄŁer lerine
ĠayrÄ± larak
Ġsebep lerden
ĠEt ti
ĠSalon unda
ĠipuÃ§ larÄ±
ĠMutf aÄŁÄ±
K uÅŁ
leÅŁ ir
tak ya
Ġstandart larÄ±na
ĠKÄ±y met
Ġiv me
l ediler
ok uz
Ġist ersen
ĠÃ¼st Ã¼nden
ing le
hi e
ĠaÅŁa masÄ±
ĠÃľR ÃľN
L ET
u cak
ĠiÃ§ lerinde
Ġuy kusuz
sa de
Ġkor uyor
Ġer ecek
Ġhareket inin
Ġsap an
Ġ198 6
ĠÄ°ÅŁlet mec
ĠyolculuÄŁ a
Ġrady asyon
L is
ĠÄ° HA
Ġuy mayan
Ġiz leri
Ġsorun lu
ĠbazÄ± larÄ±nÄ±n
Ġman ev
ĠÅŁart larÄ±nda
ĠBoz daÄŁ
ĠPay laÅŁÄ±m
A AT
ĠD eli
ĠÃ§Ä±k abilecek
Ġolma dÄ±ÄŁÄ±nÄ±n
ĠgÃ¶nder en
Ġrahat lÄ±ÄŁÄ±
gin Ã§
Ġtemel de
Ġkapat tÄ±
Ġsik tir
ĠÅŁehr ine
ĠkullanÄ± cÄ±sÄ±
ĠElem anÄ±
ĠP ers
Ġiy iydi
iet nam
ĠB Ä±
Ġp rat
Ġyap acaktÄ±r
Ġkar am
siz ce
Ġhakk Ä±yla
ĠpaylaÅŁ Ä±yoruz
Ġotur duÄŁu
ĠÃ¶ldÃ¼r mek
Ġap art
at al
Ġgerek Ã§esi
ĠgerÃ§ekleÅŁtir ilir
ĠÃ§evir di
ĠÃ§oÄŁ unu
ĠBÃ¶lg ede
ĠHerk ese
YÃ¶n etim
p ara
Ġn im
iyet inde
Ġgerek ti
Ġpar alarÄ±
ĠKar adaÄŁ
ĠyaÅŁan dÄ±ÄŁÄ±nÄ±
ĠrahatsÄ±z lÄ±ÄŁÄ±
GÃ¶r Ã¼ÅŁ
Trabz onspor
Ġpank art
Ġes asÄ±na
ĠhazÄ±r layÄ±p
Ġdil imi
ĠtakÄ±m Ä±nÄ±
ĠvatandaÅŁ larÄ±mÄ±z
ĠUy ar
Ġbilgisayar Ä±nÄ±za
Ġifad elerine
ĠYol cu
ĠanlayÄ±ÅŁ la
ĠÅŀeh rin
Ġfabrik asÄ±
Ġtakv iye
ĠreÃ§ et
Ġvek alet
dÃ¶rt gen
Ġg af
ĠKur ab
Ã¼v ekk
Ġ19 15
ĠEv li
ĠboÅŁ una
ĠÃ¼stÃ¼n lÃ¼ÄŁÃ¼
ĠKategor i
Ġmetabol iz
ĠAMA Ãĩ
M Ä±sÄ±r
ih at
ĠaÃ§ Ä±lmÄ±ÅŁtÄ±r
ĠdÃ¶nem den
ĠuÃ§ ur
Ġdesen li
ĠKonuÅŁ ma
ĠTurnuv asÄ±
Ġmam ul
G Ä±da
em m
ol ak
ĠarkadaÅŁ larÄ±yla
ĠUy ku
ĠSÃ¶z lÃ¼k
ĠÃĩalÄ±ÅŁ masÄ±
Ãĩocuk lar
K Ã¼t
Ġs az
ĠÃ§ an
dan oz
ĠL an
Ġneden ler
ĠakÄ±ÅŁ Ä±nÄ±
Ġmahalle de
un ay
ĠK R
Ġyap Ä±yÄ±
ĠN uh
Ġsit esindeki
Ġduy duÄŁunu
ĠmÃ¼z iÄŁin
ĠartÄ±r arak
Ġaktar ma
ĠMuham met
ĠBoz kurt
Ġizlen miÅŁtir
Ġlok asyon
ĠKelim e
ĠiÃ§ers inde
H B
M art
P as
Ġen der
Ġyan an
ĠgÃ¶ster ildi
Ãĸ l
Ġsistem lerin
oh ut
Ġkah ramanÄ±
Ġmekt ub
Ġtanesi dir
AdÄ± yaman
ĠUf uk
g ec
r eden
ĠÃ ĥ
ĠÃ¼z Ã¼cÃ¼
Ġbak la
Ġhakk Ä±n
ĠOl uÅŁ
ĠÃ¶ÄŁ len
ĠEx cel
Ġabon elik
Ġcezaev inde
Ġdor uk
f az
ĠT ir
Ġp es
Ġr uj
ro v
Ġvar lÄ±klar
ĠÃ§Ä±kar mÄ±ÅŁ
Ġbilm eden
ĠdÃ¶nÃ¼ÅŁ Ã¼mÃ¼
Ã° u
Ġkarakter ler
ĠDetay lar
Ġo ros
ĠP O
edi Ã¼zzaman
ĠR af
ĠÃ¶z ver
ĠalÄ±n masÄ±na
Ġtes bih
ĠBak Ä±n
Ġdavran Ä±ÅŁÄ±
ĠSÄ±nÄ±f Ä±
ĠiliÅŁkiler de
Ġ Ä±c
ĠY av
ĠÅŀ ans
Ġdem eden
ust in
Ġbat arya
Ġard Ä±na
ĠB af
ĠH ES
ĠyaÅŁ tan
ĠÃ§ocuk larÄ±mÄ±z
Ġnitelik leri
ĠSav cÄ±
ĠÃĩaÄŁ layan
ĠMÃ¼cad el
8 00
p x
ar Ä±n
ĠM OD
Ġf lash
ĠR iz
ĠN obel
Ġyar r
Ġev cil
ĠdiÄŁer ine
Ġtur da
ĠsonuÃ§ lan
Ġsak lama
ua wei
ma ster
ĠP aÅŁ
ĠiÅŁ lediÄŁi
Ġsun duÄŁumuz
ĠÄ°ÅŁ aret
ĠDiz isi
ĠKÄ±y asla
ĠGem lik
Ä±r sanÄ±z
Ġay Ä±k
man larÄ±
san iz
ĠL ang
id iy
ĠÅŁirket lere
ĠhiÃ§bir i
Ben ce
ĠKÃ¼rt lerin
Ġtor ba
ĠFar s
ĠMÃ¼ÅŁ avir
il ebilmesi
Ġs up
em eleri
ĠH ek
Ġz av
ĠyanÄ± ma
Ġyetkil isi
Ġzirv eye
Ġnam us
ĠMe alleri
av ul
ro t
Ġak abinde
Ġ10 3
Ġsak lan
ĠiliÅŁk ilerinin
ĠProf il
ĠgÃ¶tÃ¼r en
Ġdevr al
ĠsÃ¼t un
ĠEnd on
Ġyetenek leri
Ġimzal adÄ±
Elekt ronik
Ġf lor
ev it
Ġyap Ä±sÄ±nda
ĠhazÄ±r lar
ĠyerleÅŁtir ilen
ĠBer aber
ĠbaÅŁlÄ±yor uz
ĠYah ya
at it
Ġf iber
ĠEr bakan
ĠsaÃ§ lar
ĠMak ina
ĠkarÅŁÄ±laÅŁ acak
On line
Ġtazmin atÄ±
Ġvizyon a
EKT ÃĸR
ĠÃĸÄŁret meni
Ġkost Ã¼m
p art
du c
Ġas istan
Ġkut ladÄ±
Ġkamu ya
Ġez an
ĠÄ°LÄ°ÅŀK Ä°N
b eyi
ĠaÃ§ tÄ±m
leÅŁ menin
ĠKur tarma
ĠÄ°n eg
Ġada ya
Ġkabul Ã¼
ĠilÃ§ eye
ĠÅŁeklinde dir
ĠSÃ¼r eci
ĠÃ¶zgÃ¼r ce
madÄ± lar
ĠyanÄ±t Ä±nÄ±
B E
b iÃ§
k t
Ġn elere
Ä±y Ä±k
ĠiÅŁ inizi
Ġkur ar
ac Ä±n
Ġsan tr
Ġbas ma
Ġbun ca
Ġtemsilc ilerinin
ĠRab bi
Ġrast gele
ĠkarÅŁÄ±laÅŁt Ä±
ĠMÃ¼l k
ĠPremi er
ik Ã¼l
ĠÅŀ uan
Ã¢ li
Ġbilin mesi
Ġedin en
Biz ler
ĠyapÄ±m Ä±na
Ġokun du
LEM E
Ġvaj in
Ġtahakk uk
Ġm Ä±ydÄ±
Ġp ut
Ġtut uÅŁ
Ġsit elere
ĠbÄ±rak Ä±lmasÄ±
ĠKul esi
Ġgerekir ken
ĠkullanÄ±l malÄ±dÄ±r
ĠÃľr dÃ¼n
Ġkavram lar
amaya caÄŁÄ±nÄ±
ĠbÃ¼ny esindeki
Ġyenilen en
ĠTelefon u
Ġmaksad Ä±yla
y aÅŁÄ±
Ġar tik
Ġser Ã¼ven
[...]
