{"<s>":0,"<pad>":1,"</s>":2,"<unk>":3,"<mask>":4,"!":5,"\"":6,"#":7,"$":8,"%":9,"&":10,"'":11,"(":12,")":13,"*":14,"+":15,",":16,"-":17,".":18,"/":19,"0":20,"1":21,"2":22,"3":23,"4":24,"5":25,"6":26,"7":27,"8":28,"9":29,":":30,";":31,"<":32,"=":33,">":34,"?":35,"@":36,"A":37,"B":38,"C":39,"D":40,"E":41,"F":42,"G":43,"H":44,"I":45,"J":46,"K":47,"L":48,"M":49,"N":50,"O":51,"P":52,"Q":53,"R":54,"S":55,"T":56,"U":57,"V":58,"W":59,"X":60,"Y":61,"Z":62,"[":63,"\\":64,"]":65,"^":66,"_":67,"`":68,"a":69,"b":70,"c":71,"d":72,"e":73,"f":74,"g":75,"h":76,"i":77,"j":78,"k":79,"l":80,"m":81,"n":82,"o":83,"p":84,"q":85,"r":86,"s":87,"t":88,"u":89,"v":90,"w":91,"x":92,"y":93,"z":94,"{":95,"|":96,"}":97,"~":98,"¡":99,"¢":100,"£":101,"¤":102,"¥":103,"¦":104,"§":105,"¨":106,"©":107,"ª":108,"«":109,"¬":110,"®":111,"¯":112,"°":113,"±":114,"²":115,"³":116,"´":117,"µ":118,"¶":119,"·":120,"¸":121,"¹":122,"º":123,"»":124,"¼":125,"½":126,"¾":127,"¿":128,"À":129,"Á":130,"Â":131,"Ã":132,"Ä":133,"Å":134,"Æ":135,"Ç":136,"È":137,"É":138,"Ê":139,"Ë":140,"Ì":141,"Í":142,"Î":143,"Ï":144,"Ð":145,"Ñ":146,"Ò":147,"Ó":148,"Ô":149,"Õ":150,"Ö":151,"×":152,"Ø":153,"Ù":154,"Ú":155,"Û":156,"Ü":157,"Ý":158,"Þ":159,"ß":160,"à":161,"á":162,"â":163,"ã":164,"ä":165,"å":166,"æ":167,"ç":168,"è":169,"é":170,"ê":171,"ë":172,"ì":173,"í":174,"î":175,"ï":176,"ð":177,"ñ":178,"ò":179,"ó":180,"ô":181,"õ":182,"ö":183,"÷":184,"ø":185,"ù":186,"ú":187,"û":188,"ü":189,"ý":190,"þ":191,"ÿ":192,"Ā":193,"ā":194,"Ă":195,"ă":196,"Ą":197,"ą":198,"Ć":199,"ć":200,"Ĉ":201,"ĉ":202,"Ċ":203,"ċ":204,"Č":205,"č":206,"Ď":207,"ď":208,"Đ":209,"đ":210,"Ē":211,"ē":212,"Ĕ":213,"ĕ":214,"Ė":215,"ė":216,"Ę":217,"ę":218,"Ě":219,"ě":220,"Ĝ":221,"ĝ":222,"Ğ":223,"ğ":224,"Ġ":225,"ġ":226,"Ģ":227,"ģ":228,"Ĥ":229,"ĥ":230,"Ħ":231,"ħ":232,"Ĩ":233,"ĩ":234,"Ī":235,"ī":236,"Ĭ":237,"ĭ":238,"Į":239,"į":240,"İ":241,"ı":242,"Ĳ":243,"ĳ":244,"Ĵ":245,"ĵ":246,"Ķ":247,"ķ":248,"ĸ":249,"Ĺ":250,"ĺ":251,"Ļ":252,"ļ":253,"Ľ":254,"ľ":255,"Ŀ":256,"ŀ":257,"Ł":258,"ł":259,"Ń":260,"Ä±":261,"ar":262,"er":263,"Ã¼":264,"an":265,"in":266,"ÅŁ":267,"Ġb":268,"en":269,"Ä±n":270,"il":271,"ir":272,"ÄŁ":273,"Ġk":274,"Ã§":275,"Ġd":276,"Ġs":277,"al":278,"Ġy":279,"ak":280,"lar":281,"Ġg":282,"Ã¶":283,"ek":284,"el":285,"Ġv":286,"Ġo":287,"et":288,"ma":289,"la":290,"Ġt":291,"Ġi":292,"da":293,"un":294,"de":295,"ler":296,"Ġve":297,"es":298,"Ġh":299,"or":300,"ay":301,"iy":302,"iz":303,"at":304,"im":305,"ik":306,"em":307,"on":308,"Ä±r":309,"Ġbir":310,"ur":311,"as":312,"âĢ":313,"ĠB":314,"ed":315,"Ġm":316,"Ã¼n":317,"lÄ±":318,"Ġol":319,"ĠÃ§":320,"ul":321,"aÅŁ":322,"ĠA":323,"Ã¼r":324,"is":325,"am":326,"ap":327,"ey":328,"ĠK":329,"Ä±m":330,"Ä°":331,"it":332,"iÅŁ":333,"Ġa":334,"Ä±l":335,"le":336,"Ġil":337,"Ä±ÅŁ":338,"ĠS":339,"ĠÃ¶":340,"um":341,"ah":342,"ĠT":343,"Ä±z":344,"Ġde":345,"az":346,"Ä±k":347,"li":348,"âĢĻ":349,"Ġp":350,"dan":351,"ab":352,"ĠM":353,"ĠiÃ§":354,"ya":355,"Ä±nda":356,"st":357,"Ġf":358,"lan":359,"aÄŁ":360,"Ġal":361,"Ã¼z":362,"ad":363,"ĠgÃ¶":364,"ok":365,"ĠD":366,"larÄ±n":367,"inde":368,"ev":369,"ini":370,"Ġyap":371,"ine":372,"ol":373,"larÄ±":374,"Ġn":375,"di":376,"ĠÅŁ":377,"dÄ±":378,"Ġar":379,"du":380,"ec":381,"den":382,"ĠÄ°":383,"ĠÃ":384,"esi":385,"Ġbu":386,"ĠE":387,"mas":388,"Ã¼k":389,"ĠY":390,"leri":391,"uz":392,"ĠH":393,"Ġ1":394,"uy":395,"ĠG":396,"iler":397,"eler":398,"Ã¼m":399,"ĠiÃ§in":400,"alar":401,"mak":402,"Ġ2":403,"Ġda":404,"ti":405,"Ġile":406,"Ä±y":407,"iyor":408,"af":409,"Ä±nÄ±":410,"Ġz":411,"..":412,"cak":413,"Ġr":414,"eÄŁ":415,"Ã¼l":416,"ĠgÃ¶r":417,"inin":418,"ÅŁt":419,"Ġed":420,"lik":421,"ĠbaÅŁ":422,"dir":423,"Ä±s":424,"Ä±na":425,"Ġet":426,"ut":427,"oÄŁ":428,"iye":429,"ĠP":430,"ce":431,"Ġan":432,"eÃ§":433,"ilm":434,"Ġson":435,"ilir":436,"Ã¶n":437,"Ġver":438,"Ġkar":439,"uk":440,"us":441,"Ġger":442,"ekt":443,"Ġgel":444,"dÄ±r":445,"tÄ±":446,"iniz":447,"lÄ±k":448,"ĠO":449,"Ã¼y":450,"ez":451,"ĠÃ¶n":452,"ÄŁÄ±":453,"eb":454,"larak":455,"Ġ(":456,"ta":457,"len":458,"Ġkon":459,"av":460,"ro":461,"Ġoldu":462,"Ġin":463,"Ġolarak":464,"Ġc":465,"ip":466,"Ġtar":467,"Ġay":468,"ÄŁi":469,"ib":470,"Ġen":471,"eÅŁ":472,"Ġbil":473,"cÄ±":474,"ĠF":475,"masÄ±":476,"Ä±ndan":477,"man":478,"tÄ±r":479,"lay":480,"ĠâĢ":481,"ĠdeÄŁ":482,"ĠiÅŁ":483,"ĠC":484,"Ġyer":485,"Ã¼rk":486,"lem":487,"Ġolan":488,"ra":489,"¿½":490,"ï¿½":491,"anÄ±":492,"uÅŁ":493,"mÄ±ÅŁ":494,"ĠÃ§ok":495,"Ã¼ÅŁ":496,"Ġbul":497,"op":498,"aha":499,"Åŀ":500,"tan":501,"edi":502,"Ġkul":503,"unu":504,"imiz":505,"01":506,"asÄ±":507,"se":508,"lu":509,"Ġkal":510,"Ġist":511,"om":512,"Ã¶r":513,"Ä±nÄ±n":514,"te":515,"ih":516,"Ġkad":517,"ĠBu":518,"Ä±yor":519,"ĠgÃ¼n":520,"yon":521,"eni":522,"ca":523,"Ġor":524,"Ã¶y":525,"ĠaÃ§":526,"Ġkur":527,"Ġkullan":528,"ili":529,"ĠÃĩ":530,"ibi":531,"ama":532,"ede":533,"alÄ±ÅŁ":534,"ark":535,"ĠsÃ¼r":536,"isi":537,"ĠR":538,"ĠyÄ±l":539,"aki":540,"Ġher":541,"tir":542,"lerin":543,"alÄ±":544,"laÅŁ":545,"eki":546,"Ġdaha":547,"Ġuy":548,"ĠolduÄŁ":549,"me":550,"00":551,"âĢĿ":552,"Ġbel":553,"ĠN":554,"ki":555,"ÄŁr":556,"Ġma":557,"ĠTÃ¼rk":558,"ĠgeÃ§":559,"Ġvar":560,"ĠÃĸ":561,"ilen":562,"ĠÃ§alÄ±ÅŁ":563,"ic":564,"Ä±lÄ±":565,"ĠÃ§Ä±k":566,"aman":567,"ĠyaÅŁ":568,"ers":569,"eli":570,"Ġken":571,"eh":572,"Ġyar":573,"san":574,"ĠÃ¼z":575,"Ġgibi":576,"aÃ§":577,"ĠâĢľ":578,"Ä±mÄ±z":579,"os":580,"malar":581,"ada":582,"Ġbulun":583,"lama":584,"met":585,"mek":586,"Ã¼t":587,"ist":588,"Ġ3":589,"eden":590,"ĠÃ¼zer":591,"ken":592,"ecek":593,"let":594,"ru":595,"eri":596,"ĠV":597,"Ġon":598,"unda":599,"Ã¶z":600,"eye":601,"ĠÃ¶z":602,"Ã¶l":603,"Ġel":604,"iyet":605,"Ä±lan":606,"Ġgerek":607,"ĠsaÄŁ":608,"miÅŁ":609,"ĠÅŀ":610,"Ä±nÄ±z":611,"sa":612,"lÃ¼":613,"gi":614,"ep":615,"Ġek":616,"inden":617,"Ġsay":618,"iyle":619,"Ã¢":620,"daki":621,"ĠAn":622,"oy":623,"Ġkadar":624,"...":625,"'d":626,"ef":627,"ĠyÃ¶n":628,"ot":629,"ac":630,"ĠL":631,"Ġkay":632,"Ġsor":633,"Ġ201":634,"Ġzaman":635,"Ġyaz":636,"Ġpro":637,"ans":638,"Ġtek":639,"ade":640,"asÄ±nda":641,"aÅŁk":642,"Ġdur":643,"arak":644,"Ġu":645,"lara":646,"Ġtaraf":647,"Ġola":648,"Ã¼c":649,"aya":650,"ĠkarÅŁ":651,"Ã¼yÃ¼k":652,"Ġtop":653,"id":654,"Ġdev":655,"Ġad":656,"men":657,"edir":658,"Ġhal":659,"Ġ-":660,"Ġoy":661,"Ġsonra":662,"if":663,"erk":664,"Ġkat":665,"oc":666,"unun":667,"Ġak":668,"Ġkap":669,"Ġuyg":670,"Ġsah":671,"ĠdoÄŁ":672,"etim":673,"ĠU":674,"art":675,"larÄ±nÄ±":676,"ĠÃľ":677,"ĠdÃ¼ÅŁ":678,"ĠÃ¼r":679,"erek":680,"may":681,"maya":682,"Ġama":683,"aÄŁÄ±":684,"uÅŁt":685,"ĠÅŁek":686,"Ã¼Ã§":687,"iÃ§":688,"est":689,"Ġise":690,"Ġyan":691,"lam":692,"Ġ\"":693,"dÄ±ÄŁ":694,"ĠdÃ¶n":695,"arÄ±":696,"nin":697,"deki":698,"Ġben":699,"Ġsiz":700,"Ġbelir":701,"Ġl":702,"Ġalan":703,"ara":704,"Ġveya":705,"lerini":706,"Ġhay":707,"Ġev":708,"dÄ±ÄŁÄ±":709,"iv":710,"Ä±yla":711,"eleri":712,"yi":713,"siniz":714,"elik":715,"Ġhak":716,"ĠÃ¶ÄŁr":717,"Ã¼s":718,"dÃ¼r":719,"tad":720,"Ġat":721,"uyor":722,"Ġ4":723,"kin":724,"Ġyak":725,"ĠÃ¶zel":726,"eceÄŁ":727,"ci":728,"esinde":729,"sel":730,"ram":731,"abilir":732,"Ġ5":733,"ĠgerÃ§":734,"izmet":735,"ĠdÃ¼z":736,"dÄ±m":737,"ĠAl":738,"Ä±sÄ±":739,"Ä±la":740,"ĠTÃ¼rkiye":741,"Ġtak":742,"Ġyeni":743,"larda":744,"ĠkiÅŁ":745,"Ġgir":746,"ley":747,"ildi":748,"Ġuz":749,"lere":750,"una":751,"ter":752,"iyat":753,"Ġgen":754,"imi":755,"ĠyÃ¼z":756,"Ġsev":757,"Ġilg":758,"Ġkend":759,"tadÄ±r":760,"iÄŁ":761,"od":762,"ĠbÃ¼yÃ¼k":763,"ektedir":764,"ster":765,"anlÄ±":766,"Ġden":767,"ĠAr":768,"emiz":769,"ĠBir":770,"Ġort":771,"cu":772,"Ġbak":773,"Ġes":774,"iÅŁtir":775,"Ġne":776,"acak":777,"ĠtarafÄ±ndan":778,"Ġyol":779,"tr":780,"ĠbÃ¶l":781,"Ġinsan":782,"ÅŁtir":783,"ĠyÃ¼k":784,"ĠÃ¶nem":785,"Ġilk":786,"Ġok":787,"ĠaÃ§Ä±k":788,"Ä±p":789,"maktadÄ±r":790,"ĠbaÄŁ":791,"ÄŁu":792,"Ġhem":793,"ĠgÃ¶re":794,"Ġtarih":795,"sun":796,"Ġbiz":797,"ĠBaÅŁk":798,"Ġhizmet":799,"Ġdo":800,"ĠÅŁekil":801,"ĠeÄŁ":802,"Ġko":803,"lat":804,"aat":805,"Ãľ":806,"Ġhar":807,"Ġser":808,"ĠdeÄŁil":809,"Ġdurum":810,"Ġfark":811,"leÅŁ":812,"ĠsÃ¶y":813,"Ġiz":814,"ĠgerÃ§ek":815,"asyon":816,"liÄŁi":817,"ĠgÃ¶ster":818,"bilir":819,"uÅŁtur":820,"eyi":821,"Ġas":822,"enin":823,"larÄ±nÄ±n":824,"uh":825,"ran":826,"ĠseÃ§":827,"mesi":828,"aret":829,"Ġki":830,"ten":831,"ĠI":832,"ileri":833,"bir":834,"ĠolduÄŁu":835,"Ġder":836,"itim":837,"Ġiyi":838,"ÄŁini":839,"ebilir":840,"ĠKur":841,"Ġyet":842,"oz":843,"tik":844,"etir":845,"dur":846,"up":847,"Ä±mÄ±":848,"Ã¼v":849,"ĠkarÅŁÄ±":850,"alÄ±k":851,"anÄ±n":852,"Ġalt":853,"Ġya":854,"tÄ±k":855,"Ġmil":856,"Ã¼st":857,"Ġih":858,"Ġpar":859,"istem":860,"ĠÃ¶ÄŁren":861,"Ã¼zel":862,"nÄ±n":863,"Ġbilg":864,"Ġot":865,"re":866,"Ġsan":867,"Ġolma":868,"ĠtÃ¼m":869,"ĠÅŁekilde":870,"rÄ±":871,"ayan":872,"Ġyok":873,"olo":874,"nÄ±":875,"ret":876,"Ġgetir":877,"raf":878,"Ġilgili":879,"Ä±cÄ±":880,"ĠsÄ±r":881,"leÅŁtir":882,"bul":883,"ĠÃ¼l":884,"ĠAy":885,"larÄ±na":886,"Ġneden":887,"lerde":888,"ĠmÃ¼":889,"ĠEr":890,"iÄŁer":891,"erkez":892,"ĠyapÄ±l":893,"Ġtut":894,"ĠgÃ¶z":895,"aber":896,"Ġ6":897,"ĠsÃ¶z":898,"ulu":899,"Ġsahip":900,"ĠZ":901,"ocuk":902,"der":903,"esine":904,"ĠdÃ¼n":905,"Ġhas":906,"tar":907,"ĠdeÄŁer":908,"ĠÃ§ek":909,"Ġaz":910,"Ġdevam":911,"Ġ19":912,"Ġkaz":913,"ayÄ±n":914,"ka":915,"ĠdÃ¼zen":916,"Ġis":917,"ĠÄ°l":918,"han":919,"por":920,"Ã¼ven":921,"ob":922,"lendir":923,"Ġhaz":924,"stan":925,"dÄ±k":926,"lah":927,"Ġbin":928,"lerinin":929,"si":930,"ĠtaÅŁ":931,"ĠÄ°n":932,"oloj":933,"ĠÅŁey":934,"iyorum":935,"siz":936,"Ã§e":937,"Ġetti":938,"Ġsu":939,"ĠÃ¶nemli":940,"usu":941,"ĠBel":942,"ĠdÃ¼ÅŁÃ¼n":943,"Ã¼yor":944,"ĠolduÄŁunu":945,"Ġfaz":946,"Ãĸ":947,"ilik":948,"Ġsat":949,"ĠÃ¼lk":950,"Ġter":951,"ĠalÄ±n":952,"ehir":953,"lerine":954,"esini":955,"âĢ¦":956,"larÄ±nda":957,"ĠiÃ§er":958,"Ġbirlik":959,"eniz":960,"ĠiÃ§inde":961,"Ġsonu":962,"sÄ±z":963,"Ġbas":964,"ig":965,"dÃ¼":966,"Ã¼nde":967,"lÄ±ÄŁ":968,"sek":969,"iÅŁim":970,"gram":971,"stanbul":972,"Ġsun":973,"ĠgÃ¼zel":974,"Ġetm":975,"ĠarasÄ±nda":976,"Ġede":977,"Ġsit":978,"Ġfazla":979,"ĠkÄ±s":980,"ula":981,"Ġhayat":982,"alan":983,"201":984,"Ġduy":985,"Ã§a":986,"Ġtes":987,"Ġiki":988,"Ġada":989,"ĠÃ¶nce":990,"alarÄ±":991,"azÄ±":992,"ayÄ±":993,"Ġsistem":994,"ĠÃ¼rÃ¼n":995,"Ġkor":996,"ĠbaÅŁla":997,"Ä±ndaki":998,"dik":999,"gÃ¼n":1000,"Ġ7":1001,"ĠÃĸz":1002,"lardan":1003,"esin":1004,"ĠdÄ±ÅŁ":1005,"ide":1006,"ĠBak":1007,"ĠGen":1008,"ĠaÅŁ":1009,"Ġzor":1010,"Ġolur":1011,"ĠhazÄ±r":1012,"maz":1013,"Ã¶yle":1014,"Ġark":1015,"likle":1016,"Ġkab":1017,"Ġhat":1018,"Ġtan":1019,"ilecek":1020,"Ġhakk":1021,"rup":1022,"Ġtem":1023,"ĠÃ¶l":1024,"liÄŁ":1025,"bet":1026,"ilmesi":1027,"diÄŁi":1028,"ĠMÃ¼":1029,"ĠhiÃ§":1030,"eyen":1031,"Ġbek":1032,"mÄ±ÅŁtÄ±r":1033,"ĠyaptÄ±":1034,"Ġim":1035,"ne":1036,"ER":1037,"ivers":1038,"lÄ±ÄŁÄ±":1039,"ulan":1040,"Ãĩ":1041,"ub":1042,"Bu":1043,"osy":1044,"ĠAk":1045,"ĠdiÄŁer":1046,"tÃ¼r":1047,"Ġgelen":1048,"iversit":1049,"Ġkonu":1050,"Ġdiye":1051,"Ġmes":1052,"Ġolmak":1053,"Ã¼p":1054,"ĠdÃ¶nem":1055,"eÄŁi":1056,"adece":1057,"Ġoyun":1058,"Ġkim":1059,"Ġbirlikte":1060,"uv":1061,"ledi":1062,"ye":1063,"Ġetk":1064,"asÄ±l":1065,"ĠaÄŁ":1066,"emek":1067,"ektir":1068,"ĠKar":1069,"Ġbur":1070,"ĠyapÄ±lan":1071,"cel":1072,"ĠfarklÄ±":1073,"ĠÃ¶r":1074,"Ġsaat":1075,"ĠaynÄ±":1076,"Ġdik":1077,"Ġeden":1078,"ilerin":1079,"ĠkÃ¶":1080,"asar":1081,"Ġboy":1082,"larla":1083,"dar":1084,"Ġ10":1085,"Ã¼nÃ¼":1086,"Ġ8":1087,"Ġbelirt":1088,"ĠiÅŁlem":1089,"olu":1090,"yor":1091,"oÅŁ":1092,"ĠeÅŁ":1093,"lerinde":1094,"iyon":1095,"Ġdil":1096,"Ã½":1097,"mektedir":1098,"ĠEn":1099,"AN":1100,"Ġolacak":1101,"Ġkazan":1102,"Ġdedi":1103,"Ã¼tÃ¼n":1104,"ket":1105,"ĠÃ§ocuk":1106,"Ġif":1107,"Ġyat":1108,"AR":1109,"malarÄ±":1110,"ĠiliÅŁ":1111,"ĠgÃ¼ven":1112,"ĠÄ°stanbul":1113,"hur":1114,"ĠgÃ¶rev":1115,"ana":1116,"ĠEÄŁ":1117,"Ġdest":1118,"og":1119,"adaÅŁ":1120,"Ġmal":1121,"ika":1122,"ĠPro":1123,"net":1124,"kÃ¼":1125,"Ġtama":1126,"ĠbÃ¶lg":1127,"ĠdoÄŁru":1128,"Ġkan":1129,"ĠÃ¼st":1130,"Ġ,":1131,"masÄ±nÄ±":1132,"ÄŁÃ¼":1133,"ort":1134,"nun":1135,"Ġtel":1136,"ici":1137,"ĠÃ¶nc":1138,"Ä±t":1139,"meye":1140,"na":1141,"iyoruz":1142,"layan":1143,"luk":1144,"Ġ:":1145,"Ġhaf":1146,"kan":1147,"ĠÃ§Ä±kar":1148,"ĠKon":1149,"kat":1150,"Ġmod":1151,"rak":1152,"Ġkendi":1153,"ĠgÃ¶rÃ¼n":1154,"ĠBaÅŁkanÄ±":1155,"orm":1156,"lak":1157,"Ġbulunan":1158,"eg":1159,"larÄ±mÄ±z":1160,"masÄ±na":1161,"Ä±zÄ±":1162,"eket":1163,"ĠdeÄŁiÅŁ":1164,"Ġtekn":1165,"isinde":1166,"Ġsadece":1167,"Ġkarar":1168,"ĠtÃ¼r":1169,"umhur":1170,"iyas":1171,"atÄ±":1172,"ileceÄŁ":1173,"Ġmak":1174,"Ġkit":1175,"sam":1176,"Ã¼ne":1177,"Ġsen":1178,"Ġkam":1179,"Ġmut":1180,"muÅŁ":1181,"ĠnasÄ±l":1182,"ĠBil":1183,"Ġhav":1184,"abilirsiniz":1185,"Ã®":1186,"ektÃ¶r":1187,"ahat":1188,"eme":1189,"ĠOr":1190,"Ġmad":1191,"ĠsÄ±k":1192,"Ġfiyat":1193,"esinin":1194,"ĠBeled":1195,"Ġ0":1196,"ĠÃľn":1197,"lÃ¼k":1198,"Ġfir":1199,"ĠeÄŁitim":1200,"Ġtab":1201,"Ġiht":1202,"ĠÄ°s":1203,"Ġer":1204,"Ġuygun":1205,"malÄ±":1206,"Ġkurul":1207,"mi":1208,"end":1209,"ing":1210,"Ġdav":1211,"ĠulaÅŁ":1212,"Ġsal":1213,"dÄ±ÄŁÄ±nÄ±":1214,"ĠÄ°ÅŁ":1215,"Ä±rak":1216,"laÅŁt":1217,"sÄ±":1218,"lerden":1219,"caÄŁ":1220,"ĠAv":1221,"usunda":1222,"Ġgit":1223,"ece":1224,"Ġgid":1225,"Ġ9":1226,"ĠyardÄ±m":1227,"diÄŁ":1228,"bar":1229,"ĠarkadaÅŁ":1230,"Ġce":1231,"Ġbun":1232,"okt":1233,"ĠW":1234,"Ġproj":1235,"Ġkr":1236,"ĠoluÅŁtur":1237,"gu":1238,"Ġeder":1239,"acaÄŁ":1240,"lanan":1241,"ĠgÃ¶n":1242,"Ġsav":1243,"gil":1244,"tÃ¼":1245,"ĠÃ§ev":1246,"Ġart":1247,"ĠJ":1248,"ĠGenel":1249,"uma":1250,"Ġem":1251,"unuz":1252,"van":1253,"Ġprogram":1254,"Ġbit":1255,"ĠÃ¼zere":1256,"ĠolmasÄ±":1257,"ĠyÃ¼ksek":1258,"ĠgerÃ§ekleÅŁtir":1259,"Ä±ÄŁ":1260,"Ġolduk":1261,"osyal":1262,"hal":1263,"tal":1264,"Ġbah":1265,"ĠbÄ±rak":1266,"enk":1267,"ov":1268,"Ġdikkat":1269,"ĠyÃ¼r":1270,"sal":1271,"Ġik":1272,"Ġmet":1273,"orum":1274,"Ġgenel":1275,"lerinden":1276,"mayÄ±":1277,"leme":1278,"iliyor":1279,"ĠgÃ¼Ã§":1280,"irket":1281,"inizi":1282,"lerle":1283,"ĠkadÄ±n":1284,"duÄŁu":1285,"elerin":1286,"ĠÃ¼zerine":1287,"anda":1288,"ĠMil":1289,"Ġ200":1290,"ĠÃ¼y":1291,"fa":1292,"Ġmerkez":1293,"Ġpay":1294,"mayan":1295,"Ġdem":1296,"Ã¼mÃ¼z":1297,"Ġedilm":1298,"oÄŁlu":1299,"lenen":1300,"ĠyÄ±lÄ±nda":1301,"ri":1302,"ĠMÃ¼dÃ¼r":1303,"kÄ±":1304,"larÄ±ndan":1305,"Ġte":1306,"gel":1307,"ĠâĢĺ":1308,"aba":1309,"aÅŁtÄ±r":1310,"Ġbiri":1311,"ent":1312,"ĠÃ¼zerinde":1313,"ge":1314,"Ġ'":1315,"ĠkonuÅŁ":1316,"ĠEk":1317,"Ġkayn":1318,"ĠoluÅŁ":1319,"onom":1320,"aj":1321,"lum":1322,"urt":1323,"eti":1324,"ĠBaÅŁ":1325,"Ġ15":1326,"Ġdestek":1327,"lerimiz":1328,"Ġfa":1329,"rÄ±ca":1330,"ĠkaÃ§":1331,"ĠgeÃ§ir":1332,"ĠÃľniversit":1333,"umuz":1334,"Ä±lÄ±r":1335,"vur":1336,"Ġsorun":1337,"ĠbÃ¼tÃ¼n":1338,"ĠTek":1339,"Ġdin":1340,"Ä±rÄ±m":1341,"ali":1342,"ĠhÄ±z":1343,"Ã§Ä±":1344,"Ġhareket":1345,"ĠÃ§Ã¶z":1346,"ant":1347,"efon":1348,"ĠbÃ¶lÃ¼m":1349,"Ġuzun":1350,"edik":1351,"tif":1352,"ĠYÃ¶n":1353,"Ġbile":1354,"las":1355,"Ã§i":1356,"ĠEs":1357,"ĠhakkÄ±nda":1358,"ile":1359,"elim":1360,"Ġkolay":1361,"Ġfilm":1362,"Ġtamam":1363,"Ġtasar":1364,"Ġihtiy":1365,"Ġmuh":1366,"Ä±ldÄ±":1367,"Ġtam":1368,"Ġanlam":1369,"manÄ±n":1370,"rar":1371,"ĠkÄ±z":1372,"acÄ±":1373,"Ä±lmasÄ±":1374,"rik":1375,"ĠCumhur":1376,"Ä±lacak":1377,"Ġres":1378,"tÄ±m":1379,"ĠbazÄ±":1380,"gan":1381,"Ä±lÄ±m":1382,"Ġkabul":1383,"ĠKan":1384,"Ġyay":1385,"ĠÃ¼n":1386,"ĠteÅŁ":1387,"azar":1388,"ĠAllah":1389,"mer":1390,"ĠbaÅŁka":1391,"Ġkom":1392,"Ġkes":1393,"ank":1394,"ĠsaÄŁla":1395,"Ã¼ltÃ¼r":1396,"Ġyas":1397,"ĠBur":1398,"Ġoyn":1399,"ĠSon":1400,"Ġortaya":1401,"ĠsÄ±":1402,"Ã¼Ã§Ã¼k":1403,"Ã¼nkÃ¼":1404,"ĠÃ¼Ã§":1405,"anlÄ±ÄŁÄ±":1406,"akat":1407,"dum":1408,"Ġifade":1409,"Ä±nÄ±r":1410,"yla":1411,"ĠÃ¶ÄŁrenc":1412,"ĠBÃ¶l":1413,"ver":1414,"ĠGÃ¼n":1415,"Ġmev":1416,"ĠbaÅŁar":1417,"istan":1418,"gÄ±":1419,"Ġun":1420,"Ġseb":1421,"indeki":1422,"meler":1423,"Ã§ok":1424,"Ġkoy":1425,"ĠgÃ¶rÃ¼ÅŁ":1426,"ĠÃ¼ret":1427,"Ġsonr":1428,"siyon":1429,"ĠBen":1430,"Ġ20":1431,"ĠgeliÅŁ":1432,"Ã¶k":1433,"dÄ±ndan":1434,"Ġediyor":1435,"oÄŁraf":1436,"mam":1437,"min":1438,"Ġbilgi":1439,"Ġplan":1440,"res":1441,"Ġhast":1442,"Ġedilen":1443,"ĠyaÅŁam":1444,"eÅŁit":1445,"Ġbey":1446,"ĠdÃ¼ny":1447,"Ġkapsam":1448,"arasÄ±":1449,"Ġw":1450,"Ġ12":1451,"Ġhep":1452,"Ġ#":1453,"ĠyÃ¼zde":1454,"suz":1455,"oh":1456,"trol":1457,"ern":1458,"ĠSan":1459,"Ġ/":1460,"ĠgÃ¶nder":1461,"tem":1462,"ĠyayÄ±n":1463,"ber":1464,"Ġtah":1465,"sanÄ±z":1466,"ĠkiÅŁi":1467,"ĠEv":1468,"com":1469,"Ġhaber":1470,"Ġpol":1471,"Ġziy":1472,"ĠYar":1473,"ET":1474,"sin":1475,"ediÄŁ":1476,"Ġhan":1477,"isini":1478,"Ġmi":1479,"Ġhes":1480,"Ġrahat":1481,"Ġayr":1482,"nde":1483,"ize":1484,"ĠÃ§alÄ±ÅŁmalar":1485,"miÅŁtir":1486,"ĠaraÃ§":1487,"bol":1488,"ĠyakÄ±n":1489,"ĠAt":1490,"Ġyapan":1491,"kara":1492,"Ġkalit":1493,"Ġtelefon":1494,"asÄ±na":1495,"Ġ|":1496,"Ġolay":1497,"duÄŁ":1498,"gin":1499,"ĠTar":1500,"Ġam":1501,"mir":1502,"Ġ%":1503,"Ã¼cret":1504,"ĠAma":1505,"Ġtal":1506,"isine":1507,"per":1508,"Ġolabilir":1509,"Ġuygula":1510,"Ġbenim":1511,"ĠiÃ§erisinde":1512,"ĠYap":1513,"nda":1514,"dim":1515,"Ġkurum":1516,"TÃ¼rk":1517,"ĠÃ¼cret":1518,"madan":1519,"Ġyerine":1520,"ĠDev":1521,"ĠPar":1522,"ĠÅŁirket":1523,"Ġterc":1524,"ternet":1525,"ekli":1526,"tiÄŁ":1527,"undan":1528,"ĠbaÅŁvur":1529,"tur":1530,"ĠdeÄŁerlendir":1531,"edef":1532,"dav":1533,"mez":1534,"ĠÅŁu":1535,"Ġkav":1536,"Ġtur":1537,"Äŀ":1538,"ĠyaklaÅŁ":1539,"ĠdÃ¼nya":1540,"Ġkonusunda":1541,"landÄ±r":1542,"),":1543,"ĠYÄ±l":1544,"ĠAB":1545,"rupa":1546,"ĠsaÄŁlÄ±k":1547,"oÄŁan":1548,"Ġancak":1549,"ĠsonuÃ§":1550,"Ã¼kÃ¼m":1551,"ĠMerkez":1552,"uÄŁ":1553,"ĠÃľniversitesi":1554,"ĠardÄ±ndan":1555,"Ġla":1556,"Ã¼ÅŁt":1557,"Ġbilin":1558,"ele":1559,"ĠEl":1560,"Ġdolay":1561,"cek":1562,"EN":1563,"Ä±yorum":1564,"det":1565,"ĠbÃ¶yle":1566,"tÄ±ÄŁ":1567,"Ġerk":1568,"ekte":1569,"ĠÃ§eÅŁit":1570,"LÄ°":1571,"sik":1572,"ilere":1573,"ĠHer":1574,"ĠbÃ¼y":1575,"ĠAs":1576,"Ã¼nÃ¼n":1577,"ĠbaÄŁlÄ±":1578,"ĠvardÄ±r":1579,"ekten":1580,"ĠEÄŁitim":1581,"amaz":1582,"etmen":1583,"azet":1584,"ĠkÄ±r":1585,"Ġanlat":1586,".âĢĿ":1587,"ĠSer":1588,"iyesi":1589,"erli":1590,"Ġmilyon":1591,"uslar":1592,"uluk":1593,"leyen":1594,"Ġinan":1595,"Ġetmek":1596,"erj":1597,"aliyet":1598,"yacak":1599,"Ä±ÅŁÄ±":1600,"Ġiti":1601,"nek":1602,"Ġisim":1603,"ï¿½ï¿½":1604,"lÄ±yor":1605,"Ġserv":1606,"Ġ2018":1607,"Ġait":1608,"ĠBÃ¼yÃ¼k":1609,"ĠsektÃ¶r":1610,"Ġziyaret":1611,"imdi":1612,"Ġdevlet":1613,"Ã¼b":1614,"Ä±da":1615,"Ġyarat":1616,"ust":1617,"ĠAncak":1618,"unca":1619,"Ġadam":1620,"Bir":1621,"'t":1622,"ĠbugÃ¼n":1623,"Ġmey":1624,"19":1625,"akk":1626,"oÄŁu":1627,"sil":1628,"Ġman":1629,"Ġber":1630,"ĠÃĸzel":1631,"Ġdiy":1632,"Ġindir":1633,"ekk":1634,"Ġmer":1635,"ĠgenÃ§":1636,"umu":1637,"Ġses":1638,"ari":1639,"ĠÃ¶de":1640,"ĠgÃ¶rÃ¼l":1641,"Ġtoplan":1642,"Ġmodel":1643,"ĠbirÃ§ok":1644,"ĠâĢĵ":1645,"10":1646,"lim":1647,"ilmiÅŁ":1648,"Ġyen":1649,"uyu":1650,"Ġkontrol":1651,"Ä±lmÄ±ÅŁ":1652,"Ġkez":1653,"ĠgÃ¼nÃ¼":1654,"oÄŁun":1655,"Ġtercih":1656,"ĠgeliÅŁtir":1657,"ĠyÃ¶netim":1658,"lo":1659,"alt":1660,"Ġitibar":1661,"Ġtat":1662,"Ġgelir":1663,"Ä±nÄ±f":1664,"ast":1665,"ĠartÄ±k":1666,"Ġgeldi":1667,"Ġvur":1668,"ĠBiz":1669,"uÅŁtu":1670,"obil":1671,"yÄ±":1672,"Ġsize":1673,"ĠyaptÄ±ÄŁÄ±":1674,"Ġolup":1675,"lÃ¼ÄŁÃ¼":1676,"oloji":1677,"ĠkÄ±sa":1678,"Ġhemen":1679,"Ġhedef":1680,"Ġ18":1681,"tÄ±ÄŁÄ±":1682,"Ġders":1683,"kinci":1684,"he":1685,"ĠyanÄ±":1686,"ĠTem":1687,"ĠpaylaÅŁ":1688,"Ġvat":1689,"Ġdah":1690,"Ġdiz":1691,"ĠMah":1692,"ĠTop":1693,"ince":1694,"Ġincel":1695,"ĠaraÅŁtÄ±r":1696,"kÃ¼n":1697,"anlar":1698,"adÄ±":1699,"ebilirsiniz":1700,"Ã¼sÃ¼":1701,"otoÄŁraf":1702,"Ġ[":1703,"Ã¼cad":1704,"laÅŁtÄ±r":1705,"ĠHal":1706,"ĠaÃ§Ä±kla":1707,"Ġmem":1708,"Ġe":1709,"ĠgeÃ§en":1710,"Ġkaynak":1711,"sunuz":1712,"Ġyapmak":1713,"ĠaltÄ±nda":1714,"AK":1715,"ĠilÃ§":1716,"ĠDÃ¼n":1717,"ĠDr":1718,"--":1719,"ÂĴ":1720,"Ġkol":1721,"Ġtav":1722,"ud":1723,"alama":1724,"Ġyine":1725,"ĠsÃ¶yledi":1726,"duk":1727,"Ġkir":1728,"SÄ°":1729,"Ġhis":1730,"ĠAvrupa":1731,"mem":1732,"Ġtoplum":1733,"ĠyaÅŁan":1734,"Ġsosyal":1735,"Ä±nav":1736,"Ġtemiz":1737,"ĠseÃ§im":1738,"ĠsÄ±nÄ±r":1739,"Ġtr":1740,"Ġekonom":1741,"Ġgeri":1742,"Ġolsun":1743,"iyi":1744,"Ä±yoruz":1745,"edim":1746,"Ġkil":1747,"za":1748,"AL":1749,"Ä±ma":1750,"ĠmÃ¼ÅŁt":1751,"ale":1752,"aban":1753,".\"":1754,"asÄ±nÄ±":1755,"Ġmadde":1756,"ĠÂ":1757,"ost":1758,"isyon":1759,"Ġherk":1760,"ĠkÃ¼Ã§Ã¼k":1761,"gÄ±n":1762,"ĠmÃ¼m":1763,"ĠOn":1764,"ĠTL":1765,"baÅŁk":1766,"tiv":1767,"ĠÄ°Ã§":1768,"An":1769,"ĠyaÄŁ":1770,"isinin":1771,"ecektir":1772,"ĠHaz":1773,"ĠmÄ±":1774,"Ġzamanda":1775,"ĠÃĸÄŁr":1776,"ĠyÃ¶net":1777,"ĠÄ°z":1778,"Ġzar":1779,"ĠhiÃ§bir":1780,"abÄ±":1781,"Ġilet":1782,"Ġmark":1783,"ĠfÄ±r":1784,"bu":1785,"Ġmas":1786,"ĠsÃ¼re":1787,"Ġdir":1788,"ĠmaÃ§":1789,"Ġokul":1790,"Ġ11":1791,"andaÅŁ":1792,"Ġnum":1793,"Ġid":1794,"Ġli":1795,"Ġonun":1796,"Ġbenz":1797,"Ġsab":1798,"Ġkitap":1799,"Ġfaaliyet":1800,"Ġgereken":1801,"amp":1802,"hangi":1803,"ilmek":1804,"ĠÃ¼zerinden":1805,"Ġbar":1806,"Ġrenk":1807,"Ġsoru":1808,"br":1809,"Ġbunu":1810,"Ġcev":1811,"tiÄŁi":1812,"Ġbildir":1813,"ĠuÃ§":1814,"Ä±ntÄ±":1815,"ĠtakÄ±m":1816,"Ġveren":1817,"asÄ±nÄ±n":1818,"cÃ¼":1819,"ĠdeÄŁiÅŁik":1820,"imizin":1821,"ch":1822,"elen":1823,"Ġerkek":1824,"Ġetkin":1825,"ĠmÃ¼z":1826,"umlu":1827,"dÄ±n":1828,"ĠtanÄ±":1829,"manÄ±z":1830,"Ġpara":1831,"ag":1832,"uslararasÄ±":1833,"erÃ§":1834,"tim":1835,"ĠÃĸn":1836,"dana":1837,"Ġhalk":1838,"ayet":1839,"for":1840,"Ġuygu":1841,"Ġpek":1842,"Ġdak":1843,"din":1844,"Ġanla":1845,"50":1846,"fer":1847,"ĠoldukÃ§a":1848,"Ġadet":1849,"Ġ14":1850,"masÄ±nÄ±n":1851,"uyla":1852,"ĠOk":1853,"ĠKal":1854,"ÅŁte":1855,"ĠAnkara":1856,"tin":1857,"ĠmÃ¼mkÃ¼n":1858,"lemek":1859,"Ġsak":1860,"ĠÃ¼retim":1861,"Ä±sÄ±nda":1862,"AT":1863,"ãģ":1864,"ĠdeÄŁiÅŁtir":1865,"Ġhafta":1866,"yan":1867,"ĠÃ¶zellik":1868,"Ġtakip":1869,"lÃ¼l":1870,"ĠiliÅŁkin":1871,"ĠÃ§alÄ±ÅŁan":1872,"Ġmu":1873,"Ġeski":1874,"Ġberaber":1875,"Ġnokt":1876,"Ġsey":1877,"Ġul":1878,"rim":1879,"bak":1880,"ĠEy":1881,"ÂŃ":1882,"ĠÅŁeh":1883,"Ġper":1884,"malÄ±dÄ±r":1885,"Ġ.":1886,"ĠyapÄ±":1887,"ĠyÃ¶nelik":1888,"alarÄ±n":1889,"Ã¼mÃ¼":1890,"doÄŁan":1891,"Ġele":1892,"ĠmÃ¼cad":1893,"âĢľ":1894,"ĠKay":1895,"Ġsiyas":1896,"ola":1897,"ĠhÃ¼kÃ¼m":1898,"ĠÃ§aÄŁ":1899,"ĠiliÅŁk":1900,"iyeti":1901,"ron":1902,"larÄ±yla":1903,"Ġtekrar":1904,"ĠkaldÄ±r":1905,"ĠÃ¶lÃ§":1906,"000":1907,"Ġuygulan":1908,"ĠsavaÅŁ":1909,"imde":1910,"Ġbiraz":1911,"Ġbirbir":1912,"Ġorta":1913,"ni":1914,"sman":1915,"Ġengel":1916,"muz":1917,"Ġnedeniyle":1918,"Ġmillet":1919,"lÃ¼ÄŁ":1920,"Ġkonusu":1921,"ĠKo":1922,"ĠKas":1923,"Ġtemel":1924,"Ġ13":1925,"elere":1926,"Ġuzak":1927,"ĠVe":1928,"ĠBaÅŁkan":1929,"ĠÃ§alÄ±ÅŁma":1930,"Ġ16":1931,"Ġbizim":1932,"ĠABD":1933,"ĠanlaÅŁ":1934,"ĠaÄŁÄ±r":1935,"Ġalmak":1936,"ĠTur":1937,"esel":1938,"of":1939,"Ġverm":1940,"rat":1941,"Ġmik":1942,"Ġonu":1943,"Ä°N":1944,"Ġ30":1945,"Ġyorum":1946,"Ġoluyor":1947,"yle":1948,"lek":1949,"ime":1950,"esinden":1951,"Ġkesin":1952,"ĠsÄ±ra":1953,"ren":1954,"12":1955,"Ġbana":1956,"elerini":1957,"ukuk":1958,"imizi":1959,"ĠbaÅŁladÄ±":1960,"Ã¼f":1961,"Ġfay":1962,"ker":1963,"Ġtedav":1964,"eyin":1965,"Ġbor":1966,"ĠtÃ¼k":1967,"vet":1968,"izm":1969,"muÅŁtur":1970,"taj":1971,"alat":1972,"ĠKom":1973,"elerde":1974,"ilerine":1975,"Ġspor":1976,"tu":1977,"Ġistem":1978,"ĠaÅŁaÄŁÄ±":1979,"ani":1980,"deÅŁ":1981,"Ġsek":1982,"Ġherhangi":1983,"Ġbay":1984,"ohbet":1985,"ĠÃ¶zellikle":1986,"ĠKul":1987,"IN":1988,"ekkÃ¼r":1989,"azi":1990,"ĠBunun":1991,"Ġ2017":1992,"Ġelde":1993,"bi":1994,"ĠvatandaÅŁ":1995,"Ġgerekli":1996,"pr":1997,"ĠyÃ¶ntem":1998,"sÄ±nÄ±z":1999,"Ġedildi":2000,"Ġmah":2001,"ĠgiriÅŁ":2002,"ilerini":2003,"ĠBelediye":2004,"lardÄ±r":2005,"ĠUy":2006,"alÄ±m":2007,"Ġotur":2008,"itik":2009,"Ġinternet":2010,"eÄŁin":2011,"Ġsar":2012,"ĠOy":2013,"Ġsanat":2014,"ĠHay":2015,"Ġbunun":2016,"ĠYeni":2017,"icaret":2018,"LER":2019,"alet":2020,"ĠBay":2021,"Ã¼nden":2022,"sat":2023,"ĠkoÅŁ":2024,"Ġboz":2025,"ÅŁehir":2026,"apor":2027,"inize":2028,"ĠboÅŁ":2029,"dak":2030,"ift":2031,"Ġdair":2032,"Ġsil":2033,"leriyle":2034,"Ã¼cÃ¼":2035,"imize":2036,"ĠgeniÅŁ":2037,"ĠKad":2038,"ĠkapsamÄ±nda":2039,"Ã¼lt":2040,"ĠBey":2041,"ĠyatÄ±rÄ±m":2042,"inci":2043,"Ġolmayan":2044,"Ġortam":2045,"any":2046,"ĠfotoÄŁraf":2047,"HP":2048,"isay":2049,"ve":2050,"ĠÅŁehir":2051,"ĠGÃ¶r":2052,"ĠAyrÄ±ca":2053,"ĠÅŁekl":2054,"ĠparÃ§":2055,"onu":2056,"ilmektedir":2057,"Ġlis":2058,"Ġgerekir":2059,"ĠayrÄ±":2060,"ĠHas":2061,"ĠÃ¶rg":2062,"afa":2063,"Ġaday":2064,"Ġyal":2065,"Ġyeniden":2066,"etay":2067,"eyim":2068,"vek":2069,"Ġkut":2070,"cut":2071,"ĠTekn":2072,"Ġbelg":2073,"ĠkÃ¼ltÃ¼r":2074,"ĠadÄ±":2075,"Ã¼ÄŁ":2076,"Ġortak":2077,"Ġgez":2078,"avaÅŁ":2079,"TÃ¼rkiye":2080,"MA":2081,"Ã»":2082,"Ġgrup":2083,"caÄŁÄ±":2084,"Ġelekt":2085,"ow":2086,"efer":2087,"eci":2088,"meli":2089,"Ġaras":2090,"ĠsatÄ±ÅŁ":2091,"ĠdolayÄ±":2092,"ĠdeÄŁildir":2093,"ĠÃ§Ä±kan":2094,"Ġmed":2095,"Ġekip":2096,"Ġsayf":2097,"ĠSay":2098,"ĠamaÃ§":2099,"Ġ17":2100,"ĠbaÄŁlan":2101,"Ġner":2102,"ĠÃ§iz":2103,"ĠÃ§evr":2104,"Ġail":2105,"dÃ¼l":2106,"Ġdol":2107,"Ġoran":2108,"Ġdok":2109,"ĠÅŁart":2110,"ĠraÄŁ":2111,"Ġrek":2112,"Ġoda":2113,"dÃ¼ÄŁ":2114,"ĠÄ°ngil":2115,"ĠdÄ±ÅŁÄ±nda":2116,"ĠAh":2117,"Ġgec":2118,"Ġcih":2119,"erson":2120,"Ä°R":2121,"matik":2122,"ĠÃ§Ã¶zÃ¼m":2123,"ĠihtiyaÃ§":2124,"ĠÅŀub":2125,"20":2126,"ĠyÃ¼ksel":2127,"be":2128,"ĠinÅŁ":2129,"can":2130,"kil":2131,"ĠAK":2132,"arken":2133,"masÄ±nda":2134,"11":2135,"larÄ±nÄ±z":2136,"Ä±sÄ±ndan":2137,"ĠbakÄ±m":2138,"Ġac":2139,"esiyle":2140,"Ġyarar":2141,"mat":2142,"ÅŁam":2143,"Ġyani":2144,"ĠKap":2145,"ĠalÄ±ÅŁ":2146,"landÄ±":2147,"ĠSaÄŁ":2148,"Ġisteyen":2149,"Ġvide":2150,"ĠÃ¶ner":2151,"ĠhÄ±zlÄ±":2152,"Ġikinci":2153,"Ġbayan":2154,"enek":2155,"ĠYÃ¶netim":2156,"ĠkayÄ±t":2157,"Ġhesap":2158,"anlÄ±ÄŁ":2159,"Ġhalinde":2160,"Ġmek":2161,"zem":2162,"aten":2163,"su":2164,"Ġamac":2165,"ĠgerÃ§ekleÅŁ":2166,"ĠÃĩÃ¼nkÃ¼":2167,"Ġburada":2168,"ĠsÃ¼rdÃ¼r":2169,"Ġbilm":2170,"Ä±lÄ±yor":2171,"Ġuzman":2172,"ĠraÄŁmen":2173,"ĠkuruluÅŁ":2174,"lÄ±nda":2175,"ĠsuÃ§":2176,"ĠBelediyesi":2177,"ĠDevlet":2178,"lis":2179,"Ġgider":2180,"izi":2181,"isayar":2182,"Ġtalep":2183,"ĠOt":2184,"enc":2185,"Ġtarihi":2186,"ĠKurulu":2187,"30":2188,"EK":2189,"Ġorgan":2190,"Ġteknik":2191,"Ġcin":2192,"ĠAd":2193,"ĠaÃ§Ä±klama":2194,"ĠTr":2195,"ite":2196,"ĠHav":2197,"Ġsizin":2198,"Ġkah":2199,"cÄ±sÄ±":2200,"tep":2201,"ĠyapÄ±lacak":2202,"uvar":2203,"ĠÃ§eÅŁitli":2204,"ĠsaldÄ±r":2205,"emin":2206,"Ä±rÄ±":2207,"abancÄ±":2208,"ĠNe":2209,"ĠErdoÄŁan":2210,"ĠUz":2211,"ĠDo":2212,"Ġdayan":2213,"ĠEm":2214,"pit":2215,"Ġsok":2216,"Ġcan":2217,"Ġiddi":2218,"cÄ±lÄ±k":2219,"ĠkullanÄ±cÄ±":2220,"akl":2221,"mal":2222,"Ä±rken":2223,"Ġ24":2224,"ĠGel":2225,"mÄ±ÅŁtÄ±":2226,"Ä±ÅŁtÄ±r":2227,"dem":2228,"ediÄŁi":2229,"ĠÄ°lk":2230,"Ġ...":2231,"luluk":2232,"ĠkÄ±sm":2233,").":2234,"ĠiÅŁlet":2235,"ĠbaÅŁk":2236,"Ġhiss":2237,"ĠDÃ¼nya":2238,"Ã¶rt":2239,"lk":2240,"isk":2241,"ĠOsman":2242,"ĠyoÄŁun":2243,"nÄ±z":2244,"Ġhey":2245,"ira":2246,"Ġtoplam":2247,"lilik":2248,"Ġedil":2249,"Ġboyunca":2250,"meyi":2251,"ĠHar":2252,"Ġverdi":2253,"ĠtÃ¼rlÃ¼":2254,"Ġsayesinde":2255,"Ä±nca":2256,"Ġister":2257,"ĠMeh":2258,"ĠtÄ±k":2259,"Ġ25":2260,"abileceÄŁ":2261,"Ġenerj":2262,"ãģĤ":2263,"sÄ±n":2264,"ĠÃ§ar":2265,"ĠkullanÄ±l":2266,"ĠyardÄ±mcÄ±":2267,"ĠsayÄ±lÄ±":2268,"ĠDaha":2269,"talya":2270,"Ġmez":2271,"ĠMar":2272,"ere":2273,"Ġpat":2274,"Ġuygulama":2275,"ãģĤãģĤ":2276,"Ġistiyor":2277,"ĠteÅŁekkÃ¼r":2278,"adde":2279,"adolu":2280,"Ġedin":2281,"utbol":2282,"ĠkÃ¶y":2283,"Ġbeni":2284,"Ġolab":2285,"ĠsÄ±nÄ±f":2286,"meden":2287,"Ġsahibi":2288,"Ġyemek":2289,"Ä±yÄ±":2290,"Ġmevcut":2291,"luÄŁ":2292,"elerinin":2293,"Ġhava":2294,"ĠMuh":2295,"Ġteh":2296,"ĠsÄ±nav":2297,"emi":2298,"Ġverilen":2299,"ate":2300,"Ġsohbet":2301,"Ġunut":2302,"Ġkas":2303,"olojik":2304,"Ġï¿½":2305,"ĠsÄ±cak":2306,"Ã¼len":2307,"ladÄ±":2308,"ĠsÃ¼rekli":2309,"gun":2310,"ĠUl":2311,"Ã¼ler":2312,"ĠuÄŁr":2313,"ĠDem":2314,"Ġzarar":2315,"uan":2316,"bo":2317,"Ġ2016":2318,"ĠYÃ¼k":2319,"Ã¾":2320,"ĠSu":2321,"ĠyaklaÅŁÄ±k":2322,"Ġdurumda":2323,"lÃ¢":2324,"ilerinin":2325,"taÅŁ":2326,"ĠSur":2327,"Ġbize":2328,"Ġolsa":2329,"Ġederek":2330,"tay":2331,"ba":2332,"EM":2333,"Ä±nÄ±zÄ±":2334,"etin":2335,"Ġey":2336,"tiÄŁini":2337,"Ġav":2338,"AS":2339,"ĠDeÄŁ":2340,"Ġkork":2341,"ĠbiÃ§":2342,"Ġanda":2343,"ĠaldÄ±":2344,"Ġdar":2345,"Al":2346,"ener":2347,"yar":2348,"ĠyÃ¼rÃ¼t":2349,"ĠMillet":2350,"cort":2351,"air":2352,"ĠYayÄ±n":2353,"asyonu":2354,"2018":2355,"ĠtasarÄ±m":2356,"ĠdoÄŁr":2357,"ĠKasÄ±m":2358,"Ġle":2359,"alarda":2360,"ĠsaÃ§":2361,"ij":2362,"Ġof":2363,"Ġst":2364,"Ġdahil":2365,"Ä±ÅŁma":2366,"ĠAÃ§":2367,"ĠdÃ¶nÃ¼ÅŁ":2368,"Ġj":2369,"Ġmen":2370,"makta":2371,"ĠadÄ±m":2372,"ĠParti":2373,"mesini":2374,"ĠyanÄ±nda":2375,"Ġtarihinde":2376,"Ä±ÅŁÄ±k":2377,"iran":2378,"imleri":2379,"Ġhangi":2380,"ĠAli":2381,"Ġsez":2382,"ebek":2383,"Ġtespit":2384,"Ġhale":2385,"usal":2386,"Ġvak":2387,"Ġiy":2388,"Ġgiy":2389,"ĠAb":2390,"UR":2391,"ĠdoÄŁal":2392,"ĠolacaktÄ±r":2393,"AY":2394,"Ġmakin":2395,"Ġdetay":2396,"lif":2397,"dam":2398,"AB":2399,"fak":2400,"lÃ¼m":2401,"Ġsebep":2402,"Ġpazar":2403,"ĠSÃ¶z":2404,"ĠRus":2405,"EL":2406,"sak":2407,"fet":2408,"ĠÃĸr":2409,"Ġnedenle":2410,"ĠMÃ¼dÃ¼rlÃ¼ÄŁÃ¼":2411,"Ġdavran":2412,"ayi":2413,"mel":2414,"evi":2415,"ĠMerkezi":2416,"iliÄŁi":2417,"Ġtemsil":2418,"Ġbab":2419,"Ġgazet":2420,"ĠkullanÄ±m":2421,"ĠyaptÄ±r":2422,"liyor":2423,"ĠDoÄŁ":2424,"ĠyÄ±k":2425,"Ġservis":2426,"Ġmesaj":2427,"Ġ100":2428,"ĠkardeÅŁ":2429,"ĠsaÄŁlan":2430,"Ġtep":2431,"Ġip":2432,"ĠistediÄŁ":2433,"ĠTemmuz":2434,"ĠettiÄŁi":2435,"ĠDern":2436,"ilerek":2437,"ĠÅŁeklinde":2438,"Ġnit":2439,"Ġbilgiler":2440,"Ġcevap":2441,"Ġana":2442,"ĠRes":2443,"ĠadÄ±na":2444,"bah":2445,"lin":2446,"Ġyurt":2447,"ĠiletiÅŁim":2448,"mesine":2449,"ĠHat":2450,"elerine":2451,"ĠMay":2452,"Ġona":2453,"Ã¼le":2454,"ĠBakanlÄ±ÄŁÄ±":2455,"Ġkamp":2456,"ĠcanlÄ±":2457,"emizde":2458,"ĠÃ¼niversit":2459,"Ġrak":2460,"ĠmaÄŁ":2461,"iri":2462,"oktor":2463,"Ġkamu":2464,"ĠhatÄ±r":2465,"alarÄ±nda":2466,"ĠtanÄ±m":2467,"abilecek":2468,"ĠEylÃ¼l":2469,"Ġiler":2470,"fes":2471,"ĠmÃ¼ÅŁter":2472,"Ġcihaz":2473,"ĠAlman":2474,"caÄŁÄ±nÄ±":2475,"ĠMehmet":2476,"atif":2477,"Ġann":2478,"ĠvÃ¼c":2479,"otor":2480,"ĠbaÅŁvuru":2481,"Ä±sÄ±yla":2482,"tÃ¶r":2483,"ĠAmer":2484,"Ġbeklen":2485,"ustafa":2486,"osu":2487,"ĠÃľr":2488,"ĠdÃ¼zenlenen":2489,"kaÃ§":2490,"Ġcam":2491,"ww":2492,"ĠKor":2493,"ucu":2494,"Ġef":2495,"lÄ±ÅŁ":2496,"Ġpart":2497,"ĠartÄ±r":2498,"Ġrapor":2499,"ediye":2500,"ĠYardÄ±m":2501,"gisi":2502,"rafik":2503,"ĠÃ¶rnek":2504,"lamak":2505,"Ä±sÄ±nÄ±":2506,"ĠaÃ§Ä±sÄ±ndan":2507,"ĠBun":2508,"Ã¢n":2509,"Ġfik":2510,"Ġkonuda":2511,"ĠÃ¶zg":2512,"Ġsig":2513,"Ġah":2514,"Ã¼ncÃ¼":2515,"ĠAnadolu":2516,"ĠCumhurbaÅŁk":2517,"Ä°n":2518,"ĠkullanÄ±lan":2519,"isel":2520,"Ġit":2521,"Ġkalan":2522,"ĠsÄ±rasÄ±nda":2523,"layarak":2524,"izyon":2525,"Ġhik":2526,"ĠMal":2527,"ii":2528,"15":2529,"ON":2530,"eceÄŁi":2531,"Ġlist":2532,"Ġgerekiyor":2533,"ĠyazÄ±":2534,"Ġkalk":2535,"dÄ±ÄŁÄ±mÄ±z":2536,"Ġbelli":2537,"Ġedeb":2538,"inc":2539,"Ġitibaren":2540,"lendi":2541,"lanmÄ±ÅŁ":2542,"ser":2543,"mey":2544,"Ben":2545,"anÄ±ÅŁ":2546,"Ġtart":2547,"ĠterÃ¶r":2548,"Ġcid":2549,"ormal":2550,"Ġgeliyor":2551,"luÄŁu":2552,"ĠÅŁÃ¶yle":2553,"Ġbaz":2554,"ilmiÅŁtir":2555,"Ġsistemi":2556,"menin":2557,"Ar":2558,"amak":2559,"LAR":2560,"eder":2561,"Ġbilim":2562,"ind":2563,"Ġsizi":2564,"Ġruh":2565,"aÅŁÄ±":2566,"Ġnumar":2567,"Ġsonucu":2568,"ĠHak":2569,"ĠÄ°st":2570,"AD":2571,"all":2572,"mamÄ±z":2573,"yum":2574,"Ġnet":2575,"meleri":2576,"line":2577,"ĠyaptÄ±ÄŁ":2578,"ĠbaÅŁarÄ±lÄ±":2579,"ĠVer":2580,"rac":2581,"ĠDer":2582,"Ġperson":2583,"ĠSpor":2584,"ĠÃ§oc":2585,"ĠEkim":2586,"isan":2587,"iliÄŁ":2588,"Ġcez":2589,"ĠEÄŁer":2590,"meyen":2591,"gam":2592,"ĠÃ¶ÄŁretmen":2593,"Ġilan":2594,"Ġsonunda":2595,"mayacak":2596,"ĠkiÅŁinin":2597,"ĠiÅŁaret":2598,"Ġdal":2599,"oda":2600,"ĠkonuÅŁtu":2601,"Ġab":2602,"Ġkapat":2603,"Ġzorunda":2604,"ova":2605,"ST":2606,"ĠkÄ±":2607,"elerinde":2608,"amÄ±z":2609,"arkÄ±":2610,"Ġoper":2611,"ĠbulunduÄŁu":2612,"kem":2613,"Ġ2015":2614,"siy":2615,"ĠTak":2616,"ĠkarÅŁÄ±la":2617,"Ä°M":2618,"elikle":2619,"ĠOl":2620,"ĠvardÄ±":2621,"mÃ¼ÅŁ":2622,"Ġizin":2623,"OR":2624,"Ġgiz":2625,"ĠÃ¶rgÃ¼t":2626,"ukarÄ±":2627,"AM":2628,"Ġherkes":2629,"ĠkatÄ±lÄ±m":2630,"Ġweb":2631,"Ġdiyor":2632,"ĠFak":2633,"ĠEt":2634,"bilirsiniz":2635,"....":2636,"ĠÃĩalÄ±ÅŁ":2637,"Ġoyuncu":2638,"Ġmalzem":2639,"ĠMes":2640,"Ġkey":2641,"ĠMart":2642,"vekili":2643,"dÄ±z":2644,"Ġedecek":2645,"ansÄ±":2646,"Ġ199":2647,"ĠgeÃ§miÅŁ":2648,"ĠyaptÄ±k":2649,"Ġderece":2650,"aÅŁa":2651,"Ġoku":2652,"ĠkÃ¶tÃ¼":2653,"atÃ¼rk":2654,"ĠÅŁimdi":2655,"Ġpiyas":2656,"Ġsur":2657,"ĠamacÄ±yla":2658,"Ġdep":2659,"ĠKat":2660,"acaÄŁÄ±":2661,"ĠÄ°zmir":2662,"emal":2663,"lerce":2664,"Ġgece":2665,"ĠÅŁah":2666,"eÅŁil":2667,"Ġsin":2668,"ĠyÄ±llÄ±k":2669,"Ä±mda":2670,"hend":2671,"Ä±ldÄ±ÄŁÄ±":2672,"Ġdon":2673,"ĠsÃ¼reÃ§":2674,"Ä±sÄ±na":2675,"Ġistiyorum":2676,"Ġedilir":2677,"ĠKit":2678,"Ġkaybet":2679,"ĉĊ":2680,"lÄ±kla":2681,"ceÄŁ":2682,"Ġham":2683,"ĠyalnÄ±z":2684,"Ġmis":2685,"ĠMak":2686,"Ġkelim":2687,"fen":2688,"lenmesi":2689,"Ġmeydana":2690,"emez":2691,"ĠBah":2692,"ĠÃ§Ä±ktÄ±":2693,"ĠHaziran":2694,"Ġ50":2695,"Ġhukuk":2696,"ĠaÅŁk":2697,"DE":2698,"Ġbes":2699,"ĠHizmet":2700,"ĠTarih":2701,"Ġteslim":2702,"Ä±lab":2703,"ĠSiz":2704,"ĠÄ±s":2705,"Ġyerde":2706,"ĠMilli":2707,"oya":2708,"ala":2709,"Ġfin":2710,"ĠgÃ¼venlik":2711,"ĠGÃ¼ven":2712,"Ġaktar":2713,"Ġinsanlar":2714,"enler":2715,"imizde":2716,"imler":2717,"dÃ¼ÄŁÃ¼":2718,"alara":2719,"ĠkatkÄ±":2720,"Ġetkil":2721,"ĠMustafa":2722,"ĠsÃ¶zleÅŁ":2723,"Ġisten":2724,"etler":2725,"ĠyÄ±lÄ±":2726,"ĠYaz":2727,"Ġhayvan":2728,"Ä±labilir":2729,"anlÄ±k":2730,"adan":2731,"dÄ±klarÄ±":2732,"liÄŁini":2733,"adem":2734,".)":2735,"ĠIn":2736,"Ġhizmeti":2737,"Ġyum":2738,"ĠgÃ¼Ã§lÃ¼":2739,"dÄ±ÄŁÄ±nda":2740,"Ġ2014":2741,"ĠaracÄ±":2742,"ĠoluÅŁan":2743,"Ġtamamen":2744,"imli":2745,"Ä±nÄ±za":2746,"ĠarasÄ±ndaki":2747,"LI":2748,"200":2749,"ĠhoÅŁ":2750,"ĠMayÄ±s":2751,"one":2752,"ĠBar":2753,"Ġyem":2754,"ĠaldÄ±ÄŁÄ±":2755,"Ġolmaz":2756,"uar":2757,"Ġfayd":2758,"uÃ§":2759,"ĠbulunmaktadÄ±r":2760,"ĠKr":2761,"ĠyÃ¼zden":2762,"ĠhastalÄ±k":2763,"Ġsorum":2764,"engin":2765,"ĠLis":2766,"ati":2767,"dÃ¼k":2768,"Ġekonomik":2769,"Ġgi":2770,"blem":2771,"lulu":2772,"Ġsezon":2773,"iir":2774,"ga":2775,"ĠÃĩok":2776,"Ġasker":2777,"ina":2778,"Ġanlay":2779,"ĠBÃ¶lÃ¼m":2780,"Ġsol":2781,"Ġ21":2782,"ha":2783,"Ġtip":2784,"Ġsebeb":2785,"Ä±lma":2786,"Ġ)":2787,"lerdir":2788,"erÃ§ev":2789,"ĠMec":2790,"Ä±nÄ±zda":2791,"ĠÃĩocuk":2792,"ĠTer":2793,"Ġvideo":2794,"Ġbilgisayar":2795,"Ä±mÄ±za":2796,"lÄ±klÄ±":2797,"ĠgÃ¼ncel":2798,"go":2799,"Ġotel":2800,"ĠSistem":2801,"Ġekran":2802,"ĠÃ§ift":2803,"Ġkaf":2804,"Ã¼slÃ¼m":2805,"Ġayak":2806,"Ġgru":2807,"unan":2808,"Ġ22":2809,"ĠTab":2810,"Ay":2811,"Ġvarsa":2812,"uvvet":2813,"ĠÄ°nsan":2814,"ĠkarÅŁÄ±laÅŁ":2815,"ĠdÃ¼ÅŁÃ¼nÃ¼yor":2816,"Ġkayb":2817,"Ġtec":2818,"Ġic":2819,"Ġkims":2820,"ĠKurul":2821,"iÅŁi":2822,"ĠÃ§Ã¼nkÃ¼":2823,"Ġsizlere":2824,"Ġhastan":2825,"ildiÄŁi":2826,"ĠYaÅŁ":2827,"ĠÄ°ngiliz":2828,"ĠBakanÄ±":2829,"Ġ23":2830,"Ġteknoloj":2831,"egor":2832,"ĠDeniz":2833,"laka":2834,"Ġverir":2835,"ĠYÃ¼ksek":2836,"Ġeser":2837,"Ġtesis":2838,"zer":2839,"imin":2840,"sen":2841,"ĠÃ¶yle":2842,"Ġsilah":2843,"Ġfakat":2844,"ĠverdiÄŁi":2845,"gesi":2846,"Ġyoktur":2847,"eygam":2848,"Ġkaliteli":2849,"Ã¼nÃ¼z":2850,"mar":2851,"Ġgelecek":2852,"Ã¼me":2853,"ĠkiÅŁiler":2854,"ĠProj":2855,"Ġizle":2856,"alarÄ±nÄ±":2857,"ĠsatÄ±n":2858,"inizde":2859,"kar":2860,"ĠtÃ¼ket":2861,"tand":2862,"ĠkoÅŁul":2863,"Ġbulundu":2864,"adÄ±ÄŁ":2865,"Ġimk":2866,"Ġfirmalar":2867,"Ġbula":2868,"ĠyabancÄ±":2869,"ĠProf":2870,"Ä±mÄ±zÄ±":2871,"Ġkendini":2872,"Ġfor":2873,"Ġhaline":2874,"Ġseviy":2875,"UL":2876,"ĠkÄ±y":2877,"ĠAf":2878,"uru":2879,"Ġkurt":2880,"ĠsÃ¶yl":2881,"ÅŁÄ±":2882,"ĠayrÄ±ca":2883,"Ġstr":2884,"Ġpolis":2885,"Ġpuan":2886,"ital":2887,"Ġsik":2888,"manÄ±":2889,"Ġyere":2890,"adaki":2891,"Ġend":2892,"ĠbaÅŁlayan":2893,"ĠbirkaÃ§":2894,"forman":2895,"ĠKÃ¼r":2896,"Ġdakika":2897,"ĠgÃ¼nlÃ¼k":2898,"Ġpolitik":2899,"ĠProgram":2900,"18":2901,"Ġkent":2902,"Ġkart":2903,"ĠdÃ¼zey":2904,"ĠÃ¼lke":2905,"ĠkapÄ±":2906,"anÄ±m":2907,"inizin":2908,"ĠGenÃ§":2909,"etik":2910,"ĠalÄ±yor":2911,"Ġvaz":2912,"asa":2913,"ĠOcak":2914,"resi":2915,"ĠMer":2916,"masÄ±yla":2917,"med":2918,"Ã¶v":2919,"ĠSen":2920,"ĠbasÄ±n":2921,"lÄ±ÄŁÄ±nÄ±":2922,"ĠyanlÄ±ÅŁ":2923,"Ġciddi":2924,"yo":2925,"Ġzaten":2926,"ĠKÃ¼ltÃ¼r":2927,"altÄ±":2928,"ĠBas":2929,"ĠSel":2930,"log":2931,"ĠÃ¶ldÃ¼r":2932,"Ġmiktar":2933,"eygamber":2934,"amÄ±":2935,"ĠsonrasÄ±":2936,"ĠbaÅŁarÄ±":2937,"ĠTel":2938,"Ġ*":2939,"ĠNisan":2940,"ĠBÃ¼yÃ¼kÅŁehir":2941,"Ġgar":2942,"ĠbaÅŁlat":2943,"Ġbahis":2944,"Ã¼ÅŁtÃ¼r":2945,"dÄ±ktan":2946,"ĠalÄ±nan":2947,"Ġdurumu":2948,"inÃ§":2949,"ĠGir":2950,"Ġfutbol":2951,"Ã¶ren":2952,"Ġtoprak":2953,"ĠbeÄŁ":2954,"Ġmemnun":2955,"ĠakÅŁam":2956,"ampiyon":2957,"AÅŀ":2958,"ĠetmiÅŁ":2959,"ĠSev":2960,"Ġyapar":2961,"hendis":2962,"gen":2963,"Ġir":2964,"En":2965,"Ġnok":2966,"Ġeksik":2967,"ras":2968,"aÄŁÄ±t":2969,"ĠbaÄŁÄ±m":2970,"mÄ±yor":2971,"ons":2972,"Ġkarak":2973,"ĠBÃ¶yle":2974,"ĠSosyal":2975,"Ġdeniz":2976,"edek":2977,"larÄ±m":2978,"rol":2979,"ĠÃ§erÃ§ev":2980,"ĠdÃ¶rt":2981,"Ġdolar":2982,"Ðµ":2983,"ĠTÃ¼m":2984,"ĠCumhuriyet":2985,"abil":2986,"veriÅŁ":2987,"ĠdÃ¶nemde":2988,"eksiyon":2989,"uzey":2990,"ÄŁust":2991,"Ġadres":2992,"Ġboyut":2993,"ĠyapÄ±yor":2994,"ĠoÄŁ":2995,"istik":2996,"Ġmutlu":2997,"ersiz":2998,"ĠakÄ±l":2999,"ĠsÃ¼rec":3000,"ĠgerÃ§ekten":3001,"Ġdek":3002,"ilendir":3003,"likleri":3004,"ĠGeÃ§":3005,"ĠmÃ¼zik":3006,"tiÄŁimiz":3007,"hat":3008,"Ġaraya":3009,"Ġyeterli":3010,"lamaya":3011,"ĠaslÄ±nda":3012,"ĠkuÅŁ":3013,"rada":3014,"Ġidar":3015,"Ġsonuc":3016,"ĠAtatÃ¼rk":3017,"gar":3018,"Ġbi":3019,"masÄ±ndan":3020,"Ġmilyar":3021,"Ġsavun":3022,"ĠMan":3023,"aket":3024,"ĠaltÄ±na":3025,"Ä±mÄ±zÄ±n":3026,"ĠgÃ¶tÃ¼r":3027,"Ġproblem":3028,"Ġuyar":3029,"Ġtarif":3030,"ĠAÅŁ":3031,"ĠilaÃ§":3032,"amet":3033,"ÄŁustos":3034,"ĠdÃ¼nyanÄ±n":3035,"yas":3036,"Ġhatta":3037,"sta":3038,"ĠgÃ¼nde":3039,"ĠHaber":3040,"emen":3041,"ĠÃ¶nceki":3042,"ht":3043,"ĠyaÅŁayan":3044,"ĠadlÄ±":3045,"ĠinsanlarÄ±n":3046,"ĠbaÅŁÄ±na":3047,"Ġvermek":3048,"alarÄ±nÄ±n":3049,"Ġyana":3050,"ESÄ°":3051,"dÄ±ÄŁÄ±m":3052,"lev":3053,"ĠsayÄ±sÄ±":3054,"ĠiÃ§ine":3055,"ĠAhmet":3056,"rek":3057,"ĠbeÅŁ":3058,"ĠFakÃ¼lt":3059,"ĠSar":3060,"Ġteklif":3061,"Ġonlar":3062,"ĠAÄŁ":3063,"Ä°T":3064,"fi":3065,"ĠyarÄ±ÅŁ":3066,"Ä°K":3067,"ĠeÄŁlen":3068,"izik":3069,"ĠSal":3070,"aliz":3071,"anan":3072,"ĠAlt":3073,"Ġarada":3074,"Ð°":3075,"Ġemek":3076,"ult":3077,"Ġdost":3078,"Ġdurumunda":3079,"Ġaray":3080,"Ġedilmesi":3081,"Ġyetk":3082,"Ġalma":3083,"Ġmedya":3084,"Ã¼ph":3085,"Ġderec":3086,"Ã°":3087,"Ä°L":3088,"Ġmerak":3089,"ĠdÃ¼ÅŁÃ¼k":3090,"Ġmerkezi":3091,"Ä±sÄ±nÄ±n":3092,"Ġmekan":3093,"elidir":3094,"aÄŁa":3095,"har":3096,"Ä±mÄ±zda":3097,"gili":3098,"ĠiÃ§eri":3099,"ĠÄ°slam":3100,"ku":3101,"Ġdu":3102,"Ġtarz":3103,"Ġesas":3104,"Ġettik":3105,"ĠÃ¼cretsiz":3106,"ĠÃ§arp":3107,"geÃ§":3108,"nak":3109,"ĠAralÄ±k":3110,"Ġyazar":3111,"ĠBul":3112,"zu":3113,"Ġ2013":3114,"Ġ28":3115,"Ġkadro":3116,"ĠuluslararasÄ±":3117,"ĠayÄ±nda":3118,"acaktÄ±r":3119,"siye":3120,"ĠalanÄ±nda":3121,"yonel":3122,"Ġbuna":3123,"ĠsÃ¶ylem":3124,"ĠtartÄ±ÅŁ":3125,"ĠYak":3126,"rin":3127,"Ġzengin":3128,"cil":3129,"zÄ±m":3130,"ĠmÃ¼cadel":3131,"mayÄ±n":3132,"ĠYÃ¶net":3133,"ĠFakat":3134,"Ġimz":3135,"ĠKullan":3136,"adÄ±ÄŁÄ±":3137,"Ġyolu":3138,"ĠMÃ¼dÃ¼rÃ¼":3139,"Ġbulunuyor":3140,"Ġescort":3141,"ĠDerneÄŁi":3142,"cÄ±lar":3143,"ĠsoÄŁ":3144,"taki":3145,"atÃ¶r":3146,"lenme":3147,"Ġnef":3148,"ĠÃ¶lÃ¼m":3149,"23":3150,"ES":3151,"Ġdoktor":3152,"Ġnakl":3153,"Ġesn":3154,"itimi":3155,"ĠKaz":3156,"lisi":3157,"Ġum":3158,"lanmasÄ±":3159,"16":3160,"ĠolmuÅŁ":3161,"Ġediyorum":3162,"ĠSÃ¼r":3163,"ĠyapÄ±lÄ±r":3164,"ĠYani":3165,"Ġayar":3166,"ĠYer":3167,"14":3168,"ĠdaÄŁ":3169,"neÄŁin":3170,"lenmiÅŁ":3171,"Ġfak":3172,"ebilecek":3173,"Ġform":3174,"ĠmÃ¼cadele":3175,"fesyonel":3176,"ĠDers":3177,"Ġtrans":3178,"Ġpersonel":3179,"Ġ40":3180,"Ġmin":3181,"tandart":3182,"adÄ±k":3183,"ĠÃ¶dÃ¼l":3184,"Ġmutlaka":3185,"lamaz":3186,"Ġperforman":3187,"ĠVE":3188,"day":3189,"ĠaraÅŁtÄ±rma":3190,"ratik":3191,"lenir":3192,"ĠyapÄ±lmasÄ±":3193,"ĠgiriÅŁim":3194,"Ġolun":3195,"niyet":3196,"ĠFir":3197,"anka":3198,"Ġsitesi":3199,"Ġmotor":3200,"sim":3201,"25":3202,"ĠÃ§at":3203,"Ġdosy":3204,"ĠbaÅŁlan":3205,"âĢĺ":3206,"Ġdile":3207,"ĠKÄ±r":3208,"par":3209,"ĠDemir":3210,"ĠtoplantÄ±":3211,"ĠdÃ¼ÅŁÃ¼nc":3212,"Ġpan":3213,"Ġileri":3214,"Ġsabah":3215,"Ġbahs":3216,"yÄ±l":3217,"Ã¶ÄŁr":3218,"uc":3219,"ĠBirliÄŁi":3220,"iddet":3221,"ĠGazet":3222,"Ġdevr":3223,"ĠÃ¶ÄŁrenciler":3224,"ĠsaÄŁlamak":3225,"ton":3226,"ĠalÄ±r":3227,"lima":3228,"Ġmobil":3229,"Ġ27":3230,"ĠDÃ¶n":3231,"bur":3232,"seniz":3233,"ĠSam":3234,"acaÄŁÄ±z":3235,"ĠOsmanlÄ±":3236,"Ã¼lÃ¼":3237,"Ġbirey":3238,"Ġnormal":3239,"Ġyapma":3240,"Ã¢r":3241,"ke":3242,"Ġdeneyim":3243,"ĠateÅŁ":3244,"ĠbaÅŁÄ±nda":3245,"hi":3246,"ĠÃ§evir":3247,"ĠmÃ¼k":3248,"ete":3249,"Ġmahal":3250,"unlarÄ±":3251,"Ġhayal":3252,"Ġzev":3253,"ullah":3254,"ĠsaÄŁlar":3255,"teki":3256,"Ġetkili":3257,"Ã¼ny":3258,"ĠfiyatlarÄ±":3259,"ĠÃ§ocuÄŁ":3260,"iÅŁleri":3261,"ĠbaÅŁkan":3262,"urum":3263,"ĠBaÄŁ":3264,"Ġresmi":3265,"esiz":3266,"Ġara":3267,"ĠartÄ±ÅŁ":3268,"ĠAÄŁustos":3269,"ÃľR":3270,"Ġ&":3271,"Ġtest":3272,"Ġkendisine":3273,"Ġnokta":3274,"miyor":3275,"Ġelektrik":3276,"eceÄŁini":3277,"ĠseÃ§enek":3278,"ĠÃ¶nÃ¼nde":3279,"iÃ§ek":3280,"Ġdakik":3281,"Ä°stanbul":3282,"Ġnot":3283,"ĠSt":3284,"Ġbeyaz":3285,"ĠAlan":3286,"Ġberi":3287,"Ġenerji":3288,"ĠSaÄŁlÄ±k":3289,"ĠdÃ¶k":3290,"ĠÃ§alÄ±ÅŁmalarÄ±":3291,"Ġsefer":3292,"Ġpoz":3293,"ĠSanat":3294,"Ġ2012":3295,"ĠPol":3296,"iyim":3297,"Ġkural":3298,"pek":3299,"Ġre":3300,"Ġcil":3301,"Ġkredi":3302,"ðŁ":3303,"elerden":3304,"Ġgerekmektedir":3305,"Ġalanda":3306,"Ġoperasyon":3307,"Ġyandan":3308,"iydi":3309,"ĠTÃ¼rkÃ§e":3310,"oman":3311,"Ġtedavi":3312,"Ġ26":3313,"ronik":3314,"Ġyada":3315,"Ġonay":3316,"ĠDÄ±ÅŁ":3317,"ĠayÄ±r":3318,"evizyon":3319,"yen":3320,"ĠsonrasÄ±nda":3321,"ĠSuriye":3322,"dÄ±ÄŁÄ±nÄ±z":3323,"edeki":3324,"form":3325,"ĠsayÄ±da":3326,"ĠFilm":3327,"alÄ±ÄŁ":3328,"ĠÄ°ÅŁte":3329,"Her":3330,"eyn":3331,"Ġbal":3332,"ĠdeÄŁerli":3333,"AP":3334,"ĠyazÄ±lÄ±":3335,"esindeki":3336,"Ġhalde":3337,"ĠHalk":3338,"Ġbizi":3339,"Ġsiyasi":3340,"ulmasÄ±":3341,"ĠdeÄŁiÅŁiklik":3342,"ediy":3343,"meniz":3344,"dasÄ±":3345,"ĠfÄ±rsat":3346,"Ġdefa":3347,"ĠhÃ¢":3348,"Ġalacak":3349,"Ġyararlan":3350,"24":3351,"yal":3352,"mÄ±zÄ±":3353,"Ġyeri":3354,"ED":3355,"ĠÃ§al":3356,"alim":3357,"bakan":3358,"Ã¼mÃ¼zde":3359,"Ġdoldur":3360,"ebileceÄŁ":3361,"ĠTeknik":3362,"ĠKÄ±":3363,"Ġuc":3364,"ndan":3365,"ĠkararÄ±":3366,"ĠÃ¶zgÃ¼r":3367,"Ġnes":3368,"Ġnerede":3369,"Ġcep":3370,"Ġproje":3371,"ĠiÅŁÃ§":3372,"mekte":3373,"Ġgay":3374,"ĠsÃ¶yley":3375,"Ġrol":3376,"Ġarama":3377,"Ġtehlik":3378,"ĠBank":3379,"ĠX":3380,"Ã¼yle":3381,"ĠDair":3382,"Ġrisk":3383,"abet":3384,"ipar":3385,"ĠFakÃ¼ltesi":3386,"ĠKadÄ±n":3387,"enÃ¼z":3388,"eliÄŁ":3389,"17":3390,"Ġbelirten":3391,"Ġdolu":3392,"ĠtaÅŁÄ±ma":3393,"ĠaylÄ±k":3394,"Ġsene":3395,"ĠMÃ¼z":3396,"ĠKemal":3397,"ĠKam":3398,"ĠÃĸzellikle":3399,"ĠolmadÄ±ÄŁÄ±":3400,"Ġkanal":3401,"ĠÃ¼nlÃ¼":3402,"Ġ29":3403,"ĠYal":3404,"Ä±za":3405,"asÄ±yla":3406,"ĠKim":3407,"Ġbed":3408,"best":3409,"ĠsaÄŁlÄ±klÄ±":3410,"ĠgerektiÄŁini":3411,"ĠettiÄŁ":3412,"ĠRusya":3413,"2017":3414,"larÄ±nÄ±zÄ±":3415,"ĠolmadÄ±ÄŁÄ±nÄ±":3416,"nam":3417,"Ġmadd":3418,"Ã¼per":3419,"lediÄŁi":3420,"laÅŁtÄ±":3421,"Ġilgi":3422,"umsuz":3423,"ĠAraÅŁtÄ±r":3424,"Ġbilgileri":3425,"ĠgÃ¶steren":3426,"ĠDiÄŁer":3427,"ansÄ±z":3428,"ĠarasÄ±":3429,"say":3430,"rÃ¼b":3431,"uzur":3432,"Ġtas":3433,"ĠyayÄ±m":3434,"Ġderin":3435,"Ġlira":3436,"Ġhikay":3437,"ĠSor":3438,"ĠonlarÄ±n":3439,"Ä±lmaz":3440,"Ġdavet":3441,"Ġfon":3442,"sÄ±zlÄ±k":3443,"bay":3444,"Ġmar":3445,"Ġtabi":3446,"ĠTaÅŁ":3447,"madÄ±":3448,"ultan":3449,"13":3450,"tak":3451,"ger":3452,"orn":3453,"ĠKÃ¶":3454,"ĠyerleÅŁ":3455,"ĠhazÄ±rlan":3456,"ĠbeÄŁen":3457,"Ġbelki":3458,"Ġticaret":3459,"alarÄ±na":3460,"Ġdef":3461,"Ã¼tfen":3462,"Ġbenzer":3463,"Ġoto":3464,"Ġbitir":3465,"ĠFat":3466,"Ġetkinlik":3467,"uklu":3468,"ĠsayÄ±":3469,"ĠÅŁeyler":3470,"ĠalanÄ±":3471,"lardÄ±":3472,"Ġgol":3473,"eyle":3474,"ĠPart":3475,"Ġreklam":3476,"ĠMÃ¼slÃ¼m":3477,"ĠiÃ§i":3478,"ĠÅŀubat":3479,"ĠPer":3480,"ses":3481,"gÃ¶r":3482,"Son":3483,"ĠtaÅŁÄ±":3484,"ĠyaÅŁanan":3485,"itesi":3486,"ĠonlarÄ±":3487,"Ġsem":3488,"tepe":3489,"Ġyaparak":3490,"Ġeg":3491,"ĠyaÅŁÄ±nda":3492,"liÄŁinde":3493,"book":3494,"Ġkonum":3495,"ĠCHP":3496,"Ġkop":3497,"tern":3498,"eceÄŁiz":3499,"Ġbank":3500,"ĠiÅŁi":3501,"ĠyazÄ±lÄ±m":3502,"atej":3503,"Ä±lmÄ±ÅŁtÄ±r":3504,"ĠgÃ¶rÃ¼nt":3505,"Ġeylem":3506,"ĠAynÄ±":3507,"Ġkayde":3508,"Ġeve":3509,"Kar":3510,"Ġbat":3511,"Ġalarak":3512,"layÄ±n":3513,"daÄŁ":3514,"IM":3515,"Ġheyec":3516,"Ġkok":3517,"Ġyapacak":3518,"tÄ±sÄ±":3519,"ĠsÄ±rada":3520,"onya":3521,"ĠsaÄŁlayan":3522,"ĠFran":3523,"uyorum":3524,"ĠTes":3525,"ĠTicaret":3526,"ĠyavaÅŁ":3527,"latform":3528,"ĠsÄ±kÄ±ntÄ±":3529,"Ġ?":3530,"Ġhaft":3531,"ia":3532,"irler":3533,"dal":3534,"ĠCumhurbaÅŁkanÄ±":3535,"ĠOrta":3536,"eÅŁik":3537,"IR":3538,"Ġtakdir":3539,"Ġceza":3540,"ĠmÃ¼da":3541,"asÄ±ndan":3542,"Ġuygulamalar":3543,"ĠÃ§ab":3544,"Ġazal":3545,"Ġifad":3546,"ĠHakk":3547,"ene":3548,"imar":3549,"Ä±nma":3550,"ĠbaÅŁta":3551,"Ġpo":3552,"Ġdel":3553,"ĠdÄ±ÅŁÄ±":3554,"Ġoyunu":3555,"dikleri":3556,"ĠMahall":3557,"duÄŁunu":3558,"Ġsoy":3559,"ĠSat":3560,"ĠgÃ¶rÃ¼ntÃ¼":3561,"ĠHastan":3562,"ĠAntalya":3563,"ĠKend":3564,"Ġkarakter":3565,"ĠyukarÄ±":3566,"ĠsÃ¼t":3567,"Ġdemok":3568,"ahim":3569,"Ġveriyor":3570,"err":3571,"ĠBilg":3572,"ĠlazÄ±m":3573,"Ġgide":3574,"artesi":3575,"ĠAÃ§Ä±k":3576,"ĠSah":3577,"Ġettir":3578,"ĠkeÅŁ":3579,"Ã¢h":3580,"brÄ±s":3581,"ivil":3582,"ediÄŁini":3583,"ĠÅŁeyi":3584,"ĠTay":3585,"Ġlider":3586,"ĠÃ¼rÃ¼nleri":3587,"Ġtemsilc":3588,"ĠÃ¢":3589,"Ġhala":3590,"ĠFa":3591,"lÄ±ÄŁÄ±n":3592,"Ġtaleb":3593,"ĠAra":3594,"Ġizley":3595,"Ġotom":3596,"ildiÄŁ":3597,"ĠeÄŁer":3598,"Ġsel":3599,"Ã¶ÄŁretim":3600,"ĠÃ¶ÄŁrenci":3601,"ĠÃ¶ÄŁ":3602,"ĠTan":3603,"Ġkullanarak":3604,"inal":3605,"Ġdam":3606,"ĠSeÃ§":3607,"abz":3608,"mÃ¼r":3609,"Ä±larak":3610,"diler":3611,"Ġkategor":3612,"ĠÃĩin":3613,"Ġolursa":3614,"ĠhÃ¼c":3615,"Ġpas":3616,"ĠedilmiÅŁ":3617,"ulur":3618,"lasyon":3619,"ekim":3620,"kenin":3621,"gula":3622,"Ġsap":3623,"sas":3624,"ĠyapmÄ±ÅŁ":3625,"ĠyerleÅŁtir":3626,"estiv":3627,"Ġ=":3628,"ĠBugÃ¼n":3629,"uyoruz":3630,"ex":3631,"lÄ±ÄŁa":3632,"miÅŁti":3633,"ĠÃ¶den":3634,"haba":3635,"ĠSayÄ±n":3636,"Ã½n":3637,"ĠMilletvekili":3638,".,":3639,"Ġbelirtilen":3640,"Ġzorun":3641,"Ġmec":3642,"ogle":3643,"lÄ±klarÄ±":3644,"Ġduyur":3645,"liÄŁe":3646,"ĠkÃ¼r":3647,"ĠolmuÅŁtur":3648,"Ġneler":3649,"Ġolmas":3650,"Ġduvar":3651,"Ġservisi":3652,"ĠtecrÃ¼b":3653,"ĠÅŁiddet":3654,"Ġhayata":3655,"sine":3656,"ilme":3657,"80":3658,"ĠdÃ¼zenlem":3659,"anya":3660,"Ãĸz":3661,"ĠGÃ¼l":3662,"ĠmÃ¼dÃ¼r":3663,"ĠYet":3664,"ĠÃĩev":3665,"Ġkorun":3666,"Ä±lÄ±ÅŁ":3667,"larÄ±mÄ±zÄ±n":3668,"Ġtatil":3669,"âĢ¦]":3670,"ĠaÄŁr":3671,"ĠAlmanya":3672,"Er":3673,"lanma":3674,"endi":3675,"ilebilir":3676,"60":3677,"ĠbaÅŁlar":3678,"ĠÃľrÃ¼n":3679,"Ġfil":3680,"Ġediyoruz":3681,"allah":3682,"ĠtaÅŁÄ±y":3683,"ĠdÃ¼ÄŁ":3684,"Ġkavram":3685,"ĠkarÅŁÄ±sÄ±nda":3686,"ĠgÃ¶rmek":3687,"rail":3688,"Â´":3689,"ediler":3690,"ĠbuluÅŁ":3691,"ĠLig":3692,"Ġbirisi":3693,"ĠgÃ¼c":3694,"ĠgÃ¶rÃ¼yor":3695,"racat":3696,"ĠCan":3697,"ĠprogramÄ±":3698,"ĠÃ¶deme":3699,"dro":3700,"ĠUluslararasÄ±":3701,"Ġmetin":3702,"Ġnedir":3703,"ĠdÃ¶neminde":3704,"Ġetmektedir":3705,"son":3706,"Ġbebek":3707,"rem":3708,"tiler":3709,"spor":3710,"ĠDÃ¼z":3711,"ĠarttÄ±r":3712,"Ġprofesyonel":3713,"Ġsahiptir":3714,"lerinizi":3715,"ĠHan":3716,"ĠgÃ¼l":3717,"Ġ+":3718,"ĠsaldÄ±rÄ±":3719,"ÃĦ":3720,"ĠiÅŁe":3721,"ĠpiÅŁ":3722,"elerinden":3723,"Ġted":3724,"Ã¼ÅŁtÃ¼":3725,"Ġbol":3726,"ÄŁer":3727,"Ġolmaya":3728,"Ġhafif":3729,"liÄŁin":3730,"oogle":3731,"ĠKurum":3732,"mada":3733,"abiliyor":3734,"lÄ±klar":3735,"sinin":3736,"Ġsonucunda":3737,"ĠEski":3738,"Ġtavsiye":3739,"tere":3740,"ze":3741,"uzu":3742,"ãģĤãģĤãģĤãģĤ":3743,"Bur":3744,"Ġlez":3745,"Ġkimse":3746,"ĠaÅŁaÄŁÄ±daki":3747,"yap":3748,"ĠServ":3749,"dat":3750,"Ġzam":3751,"ĠdiÅŁ":3752,"her":3753,"ĠCam":3754,"Ġhuzur":3755,"Ġkuvvet":3756,"pp":3757,"Ġzevk":3758,"ĠGÃ¶k":3759,"dÃ¼m":3760,"Mer":3761,"ink":3762,"Ġyerinde":3763,"Ġikti":3764,"ĠborÃ§":3765,"Ġta":3766,"keri":3767,"ĠhayÄ±r":3768,"elt":3769,"elerle":3770,"ayla":3771,"Ġihtiyac":3772,"Ġisimli":3773,"Ġlisans":3774,"eng":3775,"ĠGÃ¶":3776,"ĠyÄ±llarda":3777,"ilim":3778,"lanÄ±r":3779,"Ġvb":3780,"Ġtahmin":3781,"Ġaile":3782,"ĠyÃ¶netic":3783,"Ġresim":3784,"Ġhap":3785,"omet":3786,"Ġgaz":3787,"ĠgÃ¶ren":3788,"ĠEÅŁ":3789,"Ġ[âĢ¦]":3790,"Ġstandart":3791,"dit":3792,"Ġederim":3793,"ĠdÃ¼nyada":3794,"ĠgÃ¼neÅŁ":3795,"Ġolm":3796,"Biz":3797,"Ġnamaz":3798,"ĠaÃ§Ä±klamada":3799,"sini":3800,"Ġelem":3801,"emmel":3802,"ĠtaÅŁÄ±n":3803,"Ġkesinlikle":3804,"ĠMut":3805,"iyah":3806,"lamasÄ±":3807,"Ġ:)":3808,"ĠeleÅŁtir":3809,"Ġkamer":3810,"adi":3811,"ĠyÄ±ldÄ±r":3812,"Ġkurtar":3813,"Ġtutar":3814,"cilik":3815,"ĠGazi":3816,"ĠhenÃ¼z":3817,"ĠnÃ¼f":3818,"iyatro":3819,"Ġduygu":3820,"Ġverilm":3821,"ĠbaÄŁlantÄ±":3822,"ĠYardÄ±mcÄ±sÄ±":3823,"Ġbundan":3824,"Ġbirinci":3825,"enerbah":3826,"ĠÃ¶nÃ¼ne":3827,"Ġokuy":3828,"ĠAydÄ±n":3829,"ĠalÄ±ÅŁveriÅŁ":3830,"diÄŁimiz":3831,"ĠaydÄ±n":3832,"Ġkendine":3833,"ĠKanun":3834,"mail":3835,"Ã§esi":3836,"abilmek":3837,"emizin":3838,"ĠmÃ¼ÅŁteri":3839,"ata":3840,"ĠtÃ¼rk":3841,"eyiz":3842,"Ġanne":3843,"Ġkilo":3844,"ĠKÄ±z":3845,"UN":3846,"ĠDav":3847,"Ak":3848,"Ä±yordu":3849,"ĠYayÄ±nlarÄ±":3850,"ork":3851,"Ġmodern":3852,"Ġgal":3853,"ĠÅŁÃ¼ph":3854,"Ġkeyif":3855,"ĠÃ¼ye":3856,"dikten":3857,"Ġolumsuz":3858,"ĠhayatÄ±nÄ±":3859,"OS":3860,"oto":3861,"aca":3862,"erler":3863,"Ġhisset":3864,"ĠÅŁiir":3865,"ĠistediÄŁiniz":3866,"ĠÅŁik":3867,"undaki":3868,"ĠBursa":3869,"ĠkazandÄ±r":3870,"tp":3871,"ĠmÃ¼dahal":3872,"Ġhizmetleri":3873,"leÅŁme":3874,"Ġday":3875,"Ã§ak":3876,"ĠÅŀimdi":3877,"umak":3878,"ipariÅŁ":3879,"ĠdavranÄ±ÅŁ":3880,"are":3881,"ĠiÃ§erik":3882,"laÅŁma":3883,"Ã¼stÃ¼":3884,"ÅŁtÄ±r":3885,"Ġ2011":3886,"ĠyapÄ±ldÄ±":3887,"ĠyapÄ±m":3888,"Ġhesab":3889,"ĠaltÄ±":3890,"daÅŁ":3891,"rum":3892,"ekil":3893,"Ġsonraki":3894,"Ġdemek":3895,"ĠvazgeÃ§":3896,"Ġarac":3897,"Ġbunlar":3898,"ĠGÃ¶z":3899,"ĠalmÄ±ÅŁ":3900,"ĠsÃ¼resi":3901,"izasyon":3902,"alÄ±ÄŁÄ±":3903,"ĠedeceÄŁ":3904,"ĠAmerika":3905,"ĠBal":3906,"Ä°Y":3907,"ĠNo":3908,"liler":3909,"ise":3910,"Ġanlamda":3911,"ledik":3912,"ĠsÃ¼rede":3913,"Ġonlara":3914,"ĠBaÅŁkanlÄ±ÄŁÄ±":3915,"bal":3916,"Ġsert":3917,"ĠmeÅŁ":3918,"zet":3919,"ĠÃ¶ÄŁretim":3920,"atur":3921,"Ġtaz":3922,"Ġsokak":3923,"ĠkÄ±l":3924,"GÃ¼n":3925,"ĠÄ°lÃ§e":3926,"ĠalÄ±p":3927,"ĠyetiÅŁtir":3928,"orta":3929,"Ã¼ndeki":3930,"Ġmesel":3931,"icari":3932,"ĠSavaÅŁ":3933,"Ġbasit":3934,"Ġemin":3935,"ĠinsanÄ±n":3936,"ore":3937,"Ġpsik":3938,"diÄŁini":3939,"ĠÃ§ap":3940,"Ġ60":3941,"tis":3942,"Ġib":3943,"ĠÅŁarkÄ±":3944,"Ġyoksa":3945,"Ġfizik":3946,"KK":3947,"Ġod":3948,"arÄ±m":3949,"Ġyerel":3950,"ĠMod":3951,"ĠkiÅŁisel":3952,"raman":3953,"to":3954,"Ġlim":3955,"Ġfikir":3956,"ezi":3957,"ĠVak":3958,"mur":3959,"gulama":3960,"40":3961,"ĠacÄ±":3962,"Ġsona":3963,"ersin":3964,"Ġyolc":3965,"ĠKitap":3966,"oca":3967,"ĠÃľy":3968,"ĠKÃ¶y":3969,"ladÄ±ÄŁÄ±":3970,"ĠÄ°yi":3971,"Ġap":3972,"ĠiÅŁbir":3973,"Ġbelirterek":3974,"co":3975,"Ġperformans":3976,"Ġpop":3977,"ĠBor":3978,"//":3979,"Ġasla":3980,"ĠÄ±sÄ±":3981,"Ġbelirtti":3982,"Ġgiren":3983,"Ġkitab":3984,"larÄ±mÄ±zÄ±":3985,"ME":3986,"ĠdÃ¼ÅŁÃ¼r":3987,"mÄ±":3988,"liÄŁine":3989,"ĠSanayi":3990,"ĠilÃ§esinde":3991,"ĠyaygÄ±n":3992,"ĠYat":3993,"ĠYÃ¼z":3994,"uldu":3995,"yse":3996,"Ġkendisini":3997,"ĠaÃ§Ä±":3998,"edeni":3999,"Ġtane":4000,"acaÄŁÄ±nÄ±":4001,"isinden":4002,"ĠBazÄ±":4003,"tÄ±ÄŁÄ±nÄ±":4004,"27":4005,"ham":4006,"Ġsalon":4007,"ĠdeÄŁiÅŁim":4008,"ĠMur":4009,"ĠMev":4010,"ĠDiy":4011,"larca":4012,"ĠdÃ¼zenlen":4013,"layÄ±p":4014,"ĠbunlarÄ±n":4015,"ĠElekt":4016,"Ġimza":4017,"Ġkonut":4018,"Ġcinsel":4019,"ĠdÃ¶v":4020,"ĠVal":4021,"cebook":4022,"ĠKÄ±brÄ±s":4023,"ĠhakkÄ±":4024,"Ä±sÄ±r":4025,"ĠYol":4026,"ĠBurada":4027,"Ġton":4028,"iber":4029,"Ġfirma":4030,"Ġ>":4031,"erken":4032,"ĠamacÄ±":4033,"eÅŁiktaÅŁ":4034,"ĠdoÄŁum":4035,"Ġkurulu":4036,"ĠÃ¼Ã§Ã¼ncÃ¼":4037,"Ġgiden":4038,"Ġus":4039,"Ġkod":4040,"Ġpark":4041,"ĠDen":4042,"amaya":4043,"ĠyetiÅŁ":4044,"ĠHaf":4045,"ĠÃ¶ne":4046,"Ġyola":4047,"ÂĶ":4048,"ĠbÃ¼t":4049,"ĠII":4050,"Ġodak":4051,"Ġsenin":4052,"meni":4053,"Ġklima":4054,"âĢĿ,":4055,"ĠBr":4056,"ĠÃ§Ä±kÄ±ÅŁ":4057,"ard":4058,"Ġ31":4059,"Ġhus":4060,"ĠgÃ¼nlerde":4061,"sizlik":4062,"tarÄ±":4063,"iÄŁi":4064,"ĠHz":4065,"ĠkarÄ±ÅŁ":4066,"ĠkatÄ±ldÄ±":4067,"anÄ±ÅŁman":4068,"lerimizi":4069,"ĠMahallesi":4070,"ĠiÅŁte":4071,"ĠÅŁif":4072,"ĠyaÅŁÄ±ndaki":4073,"Ġrad":4074,"Ġedip":4075,"ĠÄ°k":4076,"ĠÃľst":4077,"ĠeÅŁy":4078,"Ġbec":4079,"Ġgerektir":4080,"eÄŁini":4081,"ĠyÄ±lda":4082,"yÃ¼z":4083,"ĠTe":4084,"anlarÄ±":4085,"Ġfaiz":4086,"erseniz":4087,"iyer":4088,"ĠRec":4089,"ĠÃ§oÄŁu":4090,"Â±":4091,"Ġez":4092,"Ġseks":4093,"ĠÄ±ÅŁÄ±k":4094,"Ġerken":4095,"Ġimkan":4096,"Ä°ÅŁ":4097,"ĠdÄ±ÅŁarÄ±":4098,"iklet":4099,"Ġamel":4100,"ĠgeÃ§erli":4101,"Ġfel":4102,"lediÄŁ":4103,"ayÄ±f":4104,"ĠinÅŁaat":4105,"Ġkans":4106,"ĠBunu":4107,"ĠtÃ¶ren":4108,"eyecek":4109,"iyordu":4110,"gal":4111,"ĠKÃ¼rt":4112,"Ġkem":4113,"osta":4114,"emiÅŁ":4115,"Ġbazen":4116,"Ġkaydet":4117,"Ġorada":4118,"ĠeÅŁit":4119,"ĠbaskÄ±":4120,"Ġyapmaya":4121,"Ġserbest":4122,"ĠuÃ§ak":4123,"Ä±mÄ±n":4124,"layÄ±cÄ±":4125,"ĠkiÅŁilerin":4126,"Ġyor":4127,"Ġmeslek":4128,"''":4129,"Ġverildi":4130,"oyu":4131,"ÄŁan":4132,"LERÄ°":4133,"obÃ¼s":4134,"ĠÄ°ngilizce":4135,"ros":4136,"ĠDur":4137,"Ġsp":4138,"ĠBayram":4139,"ĠÄ°m":4140,"ĠOyun":4141,"ĠdoÄŁrult":4142,"stik":4143,"://":4144,"sÃ¼z":4145,"OL":4146,"Ġkm":4147,"Ġbeden":4148,"Ä°Z":4149,"Gen":4150,"Ġyiy":4151,"ĠSamsun":4152,"Ġbilinen":4153,"ĠolmasÄ±na":4154,"ĠinÅŁa":4155,"eÄŁe":4156,"yet":4157,"ĠDoÄŁu":4158,"adÄ±r":4159,"ĠkatÄ±l":4160,"Ġgenellikle":4161,"ĠkÄ±ÅŁ":4162,"tuk":4163,"Ġyasak":4164,"ĠoranÄ±":4165,"ĠÃľlk":4166,"vi":4167,"his":4168,"Ġbuy":4169,"ĠTV":4170,"Ġpaket":4171,"ĠPazar":4172,"enerbahÃ§e":4173,"kÃ¶y":4174,"Ä±lÄ±Ã§":4175,"Ġmon":4176,"ĠÃ¶zelliÄŁi":4177,"ĠGÃ¼zel":4178,"alatasar":4179,"Ġtransfer":4180,"Ġnin":4181,"Ä±ndÄ±r":4182,"Ġdahi":4183,"Ġetme":4184,"BaÅŁ":4185,"imden":4186,"ĠHem":4187,"Ġevde":4188,"Ġdenetim":4189,"ĠSin":4190,"lÄ±ÄŁÄ±na":4191,"hane":4192,"ĠÃ¶lÃ§Ã¼":4193,"bey":4194,"ĠÃ§ay":4195,"alatasaray":4196,"isiyle":4197,"ĠkarÄ±ÅŁtÄ±r":4198,"Ġenf":4199,"teÅŁ":4200,"Ġarz":4201,"ĠkÃ¶ÅŁ":4202,"Ġcen":4203,"eytin":4204,"Ġyeter":4205,"kiler":4206,"ĠKir":4207,"ĠaltÄ±n":4208,"Ġmodelleri":4209,"Ġtemin":4210,"ĠNur":4211,"ĠkaldÄ±":4212,"dek":4213,"aka":4214,"Ġprot":4215,"gr":4216,"ĠKÄ±s":4217,"ban":4218,"ĠparÃ§a":4219,"ĠkapalÄ±":4220,"ĠâĢ¦":4221,"nu":4222,"ĠbiÃ§imde":4223,"ĠbunlarÄ±":4224,"ĠCh":4225,"Ġavan":4226,"ĠGÃ¼venlik":4227,"Ġyaralan":4228,"Ġalb":4229,"Ġhoc":4230,"ĠolduÄŁuna":4231,"ĠÂĵ":4232,"Ġkendisi":4233,"Yeni":4234,"Pro":4235,"Ġiddia":4236,"nden":4237,"ĠyÃ¼rÃ¼y":4238,"fat":4239,"ijital":4240,"Ġdedim":4241,"ĠSonra":4242,"ĠCumhuriyeti":4243,"ĠbalÄ±k":4244,"Ã¼ley":4245,"Ġsorumlu":4246,"Ġbilir":4247,"ĠyanÄ±t":4248,"2016":4249,"caÄŁÄ±z":4250,"leriniz":4251,"Ġteknoloji":4252,"Ġetmeye":4253,"bette":4254,"Ã§iler":4255,"22":4256,"ĠAz":4257,"ĠSultan":4258,"ĠÃ¶ncesi":4259,"Ġmarka":4260,"Ġsorunu":4261,"ĠmÃ¼kemmel":4262,"ĠÃ¶nemlidir":4263,"abrik":4264,"Ä±yorlar":4265,"sur":4266,"Ġide":4267,"Ġkanun":4268,"usunu":4269,"ĠÃ§eken":4270,"diÄŁinde":4271,"Ġkampany":4272,"ĠÃ¼lkenin":4273,"diÄŁim":4274,"Ġsana":4275,"akar":4276,"ĠbaÄŁÄ±msÄ±z":4277,"Dev":4278,"ĠTasar":4279,"ĠKah":4280,"ĠÅŁar":4281,"Ġkapas":4282,"Ġmesaf":4283,"umhurbaÅŁk":4284,"ĠdoÄŁrultusunda":4285,"ĠÅŀehir":4286,"ner":4287,"kek":4288,"Ġgiderek":4289,"ĠiÅŁlemi":4290,"Ġmilli":4291,"Ġdiyerek":4292,"ĠDil":4293,"Ġism":4294,"Ġyetkil":4295,"ĠKÃ¼Ã§Ã¼k":4296,"Ġbe":4297,"70":4298,"Ġekley":4299,"Ġarab":4300,"Ġavantaj":4301,"ai":4302,"memiÅŁ":4303,"yer":4304,"ĠanlayÄ±ÅŁ":4305,"Ġonline":4306,"ĠÄ°ran":4307,"ĠgeliÅŁim":4308,"ĠÅŁehit":4309,"ahmet":4310,"Ġstratej":4311,"okul":4312,"ation":4313,"Ġsahn":4314,"dÄ±rÄ±m":4315,"Ġolumlu":4316,"Ä±nar":4317,"Ġetraf":4318,"Ġnitelik":4319,"afir":4320,"Ä°s":4321,"Ġplatform":4322,"ĠÃ¼rÃ¼nler":4323,"Ġkalp":4324,"Ġbirim":4325,"ĠbÃ¼ny":4326,"ĠgÃ¶nÃ¼l":4327,"Ġciv":4328,"Ġistik":4329,"ou":4330,"ĠPeygamber":4331,"ĠiÃ§eren":4332,"ĠBuna":4333,"Ġbulunma":4334,"diÄŁiniz":4335,"Ġdes":4336,"Ġgetiren":4337,"Ä±b":4338,"ĠÅŀah":4339,"ĠÃ¶ÄŁret":4340,"ĠkiÅŁilik":4341,"ĠYÄ±lmaz":4342,"Ġyakal":4343,"Ġyatak":4344,"ĠfÄ±k":4345,"ĠMed":4346,"lacak":4347,"ĠsaÄŁlayacak":4348,"Ġpla":4349,"Ä±sÄ±z":4350,"ileceÄŁi":4351,"gÄ±Ã§":4352,"Ġtez":4353,"90":4354,"ĠÃ§iÃ§ek":4355,"ĠGÃ¼ney":4356,"ĠVar":4357,"Ä±c":4358,"ternatif":4359,"pt":4360,"ĠBenim":4361,"Ġotomobil":4362,"Ġ2010":4363,"Ġetik":4364,"ĠÃ¼zerindeki":4365,"lamalar":4366,"ĠÅŁans":4367,"Ġvakit":4368,"illi":4369,"ĠdoÄŁrudan":4370,"ĠÄ°nÅŁ":4371,"Ġseyahat":4372,"ĠBÃ¶ylece":4373,"Ġortadan":4374,"Ġortalama":4375,"ÅŁÄ±k":4376,"Ġbanka":4377,"Ġhac":4378,"ĠolmasÄ±nÄ±":4379,"Ġbende":4380,"EV":4381,"ĠKara":4382,"ĠÐ":4383,"Ġcm":4384,"Ġ198":4385,"ess":4386,"bin":4387,"Ġistek":4388,"ĠrahatsÄ±z":4389,"Ġsunu":4390,"ĠGÃ¼r":4391,"ĠKanunu":4392,"ĠgÃ¶rm":4393,"Ġistih":4394,"ĠÄ°liÅŁ":4395,"ĠkullanÄ±mÄ±":4396,"Ġkahv":4397,"ĠÃ§ocuklar":4398,"IL":4399,"ĠHol":4400,"gaz":4401,"ĠÃ§erÃ§evesinde":4402,"dev":4403,"Ġtelevizyon":4404,"Ġmaliyet":4405,"ĠcÃ¼m":4406,"maktan":4407,"ĠgÃ¶Ã§":4408,"ĠsÃ¶ylÃ¼yor":4409,"ĠyeÅŁil":4410,"ĠtatlÄ±":4411,"AH":4412,"ĠÃ¶zellikleri":4413,"ĠBer":4414,"dÃ¼z":4415,"Ġyans":4416,"ĠLi":4417,"Ġparti":4418,"ĠalÄ±m":4419,"ulmuÅŁ":4420,"ezer":4421,"Ġsivil":4422,"Ġyasal":4423,"Ġ500":4424,"ĠyapÄ±lmÄ±ÅŁ":4425,"Ġba":4426,"Ġbon":4427,"lendirme":4428,"lÄ±ÄŁÄ±yla":4429,"ĠRo":4430,"brahim":4431,"irken":4432,"Ġiptal":4433,"Ġtarihli":4434,"Ġ35":4435,"Ġdeney":4436,"Ġtad":4437,"ĠGerÃ§":4438,"ĠyÄ±lÄ±n":4439,"Ã¶yl":4440,"Ġnedeni":4441,"ĠSÄ±nav":4442,"Ġmo":4443,"ĠÅŀirket":4444,"yip":4445,"anet":4446,"AV":4447,"Ä±nÄ±zÄ±n":4448,"ĠUn":4449,"Ġitir":4450,"ĠasÄ±l":4451,"estor":4452,"ĠyatÄ±r":4453,"Ġsuyu":4454,"ĠFil":4455,"ĠHam":4456,"Ġetmesi":4457,"ĠÃ¶nlem":4458,"ĠkullanÄ±lÄ±r":4459,"Ġaktif":4460,"ĠMark":4461,"ikan":4462,"ĠkÄ±smÄ±":4463,"Ġharika":4464,"Ġbirik":4465,"ĠgÃ¼venli":4466,"ĠKol":4467,"urken":4468,"Ä±nacak":4469,"rika":4470,"ĠÃ¼yesi":4471,"Ġtoplu":4472,"Ġduyg":4473,"ĠRab":4474,"Ä±sÄ±nÄ±z":4475,"dÄ±klarÄ±nÄ±":4476,"Ġmezun":4477,"ĠsoruÅŁtur":4478,"baÅŁ":4479,"ĠMÃ¼slÃ¼man":4480,"Ġ;":4481,"ĠOkul":4482,"Ġgelin":4483,"ĠArap":4484,"ÃľN":4485,"ĠKab":4486,"ĠyalnÄ±zca":4487,"Ġatan":4488,"ĠÄ°Ã§in":4489,"Ġharc":4490,"ĠiÅŁlemleri":4491,"ĠAraÅŁtÄ±rma":4492,"ĠaÅŁÄ±rÄ±":4493,"ĠBin":4494,"----":4495,"ĠbaÅŁlÄ±yor":4496,"Ġkum":4497,"ĠpeÅŁ":4498,"ĠyÄ±ldÄ±z":4499,"Ġaskeri":4500,"ĠSek":4501,"ĠMeclis":4502,"ord":4503,"Ġbelirli":4504,"ĠRecep":4505,"Ġkendilerine":4506,"Ġgrub":4507,"Ä±lÄ±ÄŁ":4508,"acaÄŁÄ±nÄ±z":4509,"yÄ±z":4510,"21":4511,"Ġsaha":4512,"fÄ±":4513,"ĠgeÃ§ti":4514,"ÅŁey":4515,"AZ":4516,"int":4517,"Ġhad":4518,"ĠSadece":4519,"dÄ±ÄŁÄ±na":4520,"ĠFiyat":4521,"Ġarka":4522,"lardaki":4523,"Ġucuz":4524,"udi":4525,"ĠolduÄŁumuz":4526,"Ġdokun":4527,"ĠMet":4528,"Ġetkisi":4529,"alardan":4530,"ĠAm":4531,"ĠMas":4532,"ĠtanÄ±ÅŁ":4533,"Ãĸn":4534,"ben":4535,"ĠFr":4536,"ong":4537,"Ġotomatik":4538,"Ġteb":4539,"ĠSab":4540,"Ġkurulan":4541,"ĠlÃ¼tfen":4542,"ĠÄ±ÅŁ":4543,"Ġsine":4544,"ĠalmaktadÄ±r":4545,"nik":4546,"ĠkullandÄ±":4547,"26":4548,"Ä±f":4549,"Ġreh":4550,"ĠayÄ±":4551,"ĠÅŀeh":4552,"ĠyapÄ±mÄ±":4553,"ĠHukuk":4554,"liyet":4555,"ane":4556,"Ġfinans":4557,"Ġpozisyon":4558,"MM":4559,"aza":4560,"ĠzayÄ±f":4561,"Ġgur":4562,"Ä±lmasÄ±na":4563,"ĠÃ§oÄŁ":4564,"SK":4565,"Ġht":4566,"Or":4567,"ĠTam":4568,"ĠgÃ¶rsel":4569,"amik":4570,"Ġuyan":4571,"2015":4572,"ĠMÃ¼hendis":4573,"ĠyÃ¶netimi":4574,"Ġters":4575,"Ġihracat":4576,"ĠgÃ¶rdÃ¼ÄŁ":4577,"ĠTat":4578,"Ġred":4579,"ĠbakÄ±ÅŁ":4580,"ĠAKP":4581,"ĠSayfa":4582,"ĠsipariÅŁ":4583,"Ġâ":4584,"Ġbask":4585,"ĠeÄŁitimi":4586,"gah":4587,"Ġtutuk":4588,"vik":4589,"ĠCez":4590,"abilm":4591,"emize":4592,"Ġyaparken":4593,"ĠaÃ§Ä±kladÄ±":4594,"ĠÃĸrneÄŁin":4595,"malarÄ±nÄ±":4596,"Ġheyecan":4597,"ĠKonya":4598,"ksiyon":4599,"ĠgelmiÅŁ":4600,"05":4601,"mamÄ±ÅŁ":4602,"ĠHÃ¼s":4603,"ĠTarihi":4604,"Ġvit":4605,"Ġbirden":4606,"Ġyerini":4607,"ĠdÃ¼ÅŁÃ¼nÃ¼yorum":4608,"ĠolduÄŁunuz":4609,"Ġrakam":4610,"iya":4611,"ĠÃ§Ä±kart":4612,"ĠaÄŁaÃ§":4613,"celi":4614,"ĠSÄ±r":4615,"Ġbecer":4616,"'s":4617,"ĠsoÄŁuk":4618,"qu":4619,"arlar":4620,"emesi":4621,"28":4622,"kon":4623,"acaÄŁÄ±m":4624,"Ġolanlar":4625,"ĠtanÄ±t":4626,"Ġsorumluluk":4627,"Ġkuru":4628,"ĠgerÃ§ekleÅŁtirilen":4629,"ĠÄ°ngiltere":4630,"ĠgeÃ§iÅŁ":4631,"ĠmÃ¼ÅŁteriler":4632,"Ġdikkate":4633,"DÃ¼n":4634,"ĠBaÅŁbakan":4635,"ows":4636,"ĠHava":4637,"ĠÅŁub":4638,"Ġanaliz":4639,"Ġbelirlen":4640,"ĠvÃ¼cut":4641,"lerim":4642,"Ġaf":4643,"Ġgizli":4644,"ĠseÃ§en":4645,"ĠÃĩar":4646,"Ġseni":4647,"ĠSig":4648,"Ġticari":4649,"Ġdekor":4650,"Ġiktidar":4651,"ĠÄ°dar":4652,"Ġolmadan":4653,"ĠDir":4654,"mut":4655,"Ġbeb":4656,"ĠTrabz":4657,"medi":4658,"Ġthe":4659,"Ġince":4660,"iter":4661,"LAN":4662,"ĠYunan":4663,"deniz":4664,"ĠgÃ¼venilir":4665,"Ġzih":4666,"ĠkÄ±rmÄ±zÄ±":4667,"etiyle":4668,"etleri":4669,"manÄ±zÄ±":4670,"sit":4671,"ĠYan":4672,"ĠkatÄ±lan":4673,"LÃľ":4674,"luluÄŁu":4675,"DA":4676,"ĠuÄŁraÅŁ":4677,"iciler":4678,"El":4679,"ĠBit":4680,"Ġkurtul":4681,"Ġtuz":4682,"arÄ±nda":4683,"lasik":4684,"Ã¼lebilir":4685,"ĠdÃ¼ÅŁman":4686,"ĠdetaylÄ±":4687,"ĠTah":4688,"Ġand":4689,"Ã¼mÃ¼zdeki":4690,"ĠsÄ±ÄŁ":4691,"Ġdiren":4692,"Ġbekliyor":4693,"LÄ°K":4694,"laÅŁÄ±k":4695,"ĠÄ°srail":4696,"ĠFatih":4697,"ĠBilgi":4698,"anÄ±t":4699,"Ġbelediye":4700,"Ġgelenek":4701,"iÅŁehir":4702,"ĠÂ»":4703,"ĠTayyip":4704,"ĠyÃ¼zyÄ±l":4705,"ĠÃ§Ä±kÄ±yor":4706,"ĠÅŁiÅŁ":4707,"ĠdÃ¼zenli":4708,"iyorlar":4709,"DP":4710,"Ġtoplant":4711,"Ġveri":4712,"ĠolduklarÄ±":4713,"Av":4714,"ĠanlamÄ±na":4715,"ĠYÄ±ldÄ±rÄ±m":4716,"arlÄ±":4717,"Ġsayfa":4718,"Ä±rlar":4719,"ire":4720,"CI":4721,"Ġ90":4722,"Ġ80":4723,"encer":4724,"Ã¼mÃ¼ÅŁ":4725,"tion":4726,"ĠÃ¶nceden":4727,"ĠKanunun":4728,"ĠayrÄ±ntÄ±":4729,"amazan":4730,"ĠPlan":4731,"Ġverecek":4732,"uf":4733,"ĠÃ¼stÃ¼n":4734,"teÅŁem":4735,"ĠBeÅŁiktaÅŁ":4736,"Ġsuy":4737,"Ġolanak":4738,"Ġtrafik":4739,"ĠSh":4740,"ĠakÄ±llÄ±":4741,"luluÄŁ":4742,"Ġces":4743,"UM":4744,"ĠiÃ§indeki":4745,"Ġins":4746,"ĠÃ§alÄ±ÅŁtÄ±r":4747,"Ġordu":4748,"yada":4749,"45":4750,"Ġaran":4751,"omp":4752,"lal":4753,"Ġkomp":4754,"Ġherkesin":4755,"ĠyaÅŁat":4756,"ino":4757,"baÅŁÄ±":4758,"paÅŁa":4759,"ĠkalÄ±n":4760,"Ġekib":4761,"ABD":4762,"ĠGoogle":4763,"Ġyakalan":4764,"Ġedebilirsiniz":4765,"Ġbulundur":4766,"larÄ±mÄ±za":4767,"ÅŁap":4768,"ĠSav":4769,"ĠOdasÄ±":4770,"Ä±lÄ±p":4771,"mesinin":4772,"ĠsÃ¼reci":4773,"ĠMurat":4774,"seri":4775,"ĠtanÄ±n":4776,"liÄŁinin":4777,"eceÄŁim":4778,"ĠÅŁÄ±k":4779,"Ġsite":4780,"ĠbÃ¶lgede":4781,"ĠEkonom":4782,"oj":4783,"ĠÄ°ki":4784,"ĠAdÄ±":4785,"ĠeriÅŁ":4786,"Ġeklen":4787,"ĠsaÄŁlam":4788,"uro":4789,"Ġdis":4790,"ĠÅŁikayet":4791,"nÃ¼n":4792,"ĠhazÄ±rlanan":4793,"gre":4794,"Hay":4795,"ĠÃĸÄŁretmen":4796,"ĠaÃ§Ä±klamalar":4797,"lamÄ±ÅŁ":4798,"ĠBankasÄ±":4799,"As":4800,"ordin":4801,"Ġfer":4802,"lÄ±dÄ±r":4803,"ĠðŁ":4804,"uÄŁu":4805,"Ġzorunlu":4806,"abileceÄŁiniz":4807,"ĠolduÄŁundan":4808,"Ġdiyen":4809,"ĠÄ°ÅŁlet":4810,"imizden":4811,"Ġhttp":4812,"ator":4813,"ĠNakl":4814,"**":4815,"ĠÅŁer":4816,"sem":4817,"Ġsermay":4818,"ĠÃ¼lkede":4819,"ĠbÃ¼r":4820,"ĠtarÄ±m":4821,"aÅŁÄ±r":4822,"ĠnÃ¼fus":4823,"Ġkus":4824,"Ġbayram":4825,"ĠsÃ¶yleyen":4826,"Ġtoplumsal":4827,"ayasa":4828,"ĠihtiyacÄ±":4829,"Ġelektronik":4830,"Ġtakdirde":4831,"ĠsaygÄ±":4832,"ĠYas":4833,"Ġazalt":4834,"ĠkonuÅŁma":4835,"indows":4836,"lanmÄ±ÅŁtÄ±r":4837,"ĠdÃ¶nÃ¼ÅŁtÃ¼r":4838,"altÄ±na":4839,"ĠÃ§oÄŁun":4840,"adet":4841,"ĠMa":4842,"ĠtaÅŁÄ±yan":4843,"Ġhakim":4844,"Ġbilgilendir":4845,"giler":4846,"kol":4847,"land":4848,"Bil":4849,"Ġuzat":4850,"ETÃĸ":4851,"Ġmus":4852,"ĠÃ§evre":4853,"erji":4854,"ĠUzun":4855,"ĠPartisi":4856,"Ġsim":4857,"ĠFransa":4858,"Ġistedik":4859,"Ġdurdur":4860,"ĠÃĸnc":4861,"Ġturizm":4862,"melik":4863,"Ġkesim":4864,"ĠSp":4865,"embe":4866,"cisi":4867,"Ġmetre":4868,"ĠHasan":4869,"ĠsÄ±v":4870,"and":4871,"ciler":4872,"ĠRe":4873,"âĢĵ":4874,"Ġrast":4875,"ĠadÄ±nÄ±":4876,"ĠKoca":4877,"iki":4878,"ĠMad":4879,"ĠSÄ±nÄ±f":4880,"zeme":4881,"ĠÃ§ocuklarÄ±n":4882,"ĠDest":4883,"alarÄ±ndan":4884,"ebiliyor":4885,"ond":4886,"Ġmahkem":4887,"stit":4888,"Ġedebilir":4889,"ĠSit":4890,"leyici":4891,"ĠSey":4892,"Ġadr":4893,"ĠyaÅŁamak":4894,"?âĢĿ":4895,"isiniz":4896,"Ġsiyaset":4897,"ĠPat":4898,"wit":4899,"Ġkoruma":4900,"kadaÅŁ":4901,"iyiz":4902,"Ġgr":4903,"ĠulaÅŁabilirsiniz":4904,"Ġalternatif":4905,"Ġameliyat":4906,"Es":4907,"Ġilav":4908,"ĠKomisyon":4909,"larÄ±ndaki":4910,"Ġ|--":4911,"ese":4912,"ĠyaÅŁama":4913,"ĠÅŀu":4914,"ĠteÅŁkil":4915,"ĠÄ°brahim":4916,"ĠkÃ¶k":4917,"Ġkullanmak":4918,"ity":4919,"ĠbÃ¶lgesinde":4920,"ĠhÃ¼kÃ¼met":4921,"ĠÃ¶ngÃ¶r":4922,"Ġsonuna":4923,"ĠBakanlÄ±ÄŁ":4924,"EB":4925,"red":4926,"2014":4927,"ĠBizim":4928,"liyoruz":4929,"Ġ70":4930,"Ġismi":4931,"Ġverilir":4932,"eya":4933,"ĠYine":4934,"ĠMac":4935,"ĠfiyatÄ±":4936,"Ġcilt":4937,"ĠGrup":4938,"Ġzamanlarda":4939,"ĠÃĩaÄŁ":4940,"okulu":4941,"Ġsiyah":4942,"ary":4943,"ĠÃ¶y":4944,"Ġfilmi":4945,"Ġbinlerce":4946,"Ġeb":4947,"Ġlir":4948,"cÄ±k":4949,"Ġbiliyor":4950,"Ġithal":4951,"ĠÃĸÄŁren":4952,"ĠIrak":4953,"Ġitibariyle":4954,"Ġdemektir":4955,"ĠDolay":4956,"ĠÃ¶zen":4957,"ĠAdana":4958,"Ġdemir":4959,"ĠCen":4960,"ĠvermiÅŁ":4961,"cret":4962,"tel":4963,"ĠÃ§alÄ±ÅŁmasÄ±":4964,"ĠdÃ¼nyaya":4965,"ĠduruÅŁ":4966,"ĠedilmiÅŁtir":4967,"Ä°Åŀ":4968,"Ġiken":4969,"Ġbedel":4970,"ÃĸN":4971,"100":4972,"Ġmahk":4973,"Ġediliyor":4974,"Ġsahib":4975,"Ġroman":4976,"Ġcok":4977,"ĠbÃ¶lge":4978,"Ġvergi":4979,"duÄŁumuz":4980,"ĠdolayÄ±sÄ±yla":4981,"Ġhassas":4982,"Ġakadem":4983,"antep":4984,"ĠhÃ¼k":4985,"Ġilgilen":4986,"35":4987,"ĠÅŁampiyon":4988,"Ġvurgu":4989,"Ġx":4990,"ĠTÄ±p":4991,"ĠalÄ±nmasÄ±":4992,"Ġsaf":4993,"Ġefsun":4994,"ĠBek":4995,"ĠMuham":4996,"ĠtÄ±r":4997,"ï¿½ï¿½ï¿½":4998,"ĠGru":4999,"GeÃ§":5000,"hone":5001,"ĠÅŁeker":5002,"Allah":5003,"masyon":5004,"ĠmÃ¼t":5005,"Ek":5006,"ĠalÄ±ndÄ±":5007,"ĠSaat":5008,"Ġtarihleri":5009,"ĠbÃ¶lÃ¼mÃ¼":5010,"ĠBÃ¶lÃ¼mÃ¼":5011,"ĠMey":5012,"ĠgÃ¼cÃ¼":5013,"ĠkiÅŁiye":5014,"ĠToplan":5015,"Ġfi":5016,"Ġyapabilir":5017,"Ev":5018,"ilecektir":5019,"Ġgitti":5020,"ĠsÃ¼s":5021,"kur":5022,"mos":5023,"Ġnak":5024,"ĠOtel":5025,"Ġdepo":5026,"ĠFenerbahÃ§e":5027,"Ġihtim":5028,"errah":5029,"ĠYen":5030,"ĠinsanlarÄ±":5031,"ÄŁur":5032,"ĠMahkem":5033,"ĠĠ":5034,"ĠTeÅŁ":5035,"erim":5036,"ĠhalÄ±":5037,"ĠbahÃ§":5038,"ĠkaÃ§Ä±r":5039,"bon":5040,"itap":5041,"rÃ¼k":5042,"ĠEd":5043,"Ġnakliyat":5044,"ĠgÃ¶rÃ¼len":5045,"Ġsunul":5046,"oÄŁaz":5047,"emli":5048,"Ġbulunur":5049,"Ġhasta":5050,"ĠÅŀampiyon":5051,"ĠBat":5052,"Ġtehdit":5053,"ĠolmalÄ±dÄ±r":5054,"Ġyerli":5055,"uyucu":5056,"Ġkayded":5057,"ĠÃĸÄŁretim":5058,"Ġneredeyse":5059,"Ġkomut":5060,"Ġgetirdi":5061,"usuna":5062,"Ġokun":5063,"Ġprojesi":5064,"ĠuygulamasÄ±":5065,"ĠbÃ¶":5066,"Ġmisafir":5067,"ĠKÄ±lÄ±Ã§":5068,"ĠHep":5069,"lari":5070,"ĠsonuÃ§larÄ±":5071,"ĠOnun":5072,"ĠCev":5073,"29":5074,"Ġlezzet":5075,"ĠNasÄ±l":5076,"ĠbarÄ±ÅŁ":5077,"ĠdeÄŁeri":5078,"Ġ''":5079,"Ä±yorsanÄ±z":5080,"Ä°l":5081,"ĠkitabÄ±":5082,"dip":5083,"ĠdesteÄŁi":5084,"Ġdernek":5085,"sul":5086,"droid":5087,"Ġyalan":5088,"Ġiade":5089,"ĠÃ¼rÃ¼nÃ¼":5090,"tÃ¼rk":5091,"ebe":5092,"Ġhediye":5093,"ĠotobÃ¼s":5094,"sinde":5095,"ĠÃ¼niversite":5096,"etrol":5097,"ĠBatÄ±":5098,"cÄ±lÄ±ÄŁÄ±":5099,"Ġunsur":5100,"Ġoyunc":5101,"Ġayn":5102,"yasal":5103,"ĠThe":5104,"ĠFet":5105,"Ġsanayi":5106,"ĠyaÅŁay":5107,"esef":5108,"Ġ197":5109,"ĠmÃ¼l":5110,"Ġmutfak":5111,"Ġfaydalan":5112,"!!":5113,"adeniz":5114,"lemeye":5115,"ĠHast":5116,"osya":5117,"ĠFin":5118,"Ġ45":5119,"ĠBakan":5120,"lerimizin":5121,"vekil":5122,"kÄ±r":5123,"ayÄ±m":5124,"Ġalmaya":5125,"Ġhepsi":5126,"leki":5127,"Ġincelem":5128,"ĠettiÄŁini":5129,"ĠkadÄ±nlar":5130,"urk":5131,"mamasÄ±":5132,"ĠBÃ¼tÃ¼n":5133,"sev":5134,"ĠilÃ§e":5135,"Ġetkilen":5136,"idir":5137,"Ġidi":5138,"duklarÄ±":5139,"Ġbenzeri":5140,"ĠkarÅŁÄ±lÄ±k":5141,"mede":5142,"eliÄŁi":5143,"ĠÄ°let":5144,"ĠZaman":5145,"ĠÃ¶t":5146,"laya":5147,"Ġsistemleri":5148,"Ġorganizasyon":5149,"ikat":5150,"Ġref":5151,"ĠyÃ¶nlendir":5152,"lor":5153,"ly":5154,"tansiy":5155,"emizi":5156,"ĠGalatasaray":5157,"Ð¾":5158,"ĠAc":5159,"ĠOf":5160,"ĠyarÄ±":5161,"Ġbirbirinden":5162,"03":5163,"ĠyÄ±llar":5164,"ĠGÃ¼neÅŁ":5165,"ahtar":5166,"fil":5167,"Ä±lÄ±ÄŁÄ±":5168,"ĠamaÃ§lÄ±":5169,"Ãĸzel":5170,"ĠÃ¶ncelikle":5171,"Ġdizi":5172,"SS":5173,"OK":5174,"deb":5175,"ĠGÃ¼nÃ¼":5176,"Ġmens":5177,"ĠBilim":5178,"ĠMadde":5179,"Ġdurumlarda":5180,"ĠiliÅŁkiler":5181,"anti":5182,"Ġren":5183,"ĠBÃ¶lg":5184,"tanÄ±n":5185,"rama":5186,"orno":5187,"ĠpopÃ¼ler":5188,"ĠhÄ±zla":5189,"mÄ±z":5190,"ĠHayat":5191,"Ġ2009":5192,"ĠSa":5193,"ĠaÃ§Ä±lan":5194,"ĠIs":5195,"Ġsigort":5196,"ĠolacaÄŁÄ±nÄ±":5197,"Ġgem":5198,"ĠHiÃ§":5199,"Ġkendilerini":5200,"IK":5201,"Ã§uk":5202,"ĠaÃ§Ä±lÄ±ÅŁ":5203,"ĠKuzey":5204,"kal":5205,"Ġpil":5206,"ang":5207,"Ġtit":5208,"Ġvs":5209,"ĠHakkÄ±nda":5210,"ĠgÃ¼ndem":5211,"Ġbozuk":5212,"liliÄŁi":5213,"ĠKomut":5214,"ĠÃ§alÄ±ÅŁÄ±yor":5215,"ĠvÃ¼cud":5216,"ĠDin":5217,"Ġistiyoruz":5218,"Ġterk":5219,"ĠkÄ±sÄ±m":5220,"ĠÃ¶rn":5221,"Ġsizler":5222,"Kur":5223,"Ġkriz":5224,"Ġkonak":5225,"Ġbahset":5226,"ĠPKK":5227,"ĠyÃ¼rÃ¼r":5228,"ĠWeb":5229,"Ġmakam":5230,"ĠsanatÃ§Ä±":5231,"Ġusul":5232,"ĠDÃ¼ny":5233,"aÄŁÄ±n":5234,"ĠÅŁark":5235,"TÃľ":5236,"ĠsaÄŁlÄ±yor":5237,"akkabÄ±":5238,"Ġkaps":5239,"Ġdeng":5240,"ĠsÃ¼ren":5241,"ĠMus":5242,"ĠkÄ±ya":5243,"ĠTurizm":5244,"ĠÃ§eki":5245,"ĠgÃ¶ÄŁ":5246,"Ġyapabilirsiniz":5247,"ĠBoz":5248,"ĠhazÄ±rlÄ±k":5249,"Ġaktiv":5250,"Ġbirer":5251,"Ġederken":5252,"ĠiÅŁin":5253,"ĠTarÄ±m":5254,"LU":5255,"makla":5256,"Ġyenil":5257,"ĠdediÄŁ":5258,"iyel":5259,"Ġblog":5260,"Ġwww":5261,"Ġtedbir":5262,"Ġuyum":5263,"isa":5264,"Ä±ydÄ±":5265,"ulacak":5266,"ĠArtÄ±k":5267,"ĠiÅŁÃ§i":5268,"Ġ36":5269,"Ġdey":5270,"amam":5271,"Ġdiler":5272,"ĠiÅŁler":5273,"alimanÄ±":5274,"enkul":5275,"Ġsiteleri":5276,"ĠhÃ¼cr":5277,"Bak":5278,"Tek":5279,"kel":5280,"tÄ±cÄ±":5281,"Ġfonksiyon":5282,"ĠSÃ¼per":5283,"ĠimkanÄ±":5284,"Ġkoru":5285,"ĠEf":5286,"Ġfatur":5287,"Ġsevk":5288,"CÄ°":5289,"ĠtÃ¼ketim":5290,"ĠulaÅŁÄ±m":5291,"Ġincelen":5292,"Ã¼leyman":5293,"ukat":5294,"ice":5295,"Ġsabit":5296,"ĠdemiÅŁ":5297,"ĠHastanesi":5298,"02":5299,"Ġyetkili":5300,"ĠAmaÃ§":5301,"ĠyaÅŁadÄ±ÄŁÄ±":5302,"Ġrenkli":5303,"ĠDÃ¼ÅŁ":5304,"mesinde":5305,"bil":5306,"ileceÄŁini":5307,"OB":5308,"ĠalbÃ¼m":5309,"ĠBelediy":5310,"lanÄ±yor":5311,"ĠdolaÅŁ":5312,"ock":5313,"ĠKart":5314,"ĠgeldiÄŁi":5315,"Ġku":5316,"ĠiliÅŁki":5317,"Ġyenilik":5318,"ĠtuÅŁ":5319,"ebilmek":5320,"ezerv":5321,"eter":5322,"ĠhayatÄ±":5323,"53":5324,"Ġyolcu":5325,"Etik":5326,"ĠbirleÅŁtir":5327,"eyh":5328,"istin":5329,"LARI":5330,"BugÃ¼n":5331,"ĠAN":5332,"ĠHatta":5333,"ĠbakÄ±mÄ±ndan":5334,"andar":5335,"kÄ±rÄ±":5336,"Ġbl":5337,"anyo":5338,"ĠAR":5339,"Ġekipleri":5340,"ĠcoÄŁraf":5341,"Ġtemizlik":5342,"LE":5343,"Ġorman":5344,"ĠdaÄŁÄ±t":5345,"Ġmuhal":5346,"tren":5347,"Ġiyice":5348,"ĠolmaktadÄ±r":5349,"ĠQ":5350,"ĠyÄ±lÄ±ndan":5351,"ĠDoÃ§":5352,"ĠBunlar":5353,"Ġmahall":5354,"Ġkurumsal":5355,"ĠKiÅŁ":5356,"edektif":5357,"mit":5358,"Ġfayda":5359,"ĠÃĩelik":5360,"Ġbilimsel":5361,"Ã¼lmesi":5362,"ĠÄ°nternet":5363,"ĠaÄŁz":5364,"ĠpaylaÅŁÄ±m":5365,"ĠyÃ¼zey":5366,"ment":5367,"ĠErkek":5368,"ĠFÄ±r":5369,"ruf":5370,"Ã¶rÃ¼":5371,"Ġnoktada":5372,"ĠyapÄ±sÄ±":5373,"Ġgelip":5374,"ĠistiyorsanÄ±z":5375,"ĠEmniyet":5376,"ĠgÃ¶zaltÄ±na":5377,"ĠparÃ§asÄ±":5378,"Ġalg":5379,"ĠgÃ¶rÃ¼nÃ¼m":5380,"Ġkilomet":5381,"Ġkaydetti":5382,"ĠyumuÅŁ":5383,"ĠDeÄŁer":5384,"Ġakl":5385,"ĠbilinÃ§":5386,"div":5387,"ĠEscort":5388,"ĠarkadaÅŁlar":5389,"our":5390,"omb":5391,"Ġistedi":5392,"ĠhÄ±r":5393,"ĠHÃ¼kÃ¼m":5394,"ĠYok":5395,"Ã¼bÃ¼":5396,"ĠÃ¼yeleri":5397,"ĠyaklaÅŁÄ±m":5398,"SO":5399,"Ã¼str":5400,"ĠmuhteÅŁem":5401,"Ġortamda":5402,"layabilirsiniz":5403,"Ġvermektedir":5404,"Ġharit":5405,"inda":5406,"ĠCem":5407,"Ġbirini":5408,"Ġten":5409,"ĠBahÃ§":5410,"Ġsakin":5411,"ĠÃ¶ÄŁrencilerin":5412,"Ä±lmaktadÄ±r":5413,"rop":5414,"ĠYÃ¶netimi":5415,"ĠAbd":5416,"ilerden":5417,"unuzu":5418,"alatya":5419,"kiÅŁehir":5420,"ĠÃĸmer":5421,"Daha":5422,"Ġkurs":5423,"ĠsÃ¶ylen":5424,"ĠgÃ¶zlem":5425,"Ġtoz":5426,"anakk":5427,"ĠÃľÃ§":5428,"demir":5429,"Ä°lk":5430,"Ġtepki":5431,"ĠFeder":5432,"ĠDE":5433,"ĠbiÃ§im":5434,"06":5435,"irv":5436,"ĠoyunlarÄ±":5437,"Ġse":5438,"ell":5439,"Ġmaddesi":5440,"ĠolmalÄ±":5441,"ĠtaÅŁÄ±m":5442,"09":5443,"illa":5444,"Ġ2008":5445,"ÌĪ":5446,"ĠfaktÃ¶r":5447,"ĠilanÄ±":5448,"ĠÅŁaÅŁÄ±r":5449,"Ġrefer":5450,"ĠaÅŁa":5451,"ĠProgramÄ±":5452,"va":5453,"ĠPeki":5454,"ĠHÃ¼seyin":5455,"isiklet":5456,"ĠCuma":5457,"ĠYapÄ±lan":5458,"likler":5459,"Ġpotansiy":5460,"igit":5461,"ert":5462,"var":5463,"ĠKil":5464,"ĠÅŁim":5465,"ilmez":5466,"sef":5467,"tic":5468,"Ä±lmasÄ±nÄ±":5469,"Ġkuzey":5470,"Ġedilecek":5471,"Ġdarbe":5472,"Ġdemokras":5473,"SI":5474,"rag":5475,"Ġkalma":5476,"Ġgenelinde":5477,"Ġmekt":5478,"ĠBalÄ±k":5479,"ĠyaÅŁlÄ±":5480,"Ġgirdi":5481,"ĠkarÅŁÄ±lan":5482,"ektÃ¶rÃ¼":5483,"insel":5484,"Ġofis":5485,"Ġmemur":5486,"ĠYÄ±ldÄ±z":5487,"ack":5488,"RO":5489,"ĠKaymak":5490,"oli":5491,"07":5492,"Ġsevin":5493,"iyan":5494,"alandÄ±r":5495,"ĠHizmetleri":5496,"ĠteÅŁvik":5497,"EÄŁer":5498,"ĠoÄŁlu":5499,"Ġyarg":5500,"lÄ±ÄŁÄ±nÄ±n":5501,"ĠbÃ¼yÃ¼m":5502,"ĠkÃ¼ltÃ¼rel":5503,"ĠyaptÄ±klarÄ±":5504,"kent":5505,"bakÄ±r":5506,"ĠsektÃ¶rÃ¼nde":5507,"ĠkÃ¼t":5508,"witter":5509,"ekteyiz":5510,"Ġmevzu":5511,"lÃ¼ÄŁe":5512,"Ġburaya":5513,"Ä±klÄ±":5514,"ĠyÃ¼kÃ¼m":5515,"ĠÄ°le":5516,"uluÄŁ":5517,"ĠaÅŁaÄŁÄ±da":5518,"anakkale":5519,"Ġsam":5520,"ĠÃĩalÄ±ÅŁma":5521,"ĠAL":5522,"ĠkÄ±zÄ±":5523,"Ġevden":5524,"Ġrestor":5525,"44":5526,"ÃľRK":5527,"08":5528,"Ġilave":5529,"olog":5530,"ular":5531,"Ġtamamlan":5532,"ĠaklÄ±":5533,"ĠKamu":5534,"ĠkadÄ±nÄ±n":5535,"Ġye":5536,"enn":5537,"ĠgÃ¶k":5538,"ĠÄ°ÅŁleri":5539,"ĠEnd":5540,"ĠaykÄ±rÄ±":5541,"Ġkere":5542,"Ġsunan":5543,"Ġkoltuk":5544,"ĠÄ°h":5545,"ĠgeÃ§er":5546,"enizi":5547,"abileceÄŁi":5548,"ĠKurumu":5549,"ĠiÅŁlev":5550,"ĠfirmasÄ±":5551,"Ġalabilirsiniz":5552,"Ġkoc":5553,"ĠDolayÄ±sÄ±yla":5554,"ilmesini":5555,"amin":5556,"ĠyayÄ±nlanan":5557,"Ġsebebi":5558,"Ġelb":5559,"ileÅŁtir":5560,"ahh":5561,"ĠAltÄ±n":5562,"odrum":5563,"Ġgrubu":5564,"tib":5565,"ĠyargÄ±":5566,"ĠdanÄ±ÅŁman":5567,"04":5568,"ĠGer":5569,"ĠHazÄ±r":5570,"ĠSil":5571,"ĠaldÄ±m":5572,"ĠgÄ±da":5573,"ĠpiÅŁir":5574,"Ġsunuyor":5575,"Ġbirinin":5576,"abilen":5577,"ĠdÃ¶nemi":5578,"ĠistediÄŁi":5579,"ĠDeÄŁiÅŁ":5580,"Ġbelirlenen":5581,"ayacak":5582,"ĠStr":5583,"ĠFransÄ±z":5584,"ĠmÃ¼hendis":5585,"Ø§":5586,"ĠkaynaÄŁÄ±":5587,"ĠbugÃ¼ne":5588,"Ġsevgil":5589,"Ġadeta":5590,"ĠPaÅŁa":5591,"Ġaj":5592,"ĠÃ§aÄŁÄ±r":5593,"ivas":5594,"Ġmodeli":5595,"ÅŁiv":5596,"Ġyoluyla":5597,"mis":5598,"Top":5599,"yaj":5600,"ĠgereÄŁi":5601,"ĠYeÅŁil":5602,"ĠbaÅŁkanÄ±":5603,"ĠkÃ¶pek":5604,"ĠKons":5605,"ĠCeza":5606,"Ġulusal":5607,"ĠdaÄŁÄ±":5608,"ĠilginÃ§":5609,"yÄ±m":5610,"ĠMic":5611,"Ġdijital":5612,"tÄ±n":5613,"ĠKarar":5614,"arbakÄ±r":5615,"ĠBab":5616,"Ä±sal":5617,"ĠgeleceÄŁ":5618,"ĠLigi":5619,"Merhaba":5620,"Ġop":5621,"ump":5622,"ĠoranÄ±nda":5623,"ĠsarÄ±":5624,"ĠÃĩÄ±k":5625,"ĠkÃ¶t":5626,"Ġbiridir":5627,"afer":5628,"\",":5629,"Ġsebebiyle":5630,"Ġkanser":5631,"Ġkara":5632,"ima":5633,"Ġdevrim":5634,"Ġbilgiye":5635,"ĠgÃ¶rÃ¼ÅŁmeler":5636,"Ġkulak":5637,"ĠaÄŁrÄ±":5638,"masÄ±n":5639,"Ġtablo":5640,"Ġhissed":5641,"ĠBoy":5642,"Ġkolayca":5643,"ĠMen":5644,"oft":5645,"Ä°nsan":5646,"ĠesnasÄ±nda":5647,"umartesi":5648,"ĠÄ°letiÅŁim":5649,"caÄŁÄ±m":5650,"ĠLe":5651,"ĠBirleÅŁ":5652,"ĠdÃ¼zelt":5653,"utma":5654,"ĠmaÄŁaz":5655,"ĠFer":5656,"ĠaÃ§Ä±dan":5657,"ĠMuhammed":5658,"elek":5659,"Ġyedek":5660,"elli":5661,"lÃ¢m":5662,"alesef":5663,"oo":5664,"Ġbitk":5665,"75":5666,"ĠGÃ¶n":5667,"Ġaltyap":5668,"Ġkalite":5669,"ĠGrubu":5670,"ĠgÃ¶l":5671,"Ġbuz":5672,"Ġalak":5673,"ĠÃ§aÄŁrÄ±":5674,"ĠkayÄ±p":5675,"ĠeÅŁi":5676,"IÅŀ":5677,"ĠyanÄ±na":5678,"Ġhapis":5679,"Ġyerden":5680,"ĠgÃ¶sterir":5681,"sÄ±zÄ±n":5682,"mÃ¼ÅŁtÃ¼r":5683,"Ä±yÄ±z":5684,"itir":5685,"ĠReh":5686,"Ġsanki":5687,"ĠgeÃ§ici":5688,"ĠTemiz":5689,"Ġkonser":5690,"Ġbuyur":5691,"31":5692,"Ġdedektif":5693,"Ġbeklent":5694,"Ġistihdam":5695,"asÄ±ndaki":5696,"ĠbÃ¼nyesinde":5697,"car":5698,"ĠSÃ¼leyman":5699,"Ġplak":5700,"ĠJap":5701,"ĠKaynak":5702,"ĠalÄ±narak":5703,"Ä°S":5704,"Kon":5705,"lerken":5706,"ĠkonuÅŁan":5707,"Ġindirim":5708,"ĠÅŁef":5709,"Ġbirbirine":5710,"onun":5711,"TC":5712,"ck":5713,"ĠPark":5714,"Ġdip":5715,"ĠNew":5716,"www":5717,"ĠÃ§aÄŁr":5718,"Ġdan":5719,"âĢ¢":5720,"ĠkartÄ±":5721,"Ä±ldÄ±ÄŁÄ±nda":5722,"Uz":5723,"liye":5724,"Ġyenilen":5725,"Ne":5726,"ĠFestiv":5727,"do":5728,"Ġfutbolcu":5729,"tayÄ±z":5730,"Ġtutan":5731,"ĠÃĸl":5732,"ĠErz":5733,"landa":5734,"Ġetki":5735,"Ä±lacaÄŁÄ±":5736,"ĠÄ°kinci":5737,"ĠGenÃ§lik":5738,"ĠSe":5739,"Yap":5740,"Ġbelediy":5741,"atistik":5742,"ĠkaÅŁ":5743,"Ġfabrik":5744,"Ġsorunun":5745,"ĠbirleÅŁ":5746,"Ã§Ä±k":5747,"Ġanlama":5748,"YA":5749,"kim":5750,"ĠiP":5751,"Ã¼mÃ¼ze":5752,"ĠSistemi":5753,"vel":5754,"ĠApp":5755,"Ä±lav":5756,"Ġettim":5757,"Ġkimlik":5758,"ebiliriz":5759,"gulan":5760,"ĠendiÅŁ":5761,"Ġeh":5762,"ĠhaklarÄ±":5763,"ĠFacebook":5764,"Ġkullanan":5765,"ĠgeÃ§tiÄŁimiz":5766,"ĠgeliÅŁmeler":5767,"ral":5768,"ĠÃ¼retimi":5769,"ĠGerek":5770,"ĠyansÄ±":5771,"Ġport":5772,"ĠyÃ¼kselt":5773,"lerimize":5774,"Ġyav":5775,"ĠdÃ¼ÅŁen":5776,"ĠfÄ±kr":5777,"anÄ±z":5778,"ĠMÃ¼dÃ¼rlÃ¼ÄŁ":5779,"mesiyle":5780,"Ġnefes":5781,"ĠÅŁehr":5782,"ĠMersin":5783,"Ġtakv":5784,"unma":5785,"OM":5786,"ĠCih":5787,"Ġbeklem":5788,"Ankara":5789,"ĠkÄ±yafet":5790,"ĠgÃ¶revi":5791,"Ġbence":5792,"Ġumut":5793,"ĠAj":5794,"ĠKurt":5795,"36":5796,"Ġbeyan":5797,"ĠLisans":5798,"ĠDÄ±ÅŁiÅŁleri":5799,"nan":5800,"iÃ§i":5801,"CumhurbaÅŁk":5802,"Ġsinir":5803,"ĠkadÄ±nlarÄ±n":5804,"alarla":5805,"ĠyarÄ±n":5806,"ĠÅŀube":5807,"ĠArab":5808,"madÄ±ÄŁÄ±":5809,"Ġkuma":5810,"ĠÃĩek":5811,"ĠgÃ¶steriyor":5812,"Ġadalet":5813,"duÄŁunuz":5814,"Ġinsanlara":5815,"ĠÃ¼lkemizde":5816,"ĠuyarÄ±":5817,"ĠtanÄ±tÄ±m":5818,"malarÄ±n":5819,"Ġsergil":5820,"yalÄ±":5821,"Ġbesin":5822,"ediÄŁiniz":5823,"Ġboyu":5824,"ĠmÃ¼r":5825,"ĠSonuÃ§":5826,"ĠgÃ¼ne":5827,"Etiketler":5828,"Ã¼mrÃ¼k":5829,"Ġdepr":5830,"Ul":5831,"Ġisterseniz":5832,"veya":5833,"ĠulaÅŁtÄ±r":5834,"tacak":5835,"Ġniyet":5836,"Ġboya":5837,"otel":5838,"ĠYurt":5839,"ĠdÃ¶nÃ¼ÅŁÃ¼m":5840,"ĠKup":5841,"ĠÄ°d":5842,"ori":5843,"anÄ±k":5844,"ĠiÅŁbirliÄŁi":5845,"ĠPort":5846,"Ġverilmesi":5847,"eceksiniz":5848,"Ġsayede":5849,"ĠgÃ¼r":5850,"Ġanlatan":5851,"isyen":5852,"Ġondan":5853,"kir":5854,"Ä°z":5855,"ĠMon":5856,"ĠGÃ¶l":5857,"ilip":5858,"ĠsorunlarÄ±":5859,"Ġyerlerde":5860,"ĠRamazan":5861,"ĠetmiÅŁtir":5862,"ĠyaÅŁadÄ±ÄŁ":5863,"ĠkÃ¼resel":5864,"Ã¼lÃ¼k":5865,"ĠUygulama":5866,"Ġdini":5867,"Ã¼ldÃ¼":5868,"veren":5869,"ĠÄ±r":5870,"Ġanal":5871,"ĠbÃ¶lÃ¼mÃ¼nde":5872,"ĠProjesi":5873,"Ġmalzeme":5874,"ĠYah":5875,"Ã¼ce":5876,"mr":5877,"Ġnas":5878,"siyet":5879,"ĠÄ±":5880,"ĠalÄ±nacak":5881,"ĠalanlarÄ±":5882,"ĠÃĸdÃ¼l":5883,"layacak":5884,"Ġherkese":5885,"ĠElektrik":5886,"ilmesine":5887,"Ġkonuk":5888,"ĠMobil":5889,"ĠhastalÄ±ÄŁ":5890,"Ġ01":5891,"ho":5892,"mm":5893,"Ġmimar":5894,"ĠkavuÅŁ":5895,"ĠÃľcret":5896,"ĠbÃ¼yÃ¼":5897,"zi":5898,"Ġha":5899,"dÄ±lar":5900,"ĠBelki":5901,"eyerek":5902,"ĠfaydalÄ±":5903,"ĠbaÅŁlayacak":5904,"ĠUlusal":5905,"ĠRum":5906,"ĠkarÅŁÄ±ya":5907,"ĠmaaÅŁ":5908,"ĠzamanÄ±":5909,"Ġ300":5910,"Ġmaddi":5911,"ĠtakÄ±mÄ±":5912,"Ġuyumlu":5913,"Ġpanel":5914,"Ġokuma":5915,"Ġvererek":5916,"ĠKaradeniz":5917,"ĠbÃ¶ylece":5918,"Ġkapasit":5919,"imle":5920,"lerindeki":5921,"ĠyÃ¼zÃ¼nden":5922,"ĠedildiÄŁi":5923,"Ġitiraz":5924,"liliÄŁ":5925,"ĠKav":5926,"Ġedilmektedir":5927,"Ġtor":5928,"Ġbilen":5929,"ograf":5930,"Ġideal":5931,"ĠkaÄŁÄ±t":5932,"Ġmesle":5933,"ĠhatÄ±rlat":5934,"Ġnumara":5935,"Ġtabii":5936,"Ġsigorta":5937,"SB":5938,"ĠgÃ¼ney":5939,"Ġhavuz":5940,"Ġvermeye":5941,"ĠmÃ¼dahale":5942,"Ġkomisyon":5943,"Ġgidip":5944,"ĠBayan":5945,"99":5946,"leyerek":5947,"ĠRabb":5948,"66":5949,"Ġmetrek":5950,"parator":5951,"ry":5952,"ĠgÃ¶rÃ¼r":5953,"ĠÃĸÄŁrenc":5954,"deri":5955,"ĠGaz":5956,"Ġyoktu":5957,"emeyen":5958,"ĠdeÄŁin":5959,"diklerini":5960,"ĠYÃ¶netmeli":5961,"diniz":5962,"Ġseyir":5963,"ĠyapÄ±lab":5964,"Ġgidiyor":5965,"Ġbulunmak":5966,"Sen":5967,"Ġrej":5968,"Ġzek":5969,"ĠÃ¼stÃ¼ne":5970,"gat":5971,"ĠyapÄ±ldÄ±ÄŁÄ±":5972,"ĠBaÅŁvur":5973,"cer":5974,"ĠCadde":5975,"EC":5976,"ĠolduklarÄ±nÄ±":5977,"Ġburadan":5978,"ĠGazete":5979,"ildiÄŁini":5980,"ĠcezasÄ±":5981,"andarma":5982,"ĠÃ§Ä±kmÄ±ÅŁ":5983,"ĠFETÃĸ":5984,"Ġbelgesi":5985,"ĠinsanÄ±":5986,"ris":5987,"Ġelbette":5988,"ĠMem":5989,"olar":5990,"ĠÄ°nÅŁaat":5991,"ress":5992,"ĠAraÃ§":5993,"OÄŀ":5994,"ĠÄ°ÅŁlem":5995,"Ġufak":5996,"ĠaracÄ±lÄ±ÄŁÄ±yla":5997,"ĠOrgan":5998,"Ġfiziksel":5999,"teri":6000,"ĠfirmamÄ±z":6001,"ray":6002,"ĠDestek":6003,"ĠYa":6004,"Ġizlen":6005,"gÃ¼r":6006,"stagram":6007,"ĠolasÄ±":6008,"rens":6009,"Ġifadelerini":6010,"Ġsa":6011,"TL":6012,"layabilir":6013,"FA":6014,"eciler":6015,"Ġgitmek":6016,"Ġbulmak":6017,"Ġekibi":6018,"2013":6019,"Siz":6020,"ĠÃĸZ":6021,"ĠVakfÄ±":6022,"usunun":6023,"fÄ±r":6024,"ĠÃ§elik":6025,"das":6026,"otik":6027,"ĠÃ¶rt":6028,"ĠAmerikan":6029,"Ġkup":6030,"ĠEnstit":6031,"bek":6032,"ĠÅŁunlarÄ±":6033,"Ġgenelde":6034,"Ġsunulan":6035,"ĠbarÄ±ndÄ±r":6036,"ĠgÃ¶rdÃ¼k":6037,"ĠkomÅŁ":6038,"Ġstat":6039,"eks":6040,"liy":6041,"ĠâĢĿ":6042,"irim":6043,"EY":6044,"Ġdoy":6045,"Ġfalan":6046,"ĠaralÄ±k":6047,"Ġtasarruf":6048,"elendir":6049,"ĠÄ°lgili":6050,"Ä°D":6051,"Ġtiyatro":6052,"Ġbulabilirsiniz":6053,"TÃ¼m":6054,"aÄŁÄ±nÄ±":6055,"iyede":6056,"Ġdava":6057,"ĠDÃ¼zen":6058,"ĠSes":6059,"Ġedilebilir":6060,"lerdi":6061,"ĠkalÄ±cÄ±":6062,"Ãĩok":6063,"ĠtÄ±p":6064,"Ġedec":6065,"lÄ±kta":6066,"ĠaralarÄ±nda":6067,"mu":6068,"likte":6069,"ĠgerektiÄŁi":6070,"ĠyÃ¼rÃ¼yÃ¼ÅŁ":6071,"Ġmanz":6072,"ĠGar":6073,"ĠNot":6074,"tuÄŁ":6075,"azartesi":6076,"gÃ¼":6077,"Ġkullanma":6078,"Ġedebiyat":6079,"duÄŁum":6080,"les":6081,"danÄ±":6082,"ĠVan":6083,"ĠKut":6084,"Ġistif":6085,"los":6086,"ĠÃ¶lÃ§Ã¼de":6087,"ĠyapÄ±n":6088,"ĠAkdeniz":6089,"Ġmutluluk":6090,"ĠWindows":6091,"ĠhalkÄ±n":6092,"Ġsuretiyle":6093,"ĠyakÄ±ndan":6094,"ĠgÃ¼Ã§lendir":6095,"Ġvir":6096,"EO":6097,"Ġkeyifli":6098,"Ġto":6099,"ĠAna":6100,"Ġust":6101,"emey":6102,"lÄ±ÄŁÄ±nda":6103,"ena":6104,"ĠKendi":6105,"Ã¼ye":6106,"ĠodasÄ±":6107,"ĠBÃ¶lge":6108,"ĠiÅŁleri":6109,"ĠHerk":6110,"ĠHareket":6111,".âĢĻ":6112,"usuz":6113,"ĠalÄ±nÄ±r":6114,"Ġgeleneksel":6115,"Ġmaruz":6116,"Ġdakikada":6117,"ĠuÃ§uÅŁ":6118,"ĠkalmÄ±ÅŁ":6119,"ĠNum":6120,"ĠOÄŁ":6121,"ie":6122,"Ġolmayacak":6123,"Ġtanesi":6124,"Ġyolunda":6125,"ĠbaÅŁlangÄ±Ã§":6126,"ĠTun":6127,"ĠGÃ¶rev":6128,"Ġkorumak":6129,"Ġnesil":6130,"ĠFark":6131,"ĠAsya":6132,"okol":6133,"ĠeÅŁya":6134,"Ġmevcuttur":6135,"ĠgÃ¼ndeme":6136,"araj":6137,"ĠBundan":6138,"Ġmetal":6139,"Ġpratik":6140,"eydi":6141,"muyor":6142,"Ġkiralama":6143,"elal":6144,"ĠMÃ¼ÅŁt":6145,"ĠÄ°sp":6146,"ĠÃ¶nde":6147,"amÄ±ÅŁ":6148,"ko":6149,"melidir":6150,"Ġbiy":6151,"Ġdilek":6152,"ĠkolaylaÅŁtÄ±r":6153,"ĠKamp":6154,"ĠdÃ¼zeyde":6155,"ĠgerekÃ§":6156,"ĠadlandÄ±r":6157,"Ġacil":6158,"Ġmoda":6159,"Ã¶p":6160,"ĠMÄ±sÄ±r":6161,"ãģĤãģĤãģĤãģĤãģĤãģĤãģĤãģĤ":6162,"ĠLisesi":6163,"Ã¢y":6164,"ĠMu":6165,"Ġduruma":6166,"Ġaraba":6167,"ĠÃ¼retic":6168,"ĠyangÄ±n":6169,"Ġpr":6170,"Ġmm":6171,"Bel":6172,"ĠDik":6173,"TR":6174,"ĠMesel":6175,"Ġtarihinden":6176,"ĠTelefon":6177,"ayÄ±t":6178,"ĠmÃ¼mkÃ¼ndÃ¼r":6179,"ider":6180,"ĠFar":6181,".[":6182,"eyse":6183,"asi":6184,"Ġyeten":6185,"US":6186,"Ġob":6187,"ĠBe":6188,"ĠolacaÄŁÄ±":6189,"ĠMHP":6190,"ebi":6191,"Ġkimyasal":6192,"ĠbÃ¼tÃ§":6193,"Ġislam":6194,"ĠHayvan":6195,"Ùİ":6196,"anlarÄ±n":6197,"ĠDon":6198,"ĠFutbol":6199,"kÄ±n":6200,"tek":6201,"dÃ¼ÄŁÃ¼nÃ¼":6202,"ĠNakliyat":6203,"Ġbelirtildi":6204,"orat":6205,"ĠTasarÄ±m":6206,"ĠbaÄŁÄ±r":6207,"mekten":6208,"raÄŁÄ±":6209,"yeni":6210,"Ġtaraftar":6211,"ĠResmi":6212,"dÄ±ÄŁÄ±ndan":6213,"melerin":6214,"ĠEx":6215,"Ä±ldÄ±ÄŁÄ±nÄ±":6216,"Ġburs":6217,"ĠhazÄ±rla":6218,"ĠTemel":6219,"Ġkahraman":6220,"ĠÃĩevre":6221,"Ġest":6222,"ĠgÃ¼venliÄŁi":6223,"ĠbabasÄ±":6224,"Ġkonularda":6225,"Ġharf":6226,"34":6227,"Ġfazlas":6228,"ĠkanÄ±t":6229,"itler":6230,"DÃ¼nya":6231,"ecik":6232,"ĠsÃ¼rÃ¼cÃ¼":6233,"ĠkaÃ§Ä±n":6234,"Ġbilgisi":6235,"ĠKent":6236,"ĠTurk":6237,"arik":6238,"ĠRapor":6239,"ami":6240,"ferans":6241,"ĠGaziantep":6242,"ĠTR":6243,"Ġfinal":6244,"ĠkarÅŁÄ±laÅŁtÄ±r":6245,"ĠEnerji":6246,"ĠYatÄ±rÄ±m":6247,"landÄ±ÄŁÄ±":6248,"Ġkalb":6249,"Ġmaden":6250,"ĠÃ§Ä±kacak":6251,"satÄ±":6252,"Ġdedik":6253,"ĠaraÅŁtÄ±rmalar":6254,"AÄŀ":6255,"Ġ34":6256,"ĠyÃ¶r":6257,"ĠBeyaz":6258,"ĠbaÄŁÄ±ÅŁ":6259,"Ġesnaf":6260,"Ġmuhab":6261,"OT":6262,"ĠAile":6263,"Ġsizleri":6264,"Ġdevletin":6265,"ĠcivarÄ±nda":6266,"Ġverimli":6267,"ĠÃ§ekti":6268,"ĠgÃ¶m":6269,"Ġzemin":6270,"Ġrahmet":6271,"ĠÃ¶ncesinde":6272,"Ġederiz":6273,"ĠgerÃ§ekleÅŁen":6274,"Ġtutul":6275,"ĠyÃ¶nÃ¼nde":6276,"Ġkitl":6277,"ĠolduÄŁum":6278,"ĠÃ§alÄ±ÅŁmalarÄ±nÄ±":6279,"ĠgÃ¼nden":6280,"ĠEÄŁitimi":6281,"Ġhata":6282,"yiz":6283,"ĠAlev":6284,"ĠYapÄ±":6285,"Ġmakal":6286,"ĠCar":6287,"Ġyitir":6288,"ĠyarÄ±m":6289,"ĠgÃ¶sterdi":6290,"ĠÃ§ocuÄŁun":6291,"ĠkatÄ±":6292,"Ġoynay":6293,"Ġkusur":6294,"Ġep":6295,"maktÄ±r":6296,"Ġmensup":6297,"aklÄ±":6298,"ĠtÃ¼rÃ¼":6299,"ĠdÃ¼ÄŁÃ¼n":6300,"Ġverim":6301,"Ġkimi":6302,"atÄ±n":6303,"Tar":6304,"Ġrezerv":6305,"ĠkÃ¶pr":6306,"Ġklasik":6307,"Ġoldum":6308,"ĠgÃ¼nÃ¼mÃ¼zde":6309,"Ġ48":6310,"leket":6311,"Ġdarb":6312,"Ġrakip":6313,"Ġkalab":6314,"usuf":6315,"ook":6316,"ĠÃľyesi":6317,"ĠMakin":6318,"Ġ32":6319,"ĠAslÄ±nda":6320,"ydÄ±":6321,"ĠMeslek":6322,"tÄ±lar":6323,"BMM":6324,"Ġsavunma":6325,"Ã½r":6326,"ĠrÃ¼z":6327,"Ġlink":6328,"ĠvarlÄ±k":6329,"ĠgÃ¼nler":6330,"Ġuyku":6331,"Ã¼ks":6332,"ĠKaf":6333,"ĠgÃ¼nÃ¼n":6334,"Ã¶ÅŁ":6335,"Ġyolda":6336,"ĠÅŁeyin":6337,"Ġgetirmek":6338,"tÄ±ÄŁÄ±mÄ±z":6339,"diye":6340,"latma":6341,"Ġ2007":6342,"eton":6343,"Ġtap":6344,"Ġkargo":6345,"Ġbaba":6346,"sesuar":6347,"ĠDemok":6348,"Ġveriler":6349,"Ġtali":6350,"Ġkapan":6351,"ĠTrabzon":6352,"Ġkimsenin":6353,"ĠÄ°smail":6354,"lav":6355,"ĠgeliÅŁmiÅŁ":6356,"ĠKulÃ¼bÃ¼":6357,"ĠnumaralÄ±":6358,"):":6359,"zat":6360,"ĠDe":6361,"urta":6362,"65":6363,"ĠOrman":6364,"Ġgerekse":6365,"ĠKarÅŁ":6366,"ĠGerÃ§ek":6367,"sar":6368,"Ä±nan":6369,"Ã¼lÃ¼r":6370,"bel":6371,"Ġesk":6372,"Ġselam":6373,"Ġgalib":6374,"ĠPay":6375,"Ã§isi":6376,"soy":6377,"ull":6378,"Ġkonfor":6379,"adÄ±n":6380,"AyrÄ±ca":6381,"Ä±lmak":6382,"ĠsÃ¶zleri":6383,"ĠatÄ±k":6384,"ĠeÄŁit":6385,"laz":6386,"ĠPiyas":6387,"ĠyaÅŁadÄ±k":6388,"isiz":6389,"maat":6390,"akistan":6391,"!âĢĿ":6392,"Ġadresi":6393,"ĠFu":6394,"ĠkalÄ±r":6395,"Ã¢t":6396,"Ä±sÄ±t":6397,"ĠSekret":6398,"org":6399,"ĠeriÅŁim":6400,"eÅŁme":6401,"ĠDoÄŁan":6402,"Ġelinde":6403,"ĠSavaÅŁÄ±":6404,"Ã¢m":6405,"ĠBilgisayar":6406,"tifik":6407,"ĠHavalimanÄ±":6408,"raÃ§":6409,"Ġporno":6410,"Ġtaban":6411,"ĠsÃ¼redir":6412,"kor":6413,"Ġarayan":6414,"ĠdÃ¼ÅŁtÃ¼":6415,"ĠSem":6416,"Ġmakinesi":6417,"ĠolmayÄ±":6418,"dÃ¼n":6419,"esir":6420,"ĠyaÄŁmur":6421,"debiyat":6422,"II":6423,"iplin":6424,"Ġ2000":6425,"ĠkÄ±v":6426,"ĠÃ¶nÃ¼mÃ¼zdeki":6427,"Madde":6428,"38":6429,"ĠyaptÄ±m":6430,"ĠÅŀahin":6431,"eÄŁine":6432,"ĠeÄŁlenceli":6433,"ĠgÃ¼z":6434,"Ġyiyecek":6435,"ĠTÃľ":6436,"ĠhariÃ§":6437,"ĠkullanÄ±lmasÄ±":6438,"ĠbazÄ±larÄ±":6439,"ĠTal":6440,"ĠsonuÃ§lar":6441,"ĠkazanÃ§":6442,"Ġmeyv":6443,"yu":6444,"ĠbÄ±":6445,"eral":6446,"ĠadayÄ±":6447,"ĠUzman":6448,"Ġanahtar":6449,"Ġseven":6450,"Ġ55":6451,"Ġtoplumun":6452,"Ġdenir":6453,"ĠKoÃ§":6454,"ĠDÃ¶nem":6455,"Ġdenk":6456,"otos":6457,"39":6458,"Ġlok":6459,"pat":6460,"Ġyerler":6461,"Ġani":6462,"Ġgarant":6463,"ĠÃ¼rÃ¼nlerin":6464,"ĠTrump":6465,"ĠArt":6466,"ĠKalk":6467,"beri":6468,"ood":6469,"ĠÃ¶rgÃ¼tÃ¼":6470,"Ġhusus":6471,"ĠArkadaÅŁ":6472,"Ġhab":6473,"ĠÃ¼stÃ¼nde":6474,"Ġmeydan":6475,"Ġgecik":6476,"Ġalanlarda":6477,"ĠRad":6478,"Ġbireysel":6479,"ĠÃ§ekici":6480,"tÄ±klarÄ±":6481,"ĠdÃ¶viz":6482,"Ġverme":6483,"GÄ°":6484,"elerek":6485,"caÄŁÄ±na":6486,"akarya":6487,"lus":6488,"Ġmuay":6489,"On":6490,"Ġmilletvekil":6491,"ÅŁamba":6492,"ĠÃ¼m":6493,"Ġka":6494,"ĠMÃ¼zik":6495,"Ġdalg":6496,"igiturk":6497,"rip":6498,"ona":6499,"Ġgayret":6500,"out":6501,"olat":6502,"Ġgittik":6503,"DoÄŁ":6504,"ube":6505,"Ġrekabet":6506,"ĠkarÅŁÄ±laÅŁt":6507,"mara":6508,"ĠSun":6509,"Ãĩocuk":6510,"ĠhayÄ±rlÄ±":6511,"ates":6512,"ĠuygulamalarÄ±":6513,"cÄ±larÄ±n":6514,"ĠÃ¼lkeler":6515,"Ġ09":6516,"dÄ±ÅŁ":6517,"ĠdayalÄ±":6518,"ĠÃ§or":6519,"Ä°V":6520,"ĠServis":6521,"ava":6522,"ĠVat":6523,"lemesi":6524,"ĠTut":6525,"Ġayet":6526,"ĠMeclisi":6527,"ĠKontrol":6528,"lÄ±ca":6529,"ĠAnn":6530,"adir":6531,"Ġmay":6532,"AC":6533,"ĠyapÄ±lmaktadÄ±r":6534,"ĠanÄ±nda":6535,".'":6536,"Ġistan":6537,"ĠKocaeli":6538,"ĠmaÄŁdur":6539,"ĠGiriÅŁ":6540,"ĠgÃ¶rÃ¼nÃ¼yor":6541,"Ġgurur":6542,"ĠRek":6543,"Ġdi":6544,"ÃĸÄŁr":6545,"ÄŁin":6546,"ĠolmadÄ±":6547,"giliz":6548,"32":6549,"ĠBÄ°R":6550,"ĠÅŁirketi":6551,"ĠkullandÄ±ÄŁÄ±":6552,"ĠtasarÄ±mÄ±":6553,"Ġrehber":6554,"Ad":6555,"ĠAndroid":6556,"ĠÃ§Ã¶k":6557,"Ġparmak":6558,"Äł":6559,"BÃ¼yÃ¼k":6560,"ĠOnlar":6561,"ĠÃ¼creti":6562,"ĠBÃ¶lgesi":6563,"dava":6564,"ĠbaÅŁlamÄ±ÅŁ":6565,"OP":6566,"uyordu":6567,"Ġtelefonu":6568,"ĠGÃ¶rÃ¼n":6569,"Ġsorunlar":6570,"ĠKuvvet":6571,"adÄ±m":6572,"ĠsaÄŁlÄ±ÄŁÄ±":6573,"ĠPr":6574,"ĠsÃ¼reÃ§te":6575,"Ġpetrol":6576,"ann":6577,"Ì§":6578,"ĠTeb":6579,"ĠyÃ¶netmen":6580,"Ġbez":6581,"ĠolaÄŁan":6582,"Ġinc":6583,"ĠTeknoloji":6584,"ĠkaydÄ±":6585,"ĠsÄ±nÄ±rlÄ±":6586,"Ġegz":6587,"tifak":6588,"ĠProje":6589,"mamak":6590,"Ġistis":6591,"Ġpeygamber":6592,"uncu":6593,"ĠEskiÅŁehir":6594,"Ġnem":6595,"Ġgeril":6596,"ĠadamÄ±":6597,"ĠÃľN":6598,"ĠDep":6599,"Ġmaddesinin":6600,"ĠMalatya":6601,"ĠAÄŁÄ±r":6602,"Ġkalem":6603,"Ä°ST":6604,"ĠsunmaktadÄ±r":6605,"ĠOrdu":6606,"Ġbilet":6607,"ĠzamanÄ±nda":6608,"Ġserg":6609,"ĠhanÄ±m":6610,"rimenkul":6611,"malarÄ±na":6612,"ĠYÃĸN":6613,"Ey":6614,"asÄ±z":6615,"lanacak":6616,"ilerinden":6617,"ĠYÃ¼r":6618,"YÄ±l":6619,"ĠinanÃ§":6620,"Ġolunca":6621,"isar":6622,"Ġzorluk":6623,"Ġbahsed":6624,"Ġevlilik":6625,"Ġsevgi":6626,"Gel":6627,"eceÄŁiniz":6628,"ĠYaÄŁ":6629,"ĠnoktasÄ±":6630,"Ġkendimi":6631,"Ġvad":6632,"Ġuygulanan":6633,"ĠMez":6634,"Ġtipi":6635,"ĠÃ¶ncelik":6636,"Ġzamanlar":6637,"ĠmaÃ§Ä±":6638,"elle":6639,"Ġyetersiz":6640,"ĠbulunmasÄ±":6641,"Ġker":6642,"ĠÃĩift":6643,"Ġ65":6644,"ibe":6645,"Ã¼tÃ¼":6646,"ĠbaÅŁladÄ±m":6647,"ĠayakkabÄ±":6648,"Ġartan":6649,"SY":6650,"Ġkenar":6651,"Ġolmay":6652,"Ä±yÄ±m":6653,"?\"":6654,"ĠiÅŁletme":6655,"acÄ±k":6656,"ĠEge":6657,"Ġhadis":6658,"iyetini":6659,"ĠOku":6660,"ĠbÃ¼yÃ¼me":6661,"Ä°Ã§":6662,"ĠiÅŁgal":6663,"ĠdeÄŁerlendirme":6664,"Ġhalen":6665,"ĠÅŀen":6666,"ĠÃ§ocuklarÄ±":6667,"Ġbulama":6668,"ĠkarÅŁÄ±lÄ±ÄŁ":6669,"muÅŁtu":6670,"Ġdosya":6671,"Genel":6672,"ĠyÄ±llardÄ±r":6673,"Ġ38":6674,"ĠyapÄ±p":6675,"Ġro":6676,"anlÄ±ur":6677,"ĠkÄ±ymet":6678,"ĠyansÄ±t":6679,"Yaz":6680,"ĠÃĩanakkale":6681,"osk":6682,"Ġalanlar":6683,"ĠdonanÄ±m":6684,"ĠsÄ±vÄ±":6685,"lÃ®":6686,"Ġlig":6687,"hab":6688,"yken":6689,"Ġtedavisi":6690,"Ġevlen":6691,"ende":6692,"Ġsevg":6693,"ĠsÄ±fÄ±r":6694,"dun":6695,"ĠOto":6696,".(":6697,"ĠkulÃ¼p":6698,"ERSÄ°":6699,"ĠkÃ¢":6700,"Ġonunla":6701,"Ð¸":6702,"ĠfarkÄ±":6703,"Ġmeyve":6704,"ĠsÃ¶zleÅŁme":6705,"Ġistanbul":6706,"Ġenflasyon":6707,"Ã¼rken":6708,"ĠyÄ±lÄ±nÄ±n":6709,"memesi":6710,"Ġantren":6711,"Ġyetenek":6712,"ĠdÃ¼zenleme":6713,"rom":6714,"Ġderecede":6715,"ĠaltÄ±nÄ±":6716,"Ġnetic":6717,"Ġpu":6718,"ĠanlamÄ±":6719,"ĠToplum":6720,"ĠÃ§alÄ±ÅŁmak":6721,"meyecek":6722,"ularÄ±":6723,"Ġodas":6724,"ĠgerektiÄŁ":6725,"Ġhasar":6726,"balaj":6727,"ĠEtkin":6728,"ick":6729,"ĠaÅŁama":6730,"ĠAvust":6731,"ĠZaten":6732,"Ġmuhaf":6733,"Ġ2019":6734,"ketbol":6735,"ansiyon":6736,"ĠgÃ¶ÄŁÃ¼s":6737,"mediÄŁi":6738,"Ġedilerek":6739,"ĠFotoÄŁraf":6740,"Ġseksi":6741,"fik":6742,"Ġdenet":6743,"AMA":6744,"riyet":6745,"Ġcas":6746,"Ġdikkatli":6747,"ĠkullanÄ±labilir":6748,"radan":6749,"amÄ±yor":6750,"Ġacaba":6751,"Ġkazanan":6752,"ĠyapmanÄ±z":6753,"ĠbaÅŁlÄ±klÄ±":6754,"37":6755,"Ã©":6756,"ÅŁembe":6757,"ĠEuro":6758,"Ġmiktarda":6759,"ĠcÃ¼ml":6760,"amÄ±nÄ±":6761,"leyin":6762,"ĠsÃ¼rece":6763,":)":6764,"ĠkÄ±sÄ±t":6765,"ĠMimar":6766,"larÄ±mÄ±":6767,"Ġolabilirsiniz":6768,"ĠSatÄ±ÅŁ":6769,"Ġkilit":6770,"ĠyaptÄ±ÄŁÄ±mÄ±z":6771,"Ġpah":6772,"ĠÄ°Åŀ":6773,"Ama":6774,"eker":6775,"ĠhastalÄ±ÄŁÄ±":6776,"ĠiÅŁt":6777,"Ġmini":6778,"ĠTÃ¼r":6779,"ĠApple":6780,"ayas":6781,"ĠÄ°slÃ¢m":6782,"ĠÅŁahÄ±s":6783,"Ġtemas":6784,"liyorum":6785,"ĠHik":6786,"ĠÃ§alÄ±ÅŁÄ±r":6787,"denin":6788,"Ġiman":6789,"Ġpazarlama":6790,"Ġokur":6791,"ĠbaÅŁÄ±":6792,"Ġgelmesi":6793,"larÄ±nÄ±za":6794,"irli":6795,"ĠyapÄ±lÄ±yor":6796,"ĠNeden":6797,"kul":6798,"Ġzeytin":6799,"ĠSarÄ±":6800,"Ġkarma":6801,"ebilen":6802,"Ġgelmektedir":6803,"Ġfestiv":6804,"abilmesi":6805,"ĠTesis":6806,"ĠAnayasa":6807,"Ġbitki":6808,"Ġdiyebilir":6809,"ÙĦ":6810,"ĠanÄ±":6811,"TESÄ°":6812,"lanarak":6813,"Ġkelime":6814,"sav":6815,"ĠalmasÄ±":6816,"Ġhayran":6817,"Ġgayet":6818,"UT":6819,"ding":6820,"ĠEb":6821,"ĠDaÄŁ":6822,"ĠfirmalarÄ±":6823,"GÃ¶r":6824,"eleriyle":6825,"ĠfarkÄ±nda":6826,"ĠolmamasÄ±":6827,"ĠBayramÄ±":6828,"Oy":6829,"ĠgeldiÄŁini":6830,"ĠDuy":6831,"Ġmali":6832,"Ġcami":6833,"ĠnumarasÄ±":6834,"Ġsinema":6835,"Ġtok":6836,"Ġihal":6837,"ĠBunlarÄ±n":6838,"ĠMahkemesi":6839,"Ġayda":6840,"ĠahÅŁap":6841,"daroÄŁlu":6842,"ĠSÄ±":6843,"ĠSok":6844,"ĠterÃ¶rist":6845,"Ġkodu":6846,"Ġ02":6847,"ĠTor":6848,"ĠoluÅŁturan":6849,"Ġtamir":6850,"ĠyÄ±llarÄ±":6851,"ÃĸR":6852,"ĠPan":6853,"diy":6854,"ĠsÄ±rt":6855,"umhuriyet":6856,"Ġkred":6857,"Ġoynan":6858,"Ġsizlerle":6859,"Ġsporcu":6860,"Ġhisse":6861,"umuzun":6862,"malÄ±sÄ±nÄ±z":6863,"Ġ..":6864,"BaÅŁk":6865,"ĠkumaÅŁ":6866,"à¸":6867,"ĠdÃ¼ÅŁÃ¼nce":6868,"ĠPerson":6869,"Ġmezar":6870,"nuv":6871,"Ġ150":6872,"ĠmÃ¼s":6873,"imizle":6874,"HA":6875,"slan":6876,"Ġkullanabilirsiniz":6877,"Ġicin":6878,"ĠgÃ¼nah":6879,"ĠhalkÄ±":6880,"Ġyur":6881,"Kay":6882,"ĠÃľzer":6883,"Ġzinc":6884,"Ġsunum":6885,"CHP":6886,"Ġdiyet":6887,"ĠGÄ±da":6888,"pe":6889,"ĠakÄ±ÅŁ":6890,"ĠyÃ¶nel":6891,"33":6892,"gari":6893,"ĠyoÄŁ":6894,"ĠvasÄ±":6895,"ĠDiyarbakÄ±r":6896,"ĠHÄ±z":6897,"Ġsebeple":6898,"At":6899,"laÅŁtÄ±ÄŁ":6900,"ĠiletiÅŁime":6901,"iti":6902,"ĠYarÄ±ÅŁ":6903,"ĠKÃ¼t":6904,"Ġyolculuk":6905,"ĠyazÄ±k":6906,"ect":6907,"Dr":6908,"doÄŁ":6909,"abilirler":6910,"Ġbelge":6911,"Ġbisiklet":6912,"ĠsÃ¼n":6913,"Ġkonus":6914,"UK":6915,"ĠgÃ¶stermektedir":6916,"ĠAfrika":6917,"ĠdeÄŁildi":6918,"Ġprim":6919,"ĠiÅŁyer":6920,"Ġfet":6921,"ĠÃĸrg":6922,"Ve":6923,"unlar":6924,"San":6925,"Ġdili":6926,"ĠOrtak":6927,"Ġvurgula":6928,"ĠÃ¼retilen":6929,"larÄ±nÄ±zÄ±n":6930,"unuzun":6931,"irin":6932,"uyum":6933,"Ġmavi":6934,"ĠBaÅŁkanlÄ±ÄŁ":6935,"larken":6936,"55":6937,"Ġalana":6938,"ĠkaÃ§ak":6939,"ĠSivas":6940,"ĠVol":6941,"Ġturist":6942,"ĠTakÄ±m":6943,"ĠsÃ¶zÃ¼":6944,"Ġtescil":6945,"ĠKarab":6946,"Ġsaatlerinde":6947,"Ġpv":6948,"leyecek":6949,"Ġbina":6950,"ĠaÄŁÄ±z":6951,"199":6952,"ĠÃ¼stÃ¼":6953,"Ġstok":6954,"rd":6955,"ĠÃ§atÄ±ÅŁ":6956,"ĠÃ¶zgÃ¼rlÃ¼k":6957,"Ġinceleme":6958,"ulmaz":6959,"Hal":6960,"ĠgÃ¼zellik":6961,"ĠulaÅŁtÄ±":6962,"Ã¼man":6963,"ĠKarak":6964,"ĠKÃ¶yÃ¼":6965,"Ġimzalan":6966,"ĠgÃ¶rdÃ¼m":6967,"Ġihtimal":6968,"Ġsunmak":6969,"leÅŁtirme":6970,"ĠsoruÅŁturma":6971,"ĠsÃ¼recinde":6972,"ĠYalova":6973,"48":6974,"mad":6975,"ĠÃ§ey":6976,"2012":6977,"oun":6978,"ug":6979,"Ġsorular":6980,"ĠCon":6981,"ĠCaddesi":6982,"Ġekmek":6983,"ife":6984,"ĠdÃ¼zenlediÄŁi":6985,"ĠEvet":6986,"Ġhayatta":6987,"ĠulaÅŁmak":6988,"ĠHakan":6989,"Ġfar":6990,"Ġsisteminin":6991,"itika":6992,"Ġemniyet":6993,"bank":6994,"Ġtaraftan":6995,"ĠÃ¼yelik":6996,"Ġharekete":6997,"ĠAbdullah":6998,"amaÅŁ":6999,"ĠyÃ¶ntemi":7000,"uÅŁturucu":7001,"jen":7002,"Ġkeyf":7003,"ĠFilistin":7004,"Ġbacak":7005,"alog":7006,"posta":7007,"we":7008,"layÄ±nÄ±z":7009,"ebilm":7010,"ĠPas":7011,"ĠServisi":7012,"ĠKupasÄ±":7013,"Ġ37":7014,"ĠDek":7015,"Ġkiral":7016,"ĠKayÄ±t":7017,"ĠiyileÅŁtir":7018,"ĠseÃ§enekleri":7019,"tesi":7020,"ĠÄ°t":7021,"Ġistey":7022,"ĠAD":7023,"ĠTiyatro":7024,"Ġmir":7025,"ĠPsik":7026,"sis":7027,"ĠanlattÄ±":7028,"bahar":7029,"Ġidari":7030,"lemiÅŁ":7031,"ĠsÃ¼per":7032,"ĠhÃ¼km":7033,"ĠAdam":7034,"ĠsanÄ±rÄ±m":7035,"isindeki":7036,"menizi":7037,"Ġbeyin":7038,"ĠAÅŁaÄŁÄ±":7039,"ĠiÃ§inden":7040,"ĠarkadaÅŁÄ±":7041,"bÃ¼s":7042,"ĠteÅŁekkÃ¼rler":7043,"anlÄ±urfa":7044,"Ġkahve":7045,"andev":7046,"ĠsÄ±z":7047,"Ġmilletvekili":7048,"ĠbaÄŁÄ±mlÄ±":7049,"lup":7050,"ĠÂ·":7051,"Ġverici":7052,"paz":7053,"biy":7054,"Ġyedi":7055,"ledim":7056,"Sev":7057,"Ġpencer":7058,"Ã¶ly":7059,"Ġolamaz":7060,"ĠYusuf":7061,"ĠsÄ±kÄ±":7062,"ĠTeknoloj":7063,"ĠKredi":7064,"ilerde":7065,"SaÄŁ":7066,"Tr":7067,"ĠbaktÄ±ÄŁ":7068,"ĠBaÅŁbak":7069,"oper":7070,"suzluk":7071,"Ġsilin":7072,"Ġicra":7073,"ĠKÄ±sa":7074,"Yak":7075,"ĠsÃ¼reli":7076,"ĠHastalÄ±k":7077,"Ġsendik":7078,"Ä±bbi":7079,"des":7080,"ukur":7081,"ĠMutfak":7082,"uda":7083,"ĠÄ°talya":7084,"ĠÃ§ekiyor":7085,"Ġkendinizi":7086,"ĠEdebiyat":7087,"ĠBÃ¼l":7088,"ĠrahatlÄ±kla":7089,"ĠModel":7090,"lerdeki":7091,"Ġdola":7092,"Ġevine":7093,"ĠoluÅŁur":7094,"Ġ2006":7095,"mesinden":7096,"Ġpen":7097,"Ġdemokratik":7098,"Ġyaprak":7099,"Ġavukat":7100,"Ġyasa":7101,"Ġmalzemeleri":7102,"Ġmemleket":7103,"Ġkorku":7104,"ĠDaire":7105,"Ġmasaj":7106,"Ġpotansiyel":7107,"Ä±ÅŁÄ±n":7108,"ĠMat":7109,"Ġmakyaj":7110,"cÄ±nÄ±n":7111,"ĠmiktarÄ±":7112,"Ġolmaktan":7113,"Ġmontaj":7114,"ĠarasÄ±na":7115,"Ġprojeler":7116,"ĠÃ¶ÄŁrencileri":7117,"ĠÃ§ekim":7118,"kas":7119,"Ġdeprem":7120,"ĠBodrum":7121,"ĠCumartesi":7122,"ĠyÄ±la":7123,"Ġtraf":7124,"ĠarasÄ±ndan":7125,"Ġgrafik":7126,"Ã¼lÃ¼yor":7127,"TE":7128,"Ġmerkezinde":7129,"ĠolmalarÄ±":7130,"abiliriz":7131,"yaspor":7132,"veÃ§":7133,"ĠÃ§alÄ±ÅŁmaya":7134,"Ġlog":7135,"ĠGÃ¼Ã§":7136,"Ġkaybol":7137,"Ancak":7138,"Ġmeclis":7139,"ĠimkÃ¢n":7140,"ĠiPhone":7141,"Ġsessiz":7142,"ĠazÄ±ndan":7143,"ĠTav":7144,"laÅŁÄ±m":7145,"Ã¼kle":7146,"Ġmuhtem":7147,"ĠaylarÄ±nda":7148,"raz":7149,"isin":7150,"ĠsatÄ±ÅŁa":7151,"laÃ§":7152,"Ġtazmin":7153,"Ġente":7154,"yaz":7155,"ĠyÃ¶nde":7156,"ĠFinans":7157,"Ġsitesinde":7158,"ĠBÃĸ":7159,"Ġmaalesef":7160,"Ġmerkezine":7161,"uman":7162,"ĠtaÅŁÄ±mak":7163,"TA":7164,"Â»":7165,"Ã§u":7166,"LÄ°Äŀ":7167,"ĠÃ¼rÃ¼nÃ¼n":7168,"ĠÃ§ocuÄŁu":7169,"ĠÅŁeyleri":7170,"47":7171,"ĠSonr":7172,"Ġdua":7173,"str":7174,"Ġakr":7175,"ĠKayseri":7176,"ĠÃĩay":7177,"Ġbuldu":7178,"ĠDairesi":7179,"Ġsayg":7180,"Ġhali":7181,"pa":7182,"Ġettiler":7183,"??":7184,"Ġvade":7185,"Ġhatt":7186,"MS":7187,"Ġgelerek":7188,"Ġcenaz":7189,"Ġislami":7190,"Ġ196":7191,"ĠFestivali":7192,"medik":7193,"Ġbakan":7194,"ĠhakkÄ±nÄ±":7195,"Ġteor":7196,"ĠÄ°r":7197,"alel":7198,"Ġgaranti":7199,"Ġverilecek":7200,"ĠÅŁekli":7201,"ĠilÃ§esi":7202,"eÄŁiyle":7203,"ĠolduÄŁunda":7204,"Ġsermaye":7205,"ĠseÃ§imi":7206,"ĠgÃ¶rÃ¼yoruz":7207,"mini":7208,"ĠSiyas":7209,"Ġkons":7210,"ĠSez":7211,"ĠkÃ¶p":7212,"49":7213,"46":7214,"udak":7215,"Ġmasraf":7216,"Ġikram":7217,"ĠFen":7218,"Kal":7219,"avi":7220,"Ġsanay":7221,"ĠyukarÄ±da":7222,"ĠKes":7223,"ĠDetay":7224,"Ġge":7225,"ilmelidir":7226,"Ġmail":7227,"ĠEmek":7228,"Ġhalka":7229,"ĠiÅŁlemler":7230,"Ġtl":7231,"ĠKomisyonu":7232,"Ġkalitesi":7233,"ilt":7234,"ĠÃ¶mÃ¼r":7235,"ĠalÄ±cÄ±":7236,"ĠattÄ±":7237,"ĠuyarÄ±nca":7238,"Ġforum":7239,"Ġgelince":7240,"azen":7241,"ĠTaraf":7242,"AÅŁ":7243,"BÃ¶l":7244,"Ġalkol":7245,"Ġparlak":7246,"ĠNaz":7247,"ektif":7248,"ĠsÃ¶ylemek":7249,"meyin":7250,"ĠNec":7251,"ĠgÃ¶revlendir":7252,"ĠmaÃ§Ä±nda":7253,"Ã§ek":7254,"Ġtef":7255,"tein":7256,"ĠDoktor":7257,"ĠOrt":7258,"Ġbeklenen":7259,"Ġvize":7260,"ĠVali":7261,"uvalet":7262,"oter":7263,"ÅŁe":7264,"ĠNet":7265,"ĠkÃ¼Ã§":7266,"ĠHes":7267,"melerini":7268,"ĠedeceÄŁiz":7269,"ĠYunanistan":7270,"kun":7271,"ĠKAR":7272,"ld":7273,"Ġfelsef":7274,"mus":7275,"Ġvah":7276,"Ġdaire":7277,"iyaret":7278,"epe":7279,"ĠrÃ¶":7280,"ebil":7281,"ĠSorum":7282,"Ġhaberleri":7283,"Ġsanal":7284,"ĠTabi":7285,"Ġeleman":7286,"ĠnoktasÄ±nda":7287,"GE":7288,"Ġbizlere":7289,"lÃ½":7290,"ĠAÅŁk":7291,"uluyor":7292,"ĠbÃ¶yl":7293,"ĠÃ§il":7294,"ĠÃ¶mr":7295,"ĠÄ°lÃ§esi":7296,"ĠkazandÄ±":7297,"Ġ$":7298,"ĠbileÅŁ":7299,"lob":7300,"ĠAda":7301,"ĠKen":7302,"cÃ¼k":7303,"iner":7304,"lanmaktadÄ±r":7305,"Ġbeslenme":7306,"Ġyerleri":7307,"ĠhayatÄ±n":7308,"Evet":7309,"otiv":7310,"Ġherkesi":7311,"Ġengelli":7312,"ĠKuÅŁ":7313,"ĠÃĩÃ¶z":7314,"ĠyapmasÄ±":7315,"Ġhizmetler":7316,"ester":7317,"unuza":7318,"ĠkeÅŁf":7319,"Ġarkada":7320,"Ġcemaat":7321,"ĠLim":7322,"ĠmÃ¼n":7323,"Ġ75":7324,"Ġmasa":7325,"ĠdayanÄ±klÄ±":7326,"ĠgÃ¶rÃ¼lÃ¼r":7327,"AA":7328,"ĠÅŁehrin":7329,"Ġyel":7330,"ĠÄ°mam":7331,"ĠNer":7332,"Ġihale":7333,"ĠAkadem":7334,"CumhurbaÅŁkanÄ±":7335,"aÄŁÄ±na":7336,"Ġdekorasyon":7337,"abilmektedir":7338,"laÅŁtÄ±rma":7339,"Ġisterim":7340,"ayol":7341,"ĠMek":7342,"Ġakademik":7343,"amuk":7344,"ĠbaÅŁlama":7345,"ĠkatÄ±ldÄ±ÄŁÄ±":7346,"ĠFederasyonu":7347,"Ġ08":7348,"ĠHemen":7349,"Ġderi":7350,"ĠParis":7351,"Ãľn":7352,"ndeki":7353,"idi":7354,"ĠdÃ¼k":7355,"ill":7356,"duktan":7357,"landÄ±rÄ±cÄ±":7358,"Ġtev":7359,"Ġsex":7360,"Ġaraz":7361,"MAN":7362,"inizden":7363,"ĠsorularÄ±":7364,"ĠDayan":7365,"Ġinceley":7366,"ĠbaÅŁkanlÄ±ÄŁ":7367,"Ġtehlikeli":7368,"Ġmevsim":7369,"dÃ¶n":7370,"ĠhaklÄ±":7371,"ĠyaratÄ±cÄ±":7372,"ĠyapÄ±yoruz":7373,"Ãľlk":7374,"Ah":7375,"GS":7376,"ĠVide":7377,"tematik":7378,"ĠyumuÅŁak":7379,"ĠgÃ¶zÃ¼k":7380,"sh":7381,"ĠUygula":7382,"Ġversiyon":7383,"Ġevrak":7384,"ĠgelmiÅŁtir":7385,"ĠDoÄŁum":7386,"IZ":7387,"th":7388,"Ñģ":7389,"Ġolgun":7390,"ĠaÃ§ma":7391,"LIK":7392,"ĠÃĸÄŁrenci":7393,"cÃ¼sÃ¼":7394,"ĠsunduÄŁu":7395,"ĠboÄŁ":7396,"ĠsÃ¶":7397,"Ġistedim":7398,"ĠDernek":7399,"ĠKral":7400,"ĠÅŁifr":7401,"Åŀu":7402,"Ġkariyer":7403,"lasman":7404,"ĠSÃ¶zleÅŁ":7405,"Ä±d":7406,"iliÄŁini":7407,"ĠNev":7408,"ĠkayÄ±tlÄ±":7409,"Ġbeslen":7410,"ĠâĢ¢":7411,"ĠAdalet":7412,"Ġevinde":7413,"TK":7414,"Ġerkekler":7415,"Ġhekim":7416,"Ġnih":7417,"Ġmor":7418,"emem":7419,"uÄŁla":7420,"ĠPazartesi":7421,"ĠÅŁartlarÄ±":7422,"ji":7423,"ĠyÃ¼rÃ¼rlÃ¼ÄŁe":7424,"ĠÃ¼stlen":7425,"kenti":7426,"ĠfÄ±rsatÄ±":7427,"ĠmÃ¼lk":7428,"yaman":7429,"ĠolayÄ±":7430,"Ġsesi":7431,"ĠbakÄ±n":7432,"ĠTBMM":7433,"ĠdÃ¼r":7434,"Ġsaatleri":7435,"ĠÃ¶ÄŁrencilere":7436,"ĠAlÄ±nÄ±r":7437,"priz":7438,"ĠolmanÄ±n":7439,"ĠsÄ±nÄ±rlarÄ±":7440,"Ġ250":7441,"Ġ400":7442,"ĠkararlÄ±":7443,"Ġmikro":7444,"ĠHD":7445,"ĠSaÃ§":7446,"ĠyÃ¼zlerce":7447,"ĠHÄ±r":7448,"Ġzirv":7449,"ĠMÃ¼cad":7450,"Ġ33":7451,"eÄŁinde":7452,"Ġanlar":7453,"ach":7454,"Ġirade":7455,"Ġbonus":7456,"ĠgÃ¶rdÃ¼":7457,"Ġinci":7458,"ĠBakÄ±m":7459,"Ġdans":7460,"Ġsitemiz":7461,"diven":7462,"ĠsatÄ±ÅŁÄ±":7463,"Ġemekli":7464,"Ġoyunun":7465,"Ġcennet":7466,"LÃľM":7467,"caÄŁÄ±nÄ±z":7468,"ĠkatkÄ±da":7469,"Ãĸnc":7470,"Ġpsikolojik":7471,"laj":7472,"ÃľL":7473,"TV":7474,"Ġsaati":7475,"ĠÃĩarÅŁamba":7476,"Ä±lmaya":7477,"tikten":7478,"ĠOp":7479,"Ġderken":7480,"iklik":7481,"ĠkalÄ±p":7482,"Ġsahne":7483,"Ġalama":7484,"Ġizlemek":7485,"Ġonur":7486,"ĠgÃ¶stermek":7487,"Ġpvp":7488,"ĠToplam":7489,"ĠDar":7490,"ASI":7491,"ebilmesi":7492,"ĠduyarlÄ±":7493,"ĠbÃ¶lÃ¼n":7494,"ĠgeÃ§iyor":7495,"ĠadÄ±yla":7496,"esince":7497,"ĠyapmayÄ±":7498,"Ġfuar":7499,"Ġkonular":7500,"Ġiklim":7501,"ĠÄ±ÅŁÄ±ÄŁ":7502,"ĠadamÄ±n":7503,"Ã¼nce":7504,"ĠÃ¼s":7505,"ĠKapÄ±":7506,"ette":7507,"ĠÃ¶nemi":7508,"Ġyumurta":7509,"ĠeÅŁliÄŁinde":7510,"ĠKaÃ§":7511,"avuz":7512,"Ġolama":7513,"Ġlan":7514,"ĠDalÄ±":7515,"tre":7516,"gresi":7517,"ĠÃĩak":7518,"bÄ±":7519,"ĠÃľretim":7520,"Ġsigara":7521,"cÄ±larÄ±":7522,"Ġarzu":7523,"ĠgÃ¶revl":7524,"iÄŁe":7525,"Ġolabilecek":7526,"ĠFirmalarÄ±":7527,"ĠRoma":7528,"Ã¼rriyet":7529,"ĠdoÄŁan":7530,"ijinal":7531,"ĠbirliÄŁi":7532,"mÃ¼yor":7533,"Ã¼min":7534,"ĠZira":7535,"Ġbunlara":7536,"Ġdelil":7537,"ĠMik":7538,"ĠKullanÄ±cÄ±":7539,"amÄ±n":7540,"Ġettikleri":7541,"ĠEmre":7542,"desi":7543,"indistan":7544,"ilerle":7545,"Ġbekleniyor":7546,"ph":7547,"name":7548,"ĠGal":7549,"Ġoranda":7550,"ĠiÅŁletim":7551,"Ä°zmir":7552,"ĠkiÅŁiyi":7553,"ĠdÄ±ÅŁÄ±na":7554,"Ġseri":7555,"dÄ±rma":7556,"ĠHaberleri":7557,"ĠÃ§ik":7558,"lukla":7559,"ĠsayÄ±sÄ±nÄ±n":7560,"ĠkarÅŁÄ±mÄ±za":7561,"ĠalanÄ±na":7562,"Ġannesi":7563,"ĠOper":7564,"ĠÅŁÃ¼k":7565,"ĠFik":7566,"ĠHey":7567,"Åŀimdi":7568,"ight":7569,"AF":7570,"ĠAY":7571,"ĠgÃ¶rdÃ¼ÄŁÃ¼":7572,"ĠkullanÄ±larak":7573,"ĠÅŁehri":7574,"ĠSistemleri":7575,"Ġfant":7576,"Ã¼yÃ¼":7577,"MAD":7578,"Ġbanyo":7579,"ĠarÅŁiv":7580,"ĠÃ§Ä±karÄ±":7581,"avuÅŁ":7582,"Ġkoordin":7583,"ĠsektÃ¶rÃ¼":7584,"linik":7585,"Avrupa":7586,"Ġverdim":7587,"ĠbaÅŁladÄ±ÄŁÄ±":7588,"UluslararasÄ±":7589,"Ġyuvar":7590,"Ġdurumun":7591,"ĠyapÄ±labilir":7592,"ĠbÃ¼yÃ¼sÃ¼":7593,"anta":7594,"ĠBayrak":7595,"ail":7596,"Ġsom":7597,"ĠYabancÄ±":7598,"Ġsunar":7599,"ĠDiz":7600,"Ġtalimat":7601,"leyip":7602,"ĠkÄ±rÄ±k":7603,"Ġmesleki":7604,"ĠendÃ¼str":7605,"eÄŁinin":7606,"ĠÃĸzgÃ¼r":7607,"Ġkamera":7608,"Ġbozul":7609,"ĠTwitter":7610,"utan":7611,"Ġmekaniz":7612,"Ġmuk":7613,"lÄ±ktan":7614,"iraat":7615,"Ġisteyenler":7616,"ĠOysa":7617,"ĠKUR":7618,"ĠbirÅŁey":7619,"ilenin":7620,"ĠHanÄ±m":7621,"Ġblok":7622,"Ġetmez":7623,"ĠvatandaÅŁlar":7624,"ĠolmuÅŁtu":7625,"TÄ°":7626,"Ġistenen":7627,"Ġno":7628,"ĠTabii":7629,"Ġkilometre":7630,"ĠayrÄ±ntÄ±lÄ±":7631,"ĠMel":7632,"Ġetkiley":7633,"aa":7634,"ĠMetin":7635,"Ġekonomi":7636,"ĠDoÄŁru":7637,"Ġegemen":7638,"IS":7639,"Ġkurmak":7640,"aÄŁÄ±nda":7641,"Ġbahar":7642,"Ġolmasa":7643,"Ġbulan":7644,"laÅŁmasÄ±":7645,"ĠKazan":7646,"ĠaraÃ§larÄ±":7647,"ĠbaÄŁlam":7648,"aÄŁÄ±nÄ±n":7649,"ĠsÃ¼rÃ¼m":7650,"Ã§Ä±n":7651,"ĠÃ¼lkelerin":7652,"IT":7653,"ĠÃ§alÄ±ÅŁmalarÄ±na":7654,"ĠkarÅŁÄ±n":7655,"Ġbilgilere":7656,"Ġedici":7657,"Ġprens":7658,"ĠalgÄ±":7659,"ĠÃ§izgi":7660,"ĠgeniÅŁlet":7661,"ĠBana":7662,"ĠEc":7663,"Ġahlak":7664,"tÄ±lÄ±":7665,"Ã¼ÄŁÃ¼n":7666,"Yar":7667,"ĠkullanÄ±lmaktadÄ±r":7668,"ĠhÃ¢l":7669,"manÄ±za":7670,"ive":7671,"ĠEnstitÃ¼sÃ¼":7672,"ĠDoÄŁal":7673,"Ġtepk":7674,"ĠsaÄŁlanmasÄ±":7675,"ĠKÄ±lÄ±Ã§daroÄŁlu":7676,"ĠCep":7677,"Ġval":7678,"ĠiÃ§eriÄŁ":7679,"ĠaracÄ±n":7680,"ĠGeliÅŁtir":7681,"Ġbilmiyorum":7682,"Ġnesn":7683,"ĠEngel":7684,"Ġhediy":7685,"ĠsabÄ±r":7686,"umuzu":7687,"Ġdersi":7688,"ĠÄ°lÃ§":7689,"ĠdeÄŁiÅŁikliÄŁi":7690,"lamayÄ±":7691,"liÄŁiyle":7692,"ĠgeliÅŁen":7693,"Ġgeride":7694,"Ġrengi":7695,"ĠbuluÅŁtur":7696,"ĠyayÄ±mlanan":7697,"YaÅŁ":7698,"Ġvefat":7699,"tÄ±ktan":7700,"Ġgazetec":7701,"ĠOlay":7702,"uÅŁu":7703,"ĠÃ¶zet":7704,"ĠyapÄ±lmÄ±ÅŁtÄ±r":7705,"Ġmater":7706,"ĠverilmiÅŁtir":7707,"Ġhaftada":7708,"amÄ±zda":7709,"ĠYÄ±lÄ±":7710,"ĠprogramlarÄ±":7711,"Ġprotokol":7712,"Sel":7713,"Ġnez":7714,"âĢĻâĢĻ":7715,"ĠtanÄ±k":7716,"Ġbildirdi":7717,"ĠgÃ¶rÃ¼nce":7718,"Ġvatan":7719,"ĠgÃ¶rÃ¼lmektedir":7720,"ĠMAD":7721,"tiÄŁim":7722,"yeri":7723,"Ġoyunlar":7724,"ĠYemek":7725,"Ġanti":7726,"ĠEve":7727,"ĠmaÃ§ta":7728,"Ä±kÃ¶y":7729,"Ġkemik":7730,"Ġec":7731,"Ġmuhalef":7732,"ĠdÃ¼ÅŁÃ¼ÅŁ":7733,"ĠZor":7734,"Ġnakliye":7735,"Ġilah":7736,"ura":7737,"ĠaÃ§Ä±ÄŁ":7738,"ded":7739,"lon":7740,"Ġzehir":7741,"lamalarÄ±":7742,"ĠbakÄ±mÄ±":7743,"ĠÃ§Ã¶p":7744,"ĠPolis":7745,"ste":7746,"ĠÅŁunu":7747,"ĠKarÅŁÄ±":7748,"ĠÅŁeye":7749,"Ġeklem":7750,"ĠkapsamlÄ±":7751,"ĠÃ¶ÄŁrenmek":7752,"ĠOkulu":7753,"Ä±ÅŁlÄ±":7754,"198":7755,"ĠOda":7756,"Ser":7757,"ĠgetirdiÄŁi":7758,"gÄ±t":7759,"Ġsever":7760,"ELÄ°":7761,"Ġkanat":7762,"ĠMÃ¼hendisliÄŁi":7763,"sever":7764,"Ġ39":7765,"Ã¼yada":7766,"ĠGÃ¶ster":7767,"ĠForum":7768,"Ġevet":7769,"Ġkov":7770,"ĠTemsil":7771,"Ġves":7772,"ĠKapsam":7773,"ĠYazar":7774,"ĠÄ±sÄ±t":7775,"ĠMotor":7776,"ĠzararlÄ±":7777,"Ġcerrah":7778,"Ġkonuyu":7779,"ĠmantÄ±k":7780,"Ã§Ä±lÄ±k":7781,"Ġenfeksiyon":7782,"ĠDigiturk":7783,"elif":7784,"Ġdirek":7785,"Ä°VERSÄ°":7786,"ĠAlÄ±":7787,"Ġ47":7788,"ĠalmÄ±ÅŁtÄ±r":7789,"ĠalÄ±rken":7790,"Ä±nd":7791,"Ġetmeyi":7792,"Ġkoruy":7793,"ĠYork":7794,"ĠlÃ¼ks":7795,"ĠSayÄ±":7796,"ĠÃ§atÄ±":7797,"ĠdÄ±ÅŁÄ±ndaki":7798,"lamalÄ±":7799,"Ġkaza":7800,"has":7801,"ĠDan":7802,"Ġsir":7803,"Ã¢l":7804,"DeÄŁ":7805,"ĠgeldiÄŁinde":7806,"ĠFor":7807,"Ġkaybetti":7808,"ÃĸZ":7809,"Ġvizyon":7810,"ĠTok":7811,"ÑĤ":7812,"ĠPara":7813,"ĠhatÄ±rla":7814,"api":7815,"ĠBununla":7816,"itif":7817,"ruk":7818,"esun":7819,"Ġetiket":7820,"Ġhitap":7821,"Ġsonsuz":7822,"Ð½":7823,"ĠsÃ¼rÃ¼yor":7824,"ĠyÃ¼kÃ¼mlÃ¼l":7825,"asebe":7826,"ĠkaranlÄ±k":7827,"ĠLond":7828,"ÅŁi":7829,"imini":7830,"ĠyÃ¼rÃ¼tÃ¼len":7831,"ĠaÅŁkÄ±n":7832,"EÄŁ":7833,"ĠGelen":7834,"ĠyÄ±kama":7835,"Ġistatistik":7836,"Ġmim":7837,"Ġimal":7838,"ĠoluÅŁum":7839,"ĠBo":7840,"ebileceÄŁi":7841,"Kul":7842,"ĠÃ¶lÃ¼":7843,"ĠAp":7844,"Bey":7845,"ĠÃĸyle":7846,"EZ":7847,"ĠArdÄ±ndan":7848,"Ġmit":7849,"Ġkarbon":7850,"Ã§ilik":7851,"yurt":7852,"Ä±yorsunuz":7853,"ĠalakalÄ±":7854,"ĠBahÃ§eli":7855,"ĠÃľNÄ°VERSÄ°":7856,"emiyor":7857,"ĠÄ±rk":7858,"udu":7859,"Ġvel":7860,"Ġï¿½ï¿½":7861,"ĠÃľs":7862,"anak":7863,"ĠMaÄŁ":7864,"evler":7865,"ĠnÃ¶":7866,"ĠcanlandÄ±r":7867,"Bunun":7868,"Ġolaylar":7869,"ĠOnline":7870,"ĠniÅŁ":7871,"rosoft":7872,"Ġaksine":7873,"edeniyet":7874,"ĠkahvaltÄ±":7875,"Ġetken":7876,"tip":7877,"ĠDergisi":7878,"ezil":7879,"ĠkiralÄ±k":7880,"Ġtey":7881,"ĠSakarya":7882,"ĠBarÄ±ÅŁ":7883,"Rus":7884,"bas":7885,"ĠER":7886,"Ġtay":7887,"Ġdiplo":7888,"ĠPen":7889,"Ġsahil":7890,"ĠdÃ¶nemin":7891,"ĠfarklÄ±lÄ±k":7892,"ĠPerÅŁembe":7893,"ĠÄ±n":7894,"ĠMaÃ§":7895,"Ġdenem":7896,"ĠgerÃ§ekleÅŁti":7897,"Ġlideri":7898,"dÄ±ÅŁÄ±":7899,"ĠyalÄ±":7900,"lanabilir":7901,"ĠkullanÄ±cÄ±lar":7902,"Ġtablet":7903,"Ġevin":7904,"ĠgÃ¼nleri":7905,"Ġ2005":7906,"ayÄ±p":7907,"Ġbekleyen":7908,"acaÄŁÄ±mÄ±z":7909,"ĠErzurum":7910,"ĠhayatÄ±na":7911,"rist":7912,"ĠMarmara":7913,"Bah":7914,"ĠSak":7915,"Ġbizimle":7916,"Ġbayrak":7917,"use":7918,"Ġmacer":7919,"amaÅŁÄ±r":7920,"Ġkendileri":7921,"ĠbÃ¶lgeye":7922,"ĠÃ¶p":7923,"ĠyÄ±lÄ±na":7924,"Ġekipman":7925,"lerimi":7926,"abak":7927,"Ġimalat":7928,"ĠdÃ¼zenlenecek":7929,"kap":7930,"dÄ±nÄ±z":7931,"ĠÄ°ndir":7932,"ĠsatÄ±":7933,"Ġceph":7934,"Ġfaaliyetleri":7935,"ĠbÃ¼yÃ¼y":7936,"imet":7937,"Ġplana":7938,"Ġsizden":7939,"ĠaÃ§tÄ±":7940,"Ä±lacaktÄ±r":7941,"Ġmevzuat":7942,"ĠkalabalÄ±k":7943,"ĠaldÄ±k":7944,"Ġbirine":7945,"ĠkullanÄ±lab":7946,"ĠIÅŁÄ±k":7947,"kaya":7948,"Ġkalacak":7949,"obot":7950,"espor":7951,"Ġseviyorum":7952,"Ġplastik":7953,"Ġsevgili":7954,"Ġihlal":7955,"Ġkaybeden":7956,"ĠRoman":7957,"ĠÃ§apÄ±nda":7958,"AÃ§Ä±k":7959,"onspor":7960,"Ġevren":7961,"ĠKonut":7962,"ohum":7963,"ĠBasÄ±n":7964,"poz":7965,"Ġgereksin":7966,"ĠÃ¶ÄŁrenildi":7967,"kili":7968,"lÄ±lar":7969,"ĠgÃ¶zden":7970,"ÑĢ":7971,"Ġtutum":7972,"Ġkamuoy":7973,"Ġtopr":7974,"ĠkiÅŁilere":7975,"Ġmedy":7976,"Ġailesi":7977,"ĠSelÃ§uk":7978,"ft":7979,"Ġbenden":7980,"tiÄŁiniz":7981,"In":7982,"Ġkamyon":7983,"tral":7984,"ĠJandarma":7985,"gur":7986,"Ġ05":7987,"Ã¼phan":7988,"ĠhemÅŁ":7989,"esto":7990,"Ġteknolojik":7991,"ĠMalzem":7992,"ĠFarklÄ±":7993,"ĠaÃ§Ä±ldÄ±":7994,"Ġgeb":7995,"Ġgib":7996,"ĠarkasÄ±nda":7997,"ĠakÄ±m":7998,"Ġbenimle":7999,"Ä°H":8000,"Ġmakine":8001,"ETÄ°M":8002,"ĠTaÅŁÄ±ma":8003,"ayolu":8004,"ĠUÄŁur":8005,"ĠPolitik":8006,"ĠbaÅŁlamÄ±ÅŁtÄ±r":8007,"onik":8008,"ĠdÃ¶r":8009,"aport":8010,"ĠÄ°b":8011,"Ã¼lmÃ¼ÅŁ":8012,"ĠnÄ±n":8013,"Ġdevir":8014,"Ġdamar":8015,"ĠÅŀehit":8016,"Ġfestival":8017,"ĠayrÄ±l":8018,"Ġfinansal":8019,"ĠEN":8020,"abi":8021,"ica":8022,"ĠkÃ¶r":8023,"ebilmektedir":8024,"Ä±lÄ±ÅŁÄ±":8025,"ĠolduÄŁunun":8026,"Ġtarifi":8027,"ĠMin":8028,"led":8029,"ĠamaÃ§la":8030,"ĠOd":8031,"Ġlik":8032,"itasyon":8033,"ĠniteliÄŁ":8034,"ĠSalÄ±":8035,"Ġsembol":8036,"Ġseyret":8037,"ĠKore":8038,"zan":8039,"ĠÃ§Ä±ktÄ±ÄŁÄ±":8040,"ĠmÃ¼h":8041,"ĠBÄ°L":8042,"Ġmanevi":8043,"ĠHotel":8044,"lub":8045,"Ġmahalle":8046,"ĠyaptÄ±ÄŁÄ±nÄ±":8047,"tadoÄŁu":8048,"Ġbizzat":8049,"odu":8050,"BB":8051,"Ġelbis":8052,"ĠbatÄ±":8053,"ĠSohbet":8054,"ĠyargÄ±lan":8055,"ĠÄ°liÅŁkin":8056,"ĠYorum":8057,"Ġpeyn":8058,"ĠKalkÄ±nma":8059,"Ġtarihine":8060,"ĠKonseyi":8061,"Ġdelik":8062,"Ġyorgun":8063,"ĠsanÄ±k":8064,"ĠHayÄ±r":8065,"Ġkampanya":8066,"ĠaÃ§Ä±klamasÄ±":8067,"MADDE":8068,"ĠkarÅŁÄ±lÄ±klÄ±":8069,"ĠÃľstelik":8070,"Ġinsana":8071,"ĠÃ¼yeler":8072,"ediÄŁim":8073,"ĠeÅŁlik":8074,"Ġtavsiy":8075,"ÃľK":8076,"ĠSaÄŁlÄ±ÄŁÄ±":8077,"Ġkoleksiyon":8078,"iÄŁin":8079,"Ġsistemin":8080,"iyeli":8081,"ĠgÃ¶revli":8082,"ĠHDP":8083,"ĠsÃ¼rpriz":8084,"ĠHaft":8085,"gini":8086,"Ġkalmak":8087,"Kat":8088,"ĠtamamÄ±":8089,"lerinize":8090,"lÄ±yoruz":8091,"ĠYÃ¶netmelik":8092,"ĠYaÅŁam":8093,"ĠÅŁair":8094,"Ġaktivit":8095,"iÅŁli":8096,"Ġizlem":8097,"Ġbulab":8098,"ĠbÃ¶lÃ¼mde":8099,"ĠaÃ§Ä±kÃ§a":8100,"Mil":8101,"Muh":8102,"ARI":8103,"Ġmektup":8104,"Ġgeldik":8105,"Ġris":8106,"ĠOrhan":8107,"ĠiÃ§ecek":8108,"Ġkatk":8109,"ĠRas":8110,"ĠdoÄŁur":8111,"Ġgram":8112,"ĠdÃ¼zenlendi":8113,"Ġtaahh":8114,"END":8115,"ĠKahraman":8116,"ĠÃ¶rneÄŁi":8117,"Ã¼ya":8118,"ĠdÃ¼ÅŁÃ¼nÃ¼r":8119,"Ġbulur":8120,"Ġaksesuar":8121,"Ġzamanla":8122,"ĠAday":8123,"ĠplanÄ±":8124,"Ġorganize":8125,"Ġbayanlar":8126,"Ġdenilen":8127,"maÄŁ":8128,"artman":8129,"ĠtarzÄ±":8130,"Ġsertifik":8131,"2011":8132,"Ġuzan":8133,"ĠLa":8134,"ĠÃľniversite":8135,"Ġefsan":8136,"talyan":8137,"ĠÃ§ocuklara":8138,"Ġikin":8139,"ĠHac":8140,"ĠÃľNÄ°VERSÄ°TESÄ°":8141,"Mar":8142,"ĠBÃĸLÃľM":8143,"ĠKaya":8144,"ĠÃ§Ä±kÄ±p":8145,"Ġkendisinin":8146,"Ġokumak":8147,"ĠaltÄ±ndaki":8148,"ĠboÅŁal":8149,"encere":8150,"Ġayakta":8151,"ĠyerleÅŁim":8152,"ĠpahalÄ±":8153,"DiÄŁer":8154,"enize":8155,"Ġdevreye":8156,"Ġyah":8157,"lamada":8158,"Ġsizlerin":8159,"Ä±mÄ±zdan":8160,"Ġasit":8161,"ĠkÄ±smÄ±nda":8162,"ĠTanrÄ±":8163,"ĠoluÅŁturmak":8164,"laÅŁtÄ±k":8165,"ĠkontrolÃ¼":8166,"daÄŁÄ±":8167,"ĠdÃ¶nemlerde":8168,"cusu":8169,"Ġbulma":8170,"ĠÃ¶rgÃ¼tÃ¼n":8171,"ĠÃĸnce":8172,"Ã»l":8173,"ĠbaÅŁkenti":8174,"Ġtaksit":8175,"ks":8176,"ĠNit":8177,"top":8178,"ĠeÅŁsiz":8179,"ĠkaybÄ±":8180,"ĠBirleÅŁik":8181,"gazi":8182,"ĠdÃ¼zgÃ¼n":8183,"ĠÅŀim":8184,"Ġmadal":8185,"ĠPersonel":8186,"ĠSoy":8187,"Ãľr":8188,"ĠaÃ§an":8189,"isti":8190,"Ġradyo":8191,"Ġslog":8192,"Ġbilgilerin":8193,"ĠÃ§ak":8194,"ĠverilmiÅŁ":8195,"pÄ±nar":8196,"ĠyaÅŁÄ±yor":8197,"Ġocak":8198,"ĠBakanlÄ±k":8199,"Ġolmakla":8200,"je":8201,"Ġevi":8202,"ĠÃ¼lkeye":8203,"ĠtoplantÄ±sÄ±nda":8204,"ĠbÃ¼yÃ¼t":8205,"Ġprofil":8206,"ĠFaz":8207,"Ġkurban":8208,"ĠsÃ¶zler":8209,"ĠiÃ§eriÄŁi":8210,"Ġokum":8211,"ĠÃ§Ä±kmasÄ±":8212,"zel":8213,"ĠKer":8214,"afe":8215,"ĠkaldÄ±ÄŁÄ±":8216,"ts":8217,"Ġestetik":8218,"ĠUzmanÄ±":8219,"ĠyapmaktadÄ±r":8220,"Ġinf":8221,"Ġhizmete":8222,"Ġoynanan":8223,"ĠCumhurbaÅŁkanlÄ±ÄŁÄ±":8224,"ĠMADDE":8225,"ĠdÃ¶ÅŁ":8226,"ja":8227,"ĠgeldiÄŁ":8228,"ĠLev":8229,"Alman":8230,"lobal":8231,"ĠgerÃ§ekleÅŁtirildi":8232,"Ġdinamik":8233,"ĠyarÄ±ÅŁma":8234,"Ġsistemine":8235,"ĠTÃ¼k":8236,"larÄ±mÄ±zla":8237,"ĠYay":8238,"ĠÃ§izg":8239,"Ġhukuki":8240,"ãĥ":8241,"ĠTC":8242,"Ġcesaret":8243,"ĠsÃ¼rÃ¼k":8244,"ĠArabistan":8245,"Ġdiyorum":8246,"yim":8247,"ĠBM":8248,"ĠÃ§ekir":8249,"zerbay":8250,"Ġyerlere":8251,"ĠAil":8252,"ĠanlamlÄ±":8253,"simum":8254,"Ġtv":8255,"ĠSol":8256,"stil":8257,"ĠHalÄ±":8258,"Ġbildirildi":8259,"ĠSavunma":8260,"ĠgÃ¶sterdiÄŁi":8261,"ĠTÄ±k":8262,"ĠhakkÄ±ndaki":8263,"Ġzul":8264,"ĠGeliÅŁ":8265,"GenÃ§":8266,"ĠuyuÅŁturucu":8267,"Ġrekor":8268,"Ġtahsil":8269,"ĠalÄ±mÄ±":8270,"iÅŁe":8271,"Ġmahkeme":8272,"ole":8273,"Ġegzersiz":8274,"Ġ00":8275,"Ġsiyasal":8276,"Ġbiliyorum":8277,"ARA":8278,"dil":8279,"Ġbeklet":8280,"ĠzorundadÄ±r":8281,"Ġsunucu":8282,"ĠgÃ¶t":8283,"ĠilanlarÄ±":8284,"ĠgeliÅŁme":8285,"gÃ¼l":8286,"ĠdeÄŁerleri":8287,"Ġdedektiflik":8288,"Ġ06":8289,"ĠBebek":8290,"Ġbiliyoruz":8291,"ĠRuh":8292,"ĠyollarÄ±":8293,"Ä°LÄ°":8294,"ĠdeÄŁiÅŁen":8295,"UZ":8296,"acÄ±lÄ±k":8297,"iyorsunuz":8298,"ĠsaÄŁlamaktadÄ±r":8299,"ĠMÃľ":8300,"Ġlam":8301,"ĠtarafÄ±nda":8302,"Ġdemokrasi":8303,"42":8304,"Ġkabil":8305,"Ġanket":8306,"__":8307,"own":8308,"ĠrÃ¼zgar":8309,"ĠÃ¶ÄŁrenme":8310,"set":8311,"Res":8312,"Ġparalel":8313,"ĠgÃ¶rÃ¼ÅŁme":8314,"ux":8315,"ĠkÄ±lav":8316,"Haz":8317,"ĠgÃ¶rÃ¼le":8318,"ĠtÃ¼ketic":8319,"ĠNih":8320,"ĠtemizliÄŁi":8321,"ĠgÃ¶revini":8322,"Ġsahipleri":8323,"andevu":8324,"Ġalabilir":8325,"anÄ±p":8326,"ĠkonularÄ±":8327,"ĠitibarÄ±yla":8328,"ĠkulÃ¼b":8329,"ĠAnd":8330,"Ġimzal":8331,"dÃ¼ncÃ¼":8332,"ĠMÃ¼zesi":8333,"ky":8334,"vis":8335,"ĠTerÃ¶r":8336,"ĠodaklÄ±":8337,"dola":8338,"ĠKonu":8339,"Ġlise":8340,"ĠgeliÅŁtirme":8341,"ĠTanÄ±":8342,"malara":8343,"ĠgÃ¼nÃ¼nde":8344,"Ġraporu":8345,"ĠTÃľRK":8346,"ĠrahatsÄ±zlÄ±k":8347,"Ġtedarik":8348,"Ġkriter":8349,"izli":8350,"ĠÃ¼lkemiz":8351,"Ã§Ä±lar":8352,"ĠkÄ±smÄ±nÄ±":8353,"irdaÄŁ":8354,"--------":8355,"ĠEvden":8356,"ĠPek":8357,"opark":8358,"ĠDal":8359,"ĠalanlarÄ±nda":8360,"ĠâĨ":8361,"ĠÄ°mparator":8362,"Ġkral":8363,"Ġgidecek":8364,"hale":8365,"ĠKoc":8366,"Ã½Ã¾":8367,"Ġsorunsuz":8368,"Ġolmuyor":8369,"Ġgeriye":8370,"ĠdeÄŁiÅŁken":8371,"ĠdoÄŁa":8372,"ĠanlatÄ±m":8373,"ĠyaralandÄ±":8374,"Ä°ÅŁte":8375,"Ġpiyasaya":8376,"irt":8377,"ĠbaÅŁarÄ±sÄ±z":8378,"Ġetmeniz":8379,"Ġuygulamaya":8380,"Ġdediler":8381,"ĠyolculuÄŁ":8382,"Ġkatli":8383,"ĠpaylaÅŁtÄ±":8384,"Ġfen":8385,"Ġikili":8386,"Ġliste":8387,"ĠdeÄŁilim":8388,"ĠSn":8389,"Ġbedeli":8390,"usun":8391,"Ġmateryal":8392,"tor":8393,"Ġvermesi":8394,"ĠÃ¶zgÃ¼":8395,"ĠBanka":8396,"Ġolsay":8397,"ĠsÃ¶yler":8398,"ĠKaymakam":8399,"ĠBaÅŁvuru":8400,"ĠkÄ±yas":8401,"Ġdisiplin":8402,"ĠSch":8403,"lit":8404,"ĠAT":8405,"leniyor":8406,"Ġederler":8407,"ektaÅŁ":8408,"Ġibar":8409,"cell":8410,"Ġizni":8411,"ĠĠĠĠ":8412,"ĠÃĸrnek":8413,"ĠpayÄ±":8414,"ildiÄŁinde":8415,"sed":8416,"ĠDok":8417,"ĠgÃ¼ndÃ¼z":8418,"Ġpolitika":8419,"oma":8420,"ĠÃ¼lkemizin":8421,"95":8422,"ĠDaÄŁÄ±":8423,"Ġlek":8424,"Ġevr":8425,"SÃ¶z":8426,"ĠDenizli":8427,"ĠkaynaklarÄ±":8428,"ĠTip":8429,"Ġ!":8430,"ĠyÃ¼kle":8431,"Ġhaberi":8432,"sÃ¶r":8433,"ĠsÃ¶k":8434,"ĠyÃ¶ntemleri":8435,"Ġedenler":8436,"ĠForm":8437,"ĠeÄŁlence":8438,"ĠMate":8439,"ĠÃ§abuk":8440,"ĠYun":8441,"Ġistasyon":8442,"ĠanlamÄ±nda":8443,"ĠbÃ¶lgesi":8444,"ĠtarafÄ±":8445,"olos":8446,"ĠkurulmuÅŁ":8447,"press":8448,"ĠÃ¶dey":8449,"ĠarkadaÅŁlarÄ±":8450,"ĠÄ°Ã§er":8451,"ĠistediÄŁini":8452,"Par":8453,"umuza":8454,"Ġbot":8455,"Ġasgari":8456,"Ġgelec":8457,"ĠDi":8458,"Ġbirinc":8459,"ĠPRO":8460,"Ġprojeleri":8461,"Ġikisi":8462,"Ġteknolojisi":8463,"Ġkonaklama":8464,"ĠÃ¼zeri":8465,"Ã¼kleer":8466,"ĠÃĤ":8467,"ĠsatÄ±r":8468,"Ġlistesi":8469,"Ġverdik":8470,"ĠOla":8471,"è¦":8472,"ĠToplantÄ±":8473,"ĠdÃ¶ndÃ¼":8474,"memek":8475,"Ġverilmektedir":8476,"ĠtoplantÄ±sÄ±":8477,"Ġuzay":8478,"erg":8479,"andum":8480,"ĠsÄ±kÄ±n":8481,"ĠeÅŁyalar":8482,"ĠKoordin":8483,"sÃ¼":8484,"Ġdoktora":8485,"ĠseÃ§eneÄŁi":8486,"Ġantik":8487,"Ġbulut":8488,"luÄŁa":8489,"ohn":8490,"DV":8491,"Benim":8492,"Ġkonuya":8493,"Ġtalebi":8494,"lex":8495,"43":8496,"Ġsuyun":8497,"Ġset":8498,"ĠiÃ§erisine":8499,"Ã¢hil":8500,"ĠkaÅŁÄ±":8501,"dere":8502,"ĠyemeÄŁi":8503,"Ġgiyim":8504,"mec":8505,"ĠÃ§eÅŁ":8506,"ĠÃ§Ä±karak":8507,"ĠÄ°nce":8508,"ĠOtom":8509,"zerbaycan":8510,"ĠarÄ±z":8511,"ĠÃ¼lkelerde":8512,"ĠÃĸlÃ§":8513,"ĠÄ±srar":8514,"malÄ±yÄ±z":8515,"PG":8516,"ĠÅŁirketin":8517,"ĠOyunlarÄ±":8518,"ĠsÃ¶n":8519,"ĠbaÅŁlÄ±k":8520,"Ġortada":8521,"lÃ¼ÄŁÃ¼nÃ¼":8522,"Ġismini":8523,"Ġverileri":8524,"Ġvic":8525,"Ġcinayet":8526,"Ġistikrar":8527,"ĠBirinci":8528,"Ġokula":8529,"ĠÄ°Ãĩ":8530,"dÄ±kÃ§a":8531,"ndaki":8532,"Ã§Ä±sÄ±":8533,"Ġibadet":8534,"ĠsahipliÄŁi":8535,"Ġlay":8536,"Ġ1000":8537,"Ġbomb":8538,"Ġsof":8539,"Ġyeterince":8540,"Ġbunlardan":8541,"luÄŁunu":8542,"ox":8543,"Ġteker":8544,"ĠKerim":8545,"ĠBilimleri":8546,"umuzda":8547,"Ġbedava":8548,"Ġbizler":8549,"amalarÄ±":8550,"Ġbirlikt":8551,"ĠÄ°ÅŁletme":8552,"ãĤ":8553,"ĠTedav":8554,"ĠCevap":8555,"ĠiliÅŁkileri":8556,"Ġkurulum":8557,"Ġhepsini":8558,"ĠPh":8559,"ĠÃ§aba":8560,"Ġsistemini":8561,"Ġelinden":8562,"Ġ58":8563,"ĠSayÄ±lÄ±":8564,"ĠTakÄ±mÄ±":8565,"ĠÅŁimdiden":8566,"ĠyaÄŁÄ±":8567,"cin":8568,"ĠyaÅŁamÄ±nÄ±":8569,"ĠuygulanÄ±r":8570,"vin":8571,"ĠSektÃ¶r":8572,"Ġkazanmak":8573,"ĠSitesi":8574,"tÄ±ÄŁÄ±m":8575,"Ġkoca":8576,"ĠyapÄ±larak":8577,"ĠaÅŁamasÄ±nda":8578,"endim":8579,"Ġkg":8580,"Su":8581,"tih":8582,"ĠKÄ±zÄ±l":8583,"yaÅŁ":8584,"nÃ¼":8585,"ash":8586,"Ġetkileri":8587,"vat":8588,"Ġstan":8589,"ĠgeÃ§irmek":8590,"ĠKud":8591,"ome":8592,"Ġbuton":8593,"Ġseviyede":8594,"ĠÃ§ekin":8595,"57":8596,"Ġkafa":8597,"Ġkaplama":8598,"Ġdeplasman":8599,"nav":8600,"ĠSilah":8601,"EP":8602,"ĠDevleti":8603,"ĠÄ°lan":8604,"amayan":8605,"ĠsÄ±caklÄ±k":8606,"zen":8607,"Ġeline":8608,"ĠyardÄ±mÄ±":8609,"Ġisimleri":8610,"Ġrezervasyon":8611,"ĠValisi":8612,"ĠBoÄŁaz":8613,"ĠEK":8614,"ĠiÃ§erir":8615,"Ġedecektir":8616,"mes":8617,"ĠsektÃ¶rÃ¼nÃ¼n":8618,"ĠGÃ¼nlÃ¼k":8619,"dirne":8620,"Ġmedyum":8621,"Ġpak":8622,"ĠBalÄ±kesir":8623,"Ġdondur":8624,"ubu":8625,"ĠsÃ¼rÃ¼c":8626,"KadÄ±n":8627,"YON":8628,"ĠAir":8629,"BA":8630,"Ã§ilerin":8631,"Ä±llÄ±":8632,"ediÄŁimiz":8633,"eysel":8634,"ersiniz":8635,"ĠanlaÅŁma":8636,"ĠhazÄ±rlanmÄ±ÅŁ":8637,"ydi":8638,"ĠdÃ¼ÅŁÃ¼ndÃ¼ÄŁ":8639,"lip":8640,"Ġsemin":8641,"Ã¢lÃ¢":8642,"ĠkolaylÄ±kla":8643,"Ġkonferans":8644,"ĠZeytin":8645,"astik":8646,"ĠbulunduÄŁunu":8647,"ĠhesabÄ±":8648,"Ġdudak":8649,"ĠÃ§el":8650,"ĠgeÃ§erek":8651,"ĠbÄ±Ã§ak":8652,"ĠÃ¶v":8653,"Ġbekliyoruz":8654,"ĠÄ°L":8655,"ĠtamamladÄ±":8656,"ladÄ±m":8657,"ĠÃĩank":8658,"eyt":8659,"Uy":8660,"ĠKadÄ±kÃ¶y":8661,"malarÄ±nÄ±n":8662,"Ä±tma":8663,"Ġ2004":8664,"Ġoraya":8665,"ĠtÃ¶r":8666,"Ġduygusal":8667,"ĠdeÄŁiÅŁimi":8668,"Ġdizisi":8669,"ĠÃ§alÄ±ÅŁÄ±yoruz":8670,"ĠettiÄŁiniz":8671,"KÄ±r":8672,"ĠAla":8673,"Ġvurgulayan":8674,"Ġkategorisinde":8675,"engiz":8676,"Ġtabak":8677,"Ġambalaj":8678,"Ġmisiniz":8679,"ĠLondra":8680,"ĠdevamlÄ±":8681,"ĠØ":8682,"ĠÃĩiÃ§ek":8683,"ĠkarÅŁÄ±sÄ±na":8684,"uluÅŁ":8685,"ĠgÃ¶rmÃ¼ÅŁ":8686,"Ġfilmin":8687,"ee":8688,"ĠbakalÄ±m":8689,"Ġgetiriyor":8690,"Ġtebrik":8691,"Ġalet":8692,"ĠhaftalÄ±k":8693,"Ġraf":8694,"unacak":8695,"ĠolmasÄ±nÄ±n":8696,"ĠTim":8697,"ILI":8698,"era":8699,"Ä°YE":8700,"ĠihraÃ§":8701,"ĠalÄ±nmÄ±ÅŁ":8702,"mekle":8703,"Ġ2002":8704,"yat":8705,"Ġ03":8706,"ĠGazetesi":8707,"×Ĺ":8708,"ĠSuudi":8709,"ĠAV":8710,"Ä±lÄ±rken":8711,"ĠUlu":8712,"Ġsemt":8713,"Ġhip":8714,"ĠgÃ¶ze":8715,"Ġbr":8716,"ora":8717,"Ġili":8718,"Ġomuz":8719,"Ãĸr":8720,"Sam":8721,"tÃ¼rÃ¼":8722,"Kan":8723,"memiz":8724,"unum":8725,"ÄŀR":8726,"ĠTrans":8727,"mÄ±yorum":8728,"ĠBÃ¼r":8729,"ĠyÄ±llarÄ±nda":8730,"Ġbag":8731,"ĠSeÃ§im":8732,"ĠkorunmasÄ±":8733,"ĠgÃ¼cÃ¼nÃ¼":8734,"Ä±mdan":8735,"Ġyolunu":8736,"Ġtren":8737,"ĠKartal":8738,"ĠkÃ¼f":8739,"Ġdefter":8740,"Ãĸzellikle":8741,"ĠanlatÄ±yor":8742,"lÄ±yorum":8743,"gilizce":8744,"Ġorijinal":8745,"Ġikamet":8746,"Ã¼minyum":8747,"ĠPlay":8748,"kiralama":8749,"Ġsad":8750,"Ġprojenin":8751,"Ġforma":8752,"Ġtatmin":8753,"ekili":8754,"orit":8755,"Ġlab":8756,"ĠBAÅŀ":8757,"Ġdaima":8758,"Ġverg":8759,"Ġtaze":8760,"ĠkadÄ±nÄ±":8761,"ĠKÃ¶pr":8762,"salar":8763,"ĠOrtadoÄŁu":8764,"mektir":8765,"ÅŁak":8766,"ĠÅŁarj":8767,"ekom":8768,"ĠhikÃ¢y":8769,"Ġreferans":8770,"ĠbaÅŁtan":8771,"Ġatmos":8772,"Ġmaddeler":8773,"ĠinÅŁallah":8774,"Ġidare":8775,"asÄ±n":8776,"ĠAfyon":8777,"è¦º":8778,"ĠrÃ¼y":8779,"Ġgerekirse":8780,"xy":8781,"iller":8782,"Ġhorm":8783,"ĠmÃ¼sa":8784,"Ã¼mÃ¼zÃ¼n":8785,"yasÄ±":8786,"ure":8787,"ĠHa":8788,"ĠTuz":8789,"duÄŁunda":8790,"...]":8791,"Ġlaf":8792,"ĠÙ":8793,"Ġsekiz":8794,"ĠÅŀampiyonasÄ±":8795,"ĠetrafÄ±nda":8796,"birliÄŁi":8797,"ĠaraÃ§lar":8798,"Ġgittim":8799,"Ġiyil":8800,"ĠkatÄ±lÄ±mcÄ±":8801,"ĠzamanlÄ±":8802,"ĠMesela":8803,"Ã§ileri":8804,"ĠÅŁirketleri":8805,"Ġabon":8806,"ĠaÃ§Ä±klandÄ±":8807,"bat":8808,"hay":8809,"Ġbeton":8810,"Ġizleyen":8811,"dinde":8812,"ÄŀÄ°T":8813,"Ġdirekt":8814,"ĠbastÄ±r":8815,"Ġoradan":8816,"ĠMÃ¼cadele":8817,"ĠhaÅŁ":8818,"ĠinanÄ±lmaz":8819,"ĠBÃ¼yÃ¼kel":8820,"ĠiÅŁletmeler":8821,"Ġyazma":8822,"Ġban":8823,"ĠyurtdÄ±ÅŁ":8824,"ĠkaÅŁÄ±ÄŁÄ±":8825,"ish":8826,"ĠMir":8827,"ĠGÃ¼mÃ¼ÅŁ":8828,"ĠyakÄ±t":8829,"ĠGeÃ§en":8830,"ĠDiÅŁ":8831,"Ġoturum":8832,"Ä±ndÄ±k":8833,"erif":8834,"atÃ¶rÃ¼":8835,"BUL":8836,"ĠvatandaÅŁlarÄ±n":8837,"Ġkaynaklanan":8838,"ĠanlayÄ±ÅŁÄ±":8839,"ĠEkonomi":8840,"68":8841,"Kend":8842,"lusu":8843,"mÃ®":8844,"sey":8845,"ĠKaÅŁ":8846,"Ġcaz":8847,"ĠÃ¶zellikler":8848,"itab":8849,"uyorlar":8850,"ĠKoruma":8851,"kale":8852,"Ãħ":8853,"Devlet":8854,"ĠSaf":8855,"Ġgirer":8856,"alarca":8857,"Ġekst":8858,"Ã¼ksek":8859,"Ġkendime":8860,"Ġgereklidir":8861,"ĠÃ§evresinde":8862,"ĠVergi":8863,"Ġanlamak":8864,"Ġtuvalet":8865,"ĠseviÅŁ":8866,"ĠBirÃ§ok":8867,"ĠkeÅŁfet":8868,"kÃ¢r":8869,"viÃ§":8870,"Ġsakat":8871,"Ġresimleri":8872,"resyon":8873,"ĠkarÅŁÄ±lÄ±ÄŁÄ±nda":8874,"ĠyazdÄ±ÄŁÄ±":8875,"Ġirtib":8876,"ĠpaylaÅŁmak":8877,"Ġkadros":8878,"ĠÃ§Ã¶zÃ¼mler":8879,"Ä±h":8880,"gut":8881,"ĠdÃ¼ÅŁÃ¼nÃ¼l":8882,"ĠÃ§Ä±kardÄ±":8883,"Ġmetr":8884,"Ġtarihten":8885,"Ġkoruyucu":8886,"Ä±nc":8887,"Ġyuv":8888,"Ġyavru":8889,"ĠsatÄ±lÄ±k":8890,"Ġderg":8891,"indan":8892,"ĠGe":8893,"ĠÃ§ant":8894,"ĠkarÅŁÄ±lÄ±ÄŁÄ±":8895,"gÃ¶z":8896,"klar":8897,"×Ĺ×Ĺ":8898,"ĠolanÄ±":8899,"akal":8900,"ebilirim":8901,"ĠiÅŁleme":8902,"irleri":8903,"ĠyaralÄ±":8904,"Haber":8905,"kÃ¼dar":8906,"App":8907,"Ġkoyun":8908,"ĠDanÄ±ÅŁman":8909,"ela":8910,"habalar":8911,"ĠTeÅŁkil":8912,"ĠSalonu":8913,"ĠrÄ±z":8914,"Ġkapsamda":8915,"Ġmide":8916,"Ġkaydeden":8917,"lidir":8918,"Ġisimler":8919,"Spor":8920,"Ġyoksul":8921,"abrika":8922,"Ġusta":8923,"portaj":8924,"lÃ¼ÄŁÃ¼ne":8925,"ilirken":8926,"ich":8927,"Ġvadeli":8928,"Ã¼el":8929,"Ġtutmak":8930,"Ġseyr":8931,"ĠÄ°spanya":8932,"amalar":8933,"ĠTarif":8934,"Ġaittir":8935,"ĠÃ¶lÃ§Ã¼m":8936,"ĠÃ§alÄ±ÅŁtÄ±ÄŁÄ±":8937,"ĠÃ§Ä±karmak":8938,"ĠaÄŁÄ±rlÄ±k":8939,"Ġistenilen":8940,"Ġgibidir":8941,"ĠkatlÄ±":8942,"ĠsikiÅŁ":8943,"ĠgÃ¶reve":8944,"ĠEsas":8945,"Ġtitiz":8946,"ĠtaÅŁÄ±yor":8947,"kray":8948,"Ã¼rt":8949,"ĠZiyaret":8950,"Ġdiliyorum":8951,"Ġaley":8952,"Ġetmem":8953,"ĠÃ§ekmek":8954,"ĠDef":8955,"ĠbÃ¶lgenin":8956,"ĠiÅŁini":8957,"Ġgetirir":8958,"ml":8959,"ĠBeÅŁ":8960,"Ġreng":8961,"ĠkalÄ±yor":8962,"MET":8963,"ĠBaÅŁka":8964,"Ġsisteme":8965,"Ġyetki":8966,"Ġneticesinde":8967,"ĠgeleceÄŁi":8968,"danÄ±n":8969,"Ġmutf":8970,"iÄŁeri":8971,"ATO":8972,"ĠunutmayÄ±n":8973,"ĠDis":8974,"58":8975,"ĠBeni":8976,"ĠcezalandÄ±r":8977,"ĠkÃ¼l":8978,"Ġmaliyeti":8979,"Ġittifak":8980,"ĠKON":8981,"Ġskor":8982,"ĠGÃ¼ncel":8983,"ĠÄ°stik":8984,"mÄ±ÅŁtÄ±m":8985,"ĠOÄŁuz":8986,"Ġnam":8987,"Ġkrem":8988,"Ġolmazsa":8989,"dular":8990,"Ġtopla":8991,"elisiniz":8992,"ĠhalkÄ±nÄ±n":8993,"Ġyoluna":8994,"ĠyetiÅŁkin":8995,"ĠBes":8996,"Ġtopu":8997,"edikleri":8998,"ĠdeÄŁiÅŁiklikler":8999,"gn":9000,"Ã¼yoruz":9001,"ĠHangi":9002,"ĠÃ§Ä±kma":9003,"ĠortasÄ±nda":9004,"Ġolurken":9005,"ĠgÃ¶rebilirsiniz":9006,"ĠÃ¶zgÃ¼n":9007,"ĠKoÅŁ":9008,"Ã¶nÃ¼":9009,"ĠGÃ¶rÃ¼ÅŁ":9010,"ĠSaray":9011,"ĠÃ¶zÃ¼r":9012,"ÅŁek":9013,"ĠHe":9014,"ĠyakÄ±ÅŁ":9015,"Ġlit":9016,"Ġmanzar":9017,"cuk":9018,"ĠBÃ¼lent":9019,"Ġhamur":9020,"ĠkoÅŁullarÄ±":9021,"ĠÃĩetin":9022,"Ġkel":9023,"masi":9024,"ĠYavuz":9025,"Ġmilletin":9026,"Ġtezgah":9027,"Ġzem":9028,"jinal":9029,"ĠSelim":9030,"ĠKa":9031,"Ġhakaret":9032,"Ġmecbur":9033,"ĠyÃ¼klen":9034,"Ġ120":9035,"Ġgirip":9036,"Sur":9037,"ĠAcil":9038,"lantÄ±":9039,"ĠMaliye":9040,"rit":9041,"ĠmarkasÄ±":9042,"Ġcevab":9043,"ĠKÃ¶r":9044,"ĠBiy":9045,"ĠÃ§Ä±r":9046,"ĠgeliÅŁtirmek":9047,"ĠYalnÄ±z":9048,"Ġbilinc":9049,"Bursa":9050,"mik":9051,"Ġkombi":9052,"ĠSigort":9053,"ĠgÃ¶v":9054,"ĠoluÅŁturul":9055,"ĠoluÅŁturulan":9056,"Ġemr":9057,"GK":9058,"Ġbakar":9059,"ĠsilahlÄ±":9060,"ĠSabah":9061,"adÄ±ÄŁÄ±nÄ±z":9062,"ĠfirmalarÄ±n":9063,"ÄĲ":9064,"ĠyardÄ±mÄ±yla":9065,"ĠMali":9066,"ebze":9067,"Ġsandal":9068,"Ġyumurt":9069,"ĠSÃ¼n":9070,"ĠSinan":9071,"OD":9072,"ool":9073,"tas":9074,"ĠyapacaÄŁÄ±":9075,"icil":9076,"Ġdoku":9077,"67":9078,"Ġkime":9079,"Ġmol":9080,"Ġzamana":9081,"lilerin":9082,"Ġsonradan":9083,"Ã¼lerek":9084,"acaat":9085,"ĠkomÅŁu":9086,"abileceÄŁini":9087,"ĠÃľrÃ¼nleri":9088,"ĠdÃ¢hil":9089,"Ġdernekler":9090,"ĠolaÄŁanÃ¼stÃ¼":9091,"Ã¢b":9092,"ĠSizin":9093,"Ġtopluluk":9094,"Ġ2003":9095,"Ġ600":9096,"ayn":9097,"Ġsaatte":9098,"ĠâĢĺâĢĻ":9099,"TS":9100,"ĠÃ¶f":9101,"ebileceÄŁiniz":9102,"ĠElektronik":9103,"ĠRenk":9104,"ĠdediÄŁi":9105,"Ġprotein":9106,"Ã¼lasyon":9107,"ĠâĢĻ":9108,"ĠÅŀanlÄ±urfa":9109,"Ġpersoneli":9110,"ĠgÃ¶zet":9111,"Ġithalat":9112,"ĠPa":9113,"Ġ07":9114,"Burada":9115,"Ã§asÄ±":9116,"Ġfit":9117,"Ġkullanmaya":9118,"sp":9119,"ĠSokak":9120,".-":9121,"ĠdanÄ±ÅŁ":9122,"Ġsesli":9123,"ALÄ°":9124,"PSS":9125,"ĠbaÅŁÄ±ndan":9126,"ĠÅŀem":9127,"kusuz":9128,"Ġgetirilen":9129,"ceÄŁi":9130,"ĠsÃ¼rÃ¼":9131,"Ġvol":9132,"Ð¾Ð":9133,"ano":9134,"ĠgereÄŁ":9135,"Ġtarihlerinde":9136,"Ġgecesi":9137,"atlÄ±":9138,"ĠSoÄŁ":9139,"ĠÃ¶nemlisi":9140,"ĠNedir":9141,"ĠoluÅŁturduÄŁu":9142,"Ġmerh":9143,"Ġkonulu":9144,"Ġbom":9145,"ĠzamandÄ±r":9146,"ĠgÃ¶nderilen":9147,"Ġbizleri":9148,"ĠHaklarÄ±":9149,"onsor":9150,"Ġformat":9151,"EÄŁitim":9152,"Ġbran":9153,"ANBUL":9154,"ileceÄŁiniz":9155,"ucusu":9156,"etli":9157,"Ġbilgilerini":9158,"ĠortamÄ±":9159,"ĠbaÅŁlÄ±ÄŁÄ±":9160,"ĠsÃ¶mÃ¼r":9161,"ĠbugÃ¼nkÃ¼":9162,"ĠaltyapÄ±":9163,"Ġbelirgin":9164,"ÄŀI":9165,"ĠyÄ±ldan":9166,"ech":9167,"ĠyapÄ±lacaktÄ±r":9168,"lazÄ±ÄŁ":9169,"otosiklet":9170,"ĠiÄŁ":9171,"ĠsektÃ¶rde":9172,"ĠFuarÄ±":9173,"ĠfazlasÄ±":9174,"iliÅŁ":9175,"liÄŁinden":9176,"ĠkÃ¶ken":9177,"ĠvasÄ±t":9178,"Ġborc":9179,"irmi":9180,"aseb":9181,"Ġfot":9182,"Ġmaz":9183,"Ġbileti":9184,"Ġakla":9185,"Ġsizinle":9186,"Ġhemde":9187,"ĠdoÄŁu":9188,"Ġannem":9189,"41":9190,"ĠÅŁeyden":9191,"Ġmalzemeler":9192,"ĠOnu":9193,"ĠÃ¼reten":9194,"amur":9195,"Ġpomp":9196,"Ġmedyada":9197,"Ġduyar":9198,"Ġetkiler":9199,"Ġdert":9200,"ĠÅŀubesi":9201,"ĠManisa":9202,"oÃ§":9203,"Ġkek":9204,"utin":9205,"mates":9206,"Ġtoplamda":9207,"tihar":9208,"ĠEmlak":9209,"ĠÃĩeÅŁit":9210,"Ġihmal":9211,"ĠTez":9212,"Ġpost":9213,"ĠHindistan":9214,"ĠhayatÄ±nda":9215,"anÄ±klÄ±ÄŁÄ±":9216,"ĠÅŀekil":9217,"ĠÃ§eÅŁitleri":9218,"ĠÃ§Ä±l":9219,"uydu":9220,"PS":9221,"Ãĥ":9222,"ĠyazarÄ±":9223,"Ä±ÅŁÄ±klÄ±k":9224,"Ġriv":9225,"ĠolaylarÄ±":9226,"ĠLab":9227,"ĠtÄ±klayÄ±n":9228,"Ġrady":9229,"ÃĸK":9230,"ĠtartÄ±ÅŁma":9231,"lad":9232,"ĠAkÄ±n":9233,"fendi":9234,"ĠgÃ¶nÃ¼llÃ¼":9235,"ÄŀÄ°TÄ°M":9236,"Ġhid":9237,"Ġmusunuz":9238,"ĠyÃ¼zÃ¼":9239,"ĠsÄ±radan":9240,"Ġ49":9241,"ĠÃ§Ã¶zÃ¼mÃ¼":9242,"ĠGiresun":9243,"ĠÃĸztÃ¼rk":9244,"doÄŁu":9245,"ĠBan":9246,"dÄ±ÄŁÄ±nÄ±n":9247,"Milli":9248,"Ġsag":9249,"ĠcumhurbaÅŁk":9250,"Ġhil":9251,"ĠefsunlarÄ±":9252,"Ġbudur":9253,"Ġheyet":9254,"ĠHacÄ±":9255,"Ġoynamak":9256,"ĠKuruluÅŁ":9257,"ĠHollanda":9258,"Ter":9259,"Ġmatematik":9260,"ĠDenetim":9261,"Ġlaborat":9262,"Mal":9263,"Ã¼sÃ¼nÃ¼":9264,"Ġmetrekare":9265,"ĠtaahhÃ¼t":9266,"yolu":9267,")âĢĻ":9268,"Ġplanda":9269,"ĠmÃ¼st":9270,"Ä±yan":9271,"Ġbulacak":9272,"ĠCamii":9273,"ĠOyunu":9274,"maye":9275,"ĠÅŁahit":9276,"CE":9277,"ĠsayÄ±lÄ±r":9278,"ERÄ°":9279,"Ġsamimi":9280,"Ġstres":9281,"Ġveriyoruz":9282,"Deniz":9283,"ĠÃ¶rgÃ¼":9284,"ĠGec":9285,"Tarih":9286,"Ġmaddenin":9287,"ĠayrÄ±m":9288,"Ä±sÄ±n":9289,"ĠaÃ§Ä±klamalarda":9290,"Em":9291,"ĠSine":9292,"ĠortamÄ±nda":9293,"lunun":9294,"ĠkaÄŁÄ±":9295,"likten":9296,"tuÄŁu":9297,"ĠcoÅŁ":9298,"Ġkaybed":9299,"Ġoyuncak":9300,"Ġmedeniyet":9301,"ĠarkadaÅŁÄ±m":9302,"ĠSize":9303,"abilme":9304,"hats":9305,"Ġpozitif":9306,"ĠaldÄ±ÄŁÄ±nÄ±":9307,"ĠalÄ±ÅŁkan":9308,"ĠFi":9309,"ingir":9310,"Ġkritik":9311,"ĠolacaÄŁÄ±z":9312,"ĠÃľcretsiz":9313,"ĠgÃ¶rme":9314,"olojisi":9315,"Ġfiyatlar":9316,"ĠoluÅŁturur":9317,"esidir":9318,"ĠEmir":9319,"59":9320,"ĠEfend":9321,"Ġsunuyoruz":9322,"ĠtakÄ±mÄ±n":9323,"luÄŁun":9324,"ĠMe":9325,"operatif":9326,"Ġriski":9327,"Ġduruyor":9328,"ĠhattÄ±":9329,"ĠTEK":9330,"ĠYazÄ±":9331,"Ä±sÄ±ndaki":9332,"ĠÃ¶ÄŁrenebilirsiniz":9333,"rah":9334,"zaman":9335,"Ġlak":9336,"ĠKalite":9337,"ocuÄŁ":9338,"LÄ°ÄŀÄ°":9339,"ĠtavÄ±r":9340,"mece":9341,"ion":9342,"ĠBolu":9343,"tÄ±p":9344,"ĠÃĸde":9345,"yak":9346,"Amer":9347,"Man":9348,"Osman":9349,"Ġstratejik":9350,"ĠgerÃ§ekleÅŁtirilecek":9351,"ĠÃ¶rnekleri":9352,"ĠKongresi":9353,"Ġbelgeleri":9354,"ĠkÃ¶prÃ¼":9355,"ĠdÃ¼ÅŁer":9356,"Ġ42":9357,"Ġkuy":9358,"Ġedit":9359,"2010":9360,"Ġolurdu":9361,"ikal":9362,"Ġkonse":9363,"Ġberaberinde":9364,"Ġtac":9365,"ĠBet":9366,"ĠonarÄ±m":9367,"ĠÃ§alÄ±ÅŁmalarÄ±n":9368,"ĠðŁĻ":9369,"Ġsosy":9370,"ĠReklam":9371,"yol":9372,"ĠtÄ±klayÄ±nÄ±z":9373,"Ġplaj":9374,"ĠgirmiÅŁ":9375,"ĠihtiyaÃ§larÄ±nÄ±":9376,"ullarÄ±":9377,"ĠDurum":9378,"dirim":9379,"ĠCerrah":9380,"ĠaÃ§Ä±klan":9381,"ĠDÃ¼nyanÄ±n":9382,"ularak":9383,"Dem":9384,"Ge":9385,"ĠoluÅŁmaktadÄ±r":9386,"Ġajans":9387,"ĠhaksÄ±z":9388,"ĠRektÃ¶r":9389,"ikalÄ±":9390,"ĠYazÄ±lÄ±m":9391,"don":9392,"ĠÄ°N":9393,"ĠgeÃ§mek":9394,"ĠaÅŁÄ±k":9395,"ĠHerkes":9396,"Ġesnek":9397,"ĠInstagram":9398,"Ġkimseye":9399,"ĠJo":9400,"ĠiÅŁlen":9401,"Ġvermeden":9402,"ĠÃĸncelikle":9403,"Ġdilim":9404,"Ġdesen":9405,"ojistik":9406,"Ã¼nÃ¼r":9407,"Ġmel":9408,"78":9409,"inizle":9410,"ĠgÃ¶sterilen":9411,"Eski":9412,"ald":9413,"Ġizleme":9414,"Ġruhsat":9415,"ĠRob":9416,"ĠdaÄŁÄ±tÄ±m":9417,"alarÄ±yla":9418,"masÄ±dÄ±r":9419,"ĠTÃ¼rkmen":9420,"igÃ¼r":9421,"ĠkullanÄ±cÄ±larÄ±n":9422,"Ġdeneyimi":9423,"ĠteÅŁkilat":9424,"Ġtutun":9425,"Ġmaddesinde":9426,"rib":9427,"ĠsaÄŁlay":9428,"Ä±lacaÄŁÄ±nÄ±":9429,"Ġoldug":9430,"Ġbelgeler":9431,"Ġmemnuniyet":9432,"ĠolmasÄ±n":9433,"Konya":9434,"Ġduran":9435,"ĠMedya":9436,"ĠHiÃ§bir":9437,"Ġevvel":9438,"ĠKÄ±y":9439,"ĠyaptÄ±rÄ±m":9440,"ĠvurguladÄ±":9441,"ĠBos":9442,"Ġniye":9443,"Ġbalkon":9444,"Ġdisk":9445,"ĠyaptÄ±ÄŁÄ±nÄ±z":9446,"ĠCanlÄ±":9447,"Ġgirmek":9448,"Ġduyurdu":9449,"Ä±lmalÄ±dÄ±r":9450,"ĠBilimler":9451,"Ä±cÄ±nÄ±n":9452,"ĠseÃ§ilen":9453,"emiyorum":9454,"ĠBaÅŁak":9455,"Ġorganiz":9456,"Ġcasino":9457,"amayacak":9458,"Bay":9459,"ĠiÅŁit":9460,"ĠvarlÄ±ÄŁÄ±":9461,"Ġboyun":9462,"Ġï":9463,"ĠLÃ¼tfen":9464,"69":9465,"ĠkaynaklÄ±":9466,"Ġpiyasa":9467,"sizin":9468,"Ä±rt":9469,"Ä°ki":9470,"Ġdenize":9471,"Sosyal":9472,"ĠYÃ¼ksel":9473,"ĠolanlarÄ±n":9474,"ÃĩalÄ±ÅŁ":9475,"ĠsÄ±nÄ±rsÄ±z":9476,"taÃ§":9477,"Ġdevleti":9478,"EH":9479,"ĠsÃ¼resince":9480,"isim":9481,"Ġbizden":9482,"ÅŁtur":9483,"Har":9484,"Ġyorumlar":9485,"Ġhamil":9486,"ĠMatematik":9487,"metik":9488,"ĠKilis":9489,"abah":9490,"ĠparÃ§alarÄ±":9491,"abilim":9492,"Ġopsiyon":9493,"ĠJaponya":9494,"ĠDel":9495,"ĠÄ°nan":9496,"Ġhangisi":9497,"ĠÃĩavuÅŁ":9498,"Ġgirecek":9499,"ĠdolarlÄ±k":9500,"Ġteklifi":9501,"ysa":9502,"ĠgirdiÄŁi":9503,"ĠbÃ¼tÃ§e":9504,"Ġturnuv":9505,"ĠÃ¶tÃ¼rÃ¼":9506,"Ġsus":9507,"Ġkutsal":9508,"Ġobj":9509,"uki":9510,"Ġkade":9511,"masÄ±z":9512,"ĠHalil":9513,"ĠEmin":9514,"ĠolmasÄ±ndan":9515,"uÅŁtuk":9516,"Ġmesela":9517,"Ġverin":9518,"tÄ±klarÄ±nÄ±":9519,"Ġhareketi":9520,"ĠsÃ¶ylemiÅŁ":9521,"ĠYukarÄ±":9522,"ĠtÃ¼y":9523,"ĠarÄ±":9524,"Ġkapak":9525,"ĠetkileÅŁ":9526,"Ġgalibiyet":9527,"ĠgÃ¼mrÃ¼k":9528,"ĠBazen":9529,"ĠdÃ¼nyayÄ±":9530,"ĠFon":9531,"ĠcihazÄ±":9532,"Ġdahilinde":9533,"ĠuÄŁur":9534,"ĠHoca":9535,"Ġmaksimum":9536,"Ġprotesto":9537,"RAM":9538,"ĠgÃ¶zler":9539,"aydÄ±":9540,"ĠParkÄ±":9541,"olon":9542,"Ġnereye":9543,"ĠYayÄ±ncÄ±lÄ±k":9544,"ulma":9545,"Ġuydur":9546,"ĠNik":9547,"Ġharca":9548,"ĠgÃ¼v":9549,"ĠÃ§alÄ±ÅŁtÄ±":9550,"Ġtarihte":9551,"Kap":9552,"ĠgenÃ§ler":9553,"ĠKonuÅŁ":9554,"Ġlen":9555,"ĠDol":9556,"Ġsaniye":9557,"Ġadresine":9558,"ĠlayÄ±k":9559,"larÄ±mÄ±zda":9560,"ĠSayf":9561,"Ġiftar":9562,"ĠÃĸrgÃ¼tÃ¼":9563,"ilmeye":9564,"DÃ¼ny":9565,"hiÅŁ":9566,"Ġkurumlar":9567,"ĠAbdÃ¼l":9568,"ida":9569,"ĠEÄŀÄ°TÄ°M":9570,"ĠBaÅŁar":9571,"ĠyaÄŁÄ±ÅŁ":9572,"ĠettiÄŁimiz":9573,"Ġnoktaya":9574,"ĠmÃ¼te":9575,"Ġ04":9576,"Ġmotiv":9577,"SA":9578,"ĠList":9579,"Ġlezzetli":9580,"Ġkombin":9581,"ĠÂ«":9582,"Ġbozukluk":9583,"iver":9584,"Ġolursunuz":9585,"Ġsenar":9586,"Ġgazete":9587,"ĠGÃ¼nde":9588,"ĠErmeni":9589,"ĠAslan":9590,"load":9591,"Ġtrend":9592,"Ġmuhafaza":9593,"und":9594,"SD":9595,"Ġoynayan":9596,"Ġtutuklu":9597,"sÃ¼n":9598,"ĠarayÄ±ÅŁ":9599,"ĠYaklaÅŁÄ±k":9600,"Ġibaret":9601,"ÄŁrÄ±":9602,"ĠMahmut":9603,"ĠkÄ±yÄ±":9604,"Ġhatun":9605,"eriler":9606,"ame":9607,"Ġilerleyen":9608,"!..":9609,"yn":9610,"ĠgerekÃ§esiyle":9611,"ebilirler":9612,"ĠHastalÄ±klarÄ±":9613,"ÅŁet":9614,"Ġdurumlar":9615,"Ġhastaneye":9616,"Ġnaz":9617,"Ġzorlu":9618,"HK":9619,"Ġila":9620,"ĠÅŁok":9621,"dÄ±ÄŁÄ±nÄ±zda":9622,"ĠÄ°talyan":9623,"Ġbiber":9624,"ĠmakinasÄ±":9625,"Ġeseri":9626,"aÅŁkÄ±n":9627,"ĠUygun":9628,"BazÄ±":9629,"burg":9630,"ĠgerÃ§ekleÅŁtirdi":9631,"ĠarayÄ±p":9632,"Ġkonuyla":9633,"Ġmilliyet":9634,"Ġsergilen":9635,"ĠdÃ¶nemine":9636,"ĠOb":9637,"Ġkablo":9638,"ĠduyduÄŁu":9639,"ĠMeydanÄ±":9640,"ĠÃ¶ÄŁrencisi":9641,"landÄ±rma":9642,"ĠkÄ±saca":9643,"Ġperde":9644,"Ġ[...]":9645,"ower":9646,"ĠdanÄ±ÅŁmanlÄ±k":9647,");":9648,"Ä±lmÄ±ÅŁtÄ±":9649,"Ġkoyu":9650,"ĠJohn":9651,"ilde":9652,"Antalya":9653,"GB":9654,"ĠyararlÄ±":9655,"Ġtesisat":9656,"tiÄŁinde":9657,"Ġorganik":9658,"ĠBol":9659,"ĠAzerbaycan":9660,"uluÄŁu":9661,"ĠArslan":9662,"Ġkararlar":9663,"ĠkuruluÅŁlarÄ±":9664,"ĠolmasÄ±dÄ±r":9665,"ĠMuhar":9666,"ĠdoÄŁalgaz":9667,"ĠToto":9668,"Ġvitamin":9669,"icileri":9670,"ĠkÄ±zÄ±n":9671,"iyordum":9672,"ence":9673,"ĠHafta":9674,"ĠKem":9675,"kut":9676,"ĠaldÄ±ÄŁÄ±mÄ±z":9677,"ĠhÄ±zÄ±":9678,"ÃľZ":9679,"Kam":9680,"ĠÄ°ht":9681,"ĠkonularÄ±nda":9682,"ĠKuvvetleri":9683,"77":9684,"SP":9685,"Ġgiderken":9686,"Ġard":9687,"ĠalmayÄ±":9688,"Ġbekliyorum":9689,"ĠErmen":9690,"iret":9691,"Ġch":9692,"Ġgemi":9693,"ĠarkadaÅŁlÄ±k":9694,"Ġtelefondan":9695,"Ġkavg":9696,"alarak":9697,"Ġmobilya":9698,"ĠsÃ¶zcÃ¼k":9699,"Ġtazminat":9700,"Ġikna":9701,"ĠsaÄŁlaya":9702,"Kim":9703,"ĠgÃ¼nÃ¼mÃ¼ze":9704,"ps":9705,"ĠbaÅŁladÄ±k":9706,"ĠodalarÄ±":9707,"ĠbÄ±rakÄ±n":9708,"laÅŁan":9709,"ĠKadÄ±nlar":9710,"ĠBunlardan":9711,"dukÃ§a":9712,"ĠKudÃ¼s":9713,"Ġyazan":9714,"ĠyeryÃ¼z":9715,"ĠdÃ¼ÅŁt":9716,"Ġchat":9717,"Ġzincir":9718,"krayna":9719,"Ä±nÄ±zdan":9720,"ĠmesajÄ±":9721,"urya":9722,"avÃ¼z":9723,"ĠÃ§Ä±kmak":9724,"ĠmÃ¼ÅŁ":9725,"ahya":9726,"Ġcadde":9727,"Ġonlardan":9728,"Ġoyna":9729,"Ġdinlen":9730,"ĠuzaklaÅŁtÄ±r":9731,"ĠStad":9732,"Ġtohum":9733,"izmin":9734,"ĠsÄ±fat":9735,"ĠAjansÄ±":9736,"Ġimam":9737,"Ġ46":9738,"Ġparla":9739,"io":9740,"Ã¼ldÃ¼ÄŁÃ¼":9741,"ĠOlan":9742,"ĠanlatÄ±r":9743,"ĠGEN":9744,"ocam":9745,"Ġsh":9746,"Ġnefret":9747,"Ġmenf":9748,"anÄ±zÄ±":9749,"Ġzik":9750,"Ġbelirlendi":9751,"ĠYakÄ±n":9752,"ĠiÅŁten":9753,"ahisar":9754,"imum":9755,"emeyecek":9756,"ĠfarkÄ±nd":9757,"Ġnik":9758,"Ġbununla":9759,"Ġpir":9760,"ĠGay":9761,"Ġuydu":9762,"Ġdikkati":9763,"Ġrobot":9764,"ÂŁ":9765,"ĠmÃ¼slÃ¼m":9766,"amÄ±yorum":9767,"azz":9768,"ĠMÃ¼ÅŁteri":9769,"ĠTh":9770,"ĠKitabÄ±":9771,"Ġvitam":9772,"Ã¼ÄŁÃ¼":9773,"ĠMÃ¼st":9774,"ĠgÃ¶rÃ¼nen":9775,"ĠayrÄ±lan":9776,"ĠVideo":9777,"unlu":9778,"laÅŁmÄ±ÅŁ":9779,"Ġistifa":9780,"Ġkutu":9781,"Uzun":9782,"Ġgetirildi":9783,"Ġintik":9784,"ĠboÅŁluk":9785,"ĠinanÄ±yorum":9786,"Ġkurab":9787,"Ġtemsilcisi":9788,"ĠkarmaÅŁÄ±k":9789,"ĠBiraz":9790,"Ġhizmetlerini":9791,"ĠHÃ¼kÃ¼met":9792,"ĠkullanÄ±r":9793,"brek":9794,"ĠTest":9795,"Ġbirinde":9796,"Ġverip":9797,"Ġoturma":9798,"ĠTanÄ±m":9799,"Ġonlarca":9800,"ĠDost":9801,"luÄŁunda":9802,"akende":9803,"Ã½m":9804,"ĠatÄ±lan":9805,"ĠÅŁeref":9806,"ĠBÃ¶yl":9807,"Ġyerinden":9808,"ĠdÃ¶ner":9809,"Ġemir":9810,"ĠgÃ¶rÃ¼lÃ¼yor":9811,"ĠsÃ¼nnet":9812,"ĠSigorta":9813,"ĠkatÄ±lÄ±mÄ±yla":9814,"ĠMo":9815,"Ġtamamla":9816,"Ġistemez":9817,"ĠTrabzonspor":9818,"unÃ§":9819,"ĠKÄ±ÅŁ":9820,"Ġadaylar":9821,"ayarak":9822,"ĠSP":9823,"Ġsahte":9824,"ĠvazgeÃ§ilmez":9825,"Ġ44":9826,"ĠAksi":9827,"row":9828,"ĠAteÅŁ":9829,"Sit":9830,"Ġdenen":9831,"lib":9832,"Ġkoz":9833,"ĠyÃ¼rÃ¼m":9834,"ĠyaÅŁa":9835,"ĠcevabÄ±":9836,"ĠAnal":9837,"ĠKK":9838,"so":9839,"Ġsuya":9840,"ĠprogramÄ±na":9841,"Samsun":9842,"ĠiÅŁtir":9843,"Ġpor":9844,"Ġmilyonlarca":9845,"iliÄŁin":9846,"ĠgÄ±d":9847,"Ġyapay":9848,"ĠyapacaÄŁÄ±z":9849,"Ä±plak":9850,"rid":9851,"Ġvekil":9852,"ĠEkonomik":9853,"dÄ±ran":9854,"ĠgeÃ§tik":9855,"Ġhttps":9856,"ĠÅŁof":9857,"Ġkoku":9858,"ĠyapÄ±yorum":9859,"ĠÃ¶ÄŁrenim":9860,"gul":9861,"sir":9862,"Ġmeme":9863,"ĠseÃ§in":9864,"ĠGÃ¼nÃ¼mÃ¼zde":9865,"Ġcezaev":9866,"ĠSÄ±navÄ±":9867,"Ġpilot":9868,"ĠRehberi":9869,"ĠCihaz":9870,"ĠfirmanÄ±n":9871,"biz":9872,"ĠAyr":9873,"Af":9874,"Ġsomut":9875,"Has":9876,"umun":9877,"ĠIÅŀ":9878,"Ġetkileyen":9879,"Ġviz":9880,"ĠkardeÅŁi":9881,"ĠyÃ¼kleme":9882,"ĠyarattÄ±ÄŁÄ±":9883,"Ġtemsilcileri":9884,"54":9885,"ĠmÃ¼racaat":9886,"ĠAnne":9887,"Ã½nÃ½":9888,"Ġvicdan":9889,"Ġbildirim":9890,"ĠtoplantÄ±da":9891,"YD":9892,"ĠmeÅŁhur":9893,"ilerinde":9894,"ĠToprak":9895,"Ġex":9896,"Ġantrenman":9897,"ĠyazÄ±yor":9898,"Ġhaberler":9899,"ĠmÃ¼zak":9900,"ĠZiraat":9901,"ĠaÄŁÄ±rlÄ±klÄ±":9902,"IP":9903,"gim":9904,"ĠboÄŁaz":9905,"ĠsorunlarÄ±n":9906,"ĠKanal":9907,"Ġhic":9908,"ĠÃ¶zelliklerini":9909,"ĠkullanÄ±":9910,"Ġhang":9911,"Diy":9912,"alarÄ±mÄ±z":9913,"Ġminik":9914,"ÄŁa":9915,"ÄŁrul":9916,"Ġilgilendir":9917,"Ġhocam":9918,"ĠkitabÄ±n":9919,"tÄ±ÄŁÄ±nÄ±z":9920,"ĠÄ°daresi":9921,"ĠsÃ¼z":9922,"ix":9923,"ĠBulgar":9924,"ĠaracÄ±lÄ±ÄŁÄ±":9925,"Ġdeneyimli":9926,"Ġziyade":9927,"ĠPlatform":9928,"Ġsizde":9929,"52":9930,"uel":9931,"Ġailenin":9932,"ĠyÃ¼ks":9933,"uper":9934,"Ġsis":9935,"ĠoranlarÄ±":9936,"old":9937,"ĠgeliÅŁimi":9938,"ĠSalih":9939,"Ġgerektiren":9940,"ĠtÃ¼rkÃ§e":9941,"work":9942,"ĠneÅŁ":9943,"Ġ41":9944,"ĠBaÅŁsav":9945,"ĠStratej":9946,"onomik":9947,"ĠBa":9948,"ĠÃ¼lkeleri":9949,"Ġkonusundaki":9950,"ĠyazdÄ±":9951,"ĠsÃ¶zlerine":9952,"Ġedilmelidir":9953,"ĠÃ§aÄŁdaÅŁ":9954,"Ġediyorlar":9955,"ĠgidiÅŁ":9956,"ĠYaÅŁar":9957,"Ġ57":9958,"Ġdurumuna":9959,"ĠKategor":9960,"cam":9961,"Ġdepolama":9962,"ĠaldÄ±klarÄ±":9963,"mayla":9964,"culuk":9965,"ĠÃ¶nlemek":9966,"ĠBirlik":9967,"ĠVatandaÅŁ":9968,"Ġna":9969,"ĠhÃ¼kÃ¼mleri":9970,"del":9971,"lÄ±ÄŁÄ±ndan":9972,"ĠYoksa":9973,"ĠVÃ¼c":9974,"Ġgetirerek":9975,"rasi":9976,"Ġkapital":9977,"madÄ±ÄŁÄ±nÄ±":9978,"ĠKel":9979,"ĠdÃ¶ndÃ¼r":9980,"Ġkrizi":9981,"ĠsÃ¼rdÃ¼rÃ¼lebilir":9982,"Ġokuyan":9983,"Sor":9984,"ĠEg":9985,"ĠÃľl":9986,"atlar":9987,"ĠCumhurbaÅŁkan":9988,"Ġgayrimenkul":9989,"ebir":9990,"ĠsigortalÄ±":9991,"ĠdÃ¼rÃ¼st":9992,"Ġdolara":9993,"larÄ±mÄ±zdan":9994,"Ġbardak":9995,"ĠhastalÄ±klarÄ±":9996,"Ġhakem":9997,"ĠuzmanÄ±":9998,"Ġyaratan":9999,"mediÄŁini":10000,"alanÄ±":10001,"eda":10002,"Ġilham":10003,"ĠdoÄŁdu":10004,"Ġharic":10005,"ĠyapÄ±ldÄ±ÄŁÄ±nÄ±":10006,"Ġmaddeleri":10007,"Bizim":10008,"kÄ±ÅŁ":10009,"Ġutan":10010,"ĠgeliÅŁtirilen":10011,"ĠhÄ±zlandÄ±r":10012,"!\"":10013,"ĠSÄ±k":10014,"ĠZar":10015,"ĠaÃ§Ä±l":10016,"ĠprogramÄ±nda":10017,"ĠbaÅŁarÄ±lar":10018,"bit":10019,"Ġhayli":10020,"ĠDiv":10021,"low":10022,"ĠGÃ¼venliÄŁi":10023,"ĠBaba":10024,"ĠUr":10025,"Ġbizde":10026,"Ä±ÄŁÄ±":10027,"Ġkarn":10028,"ĠKargo":10029,"Mes":10030,"sinden":10031,"ĠreÃ§":10032,"ĠaÃ§mak":10033,"Ġleh":10034,"sus":10035,"ĠKardeÅŁ":10036,"ĠÃĩat":10037,"ĠJapon":10038,"Ġentegre":10039,"Ġelini":10040,"ĠgeÃ§iren":10041,"ĠBelgesi":10042,"ĠyapÄ±ÅŁtÄ±r":10043,"ĠMicrosoft":10044,"Ä±rnak":10045,"Ġgergin":10046,"Ġtarihinin":10047,"ĠiliÅŁkisi":10048,"ĠMetal":10049,"Ġuzanan":10050,"TT":10051,"Ã§elik":10052,"icisi":10053,"ĠKaraman":10054,"Ġdevre":10055,"Ä°NCÄ°":10056,"Ġuzaktan":10057,"Ġonlarla":10058,"Ġsorgulama":10059,"KÄ±z":10060,"ĠfÄ±":10061,"Ġserisi":10062,"ĠyÃ¶netici":10063,"Ġdeli":10064,"ĠGez":10065,"Ġkesi":10066,"ĠAlbay":10067,"istler":10068,"ĠKazakistan":10069,"ĠiÅŁveren":10070,"ĠparÃ§alar":10071,"ĠgerÃ§eÄŁi":10072,"ĠoynadÄ±ÄŁÄ±":10073,"ĠKomutanlÄ±ÄŁÄ±":10074,"Ġhi":10075,"ĠÅŁÃ¶":10076,"Ġmerkezli":10077,"ĠOK":10078,"ĠdÃ¶nÃ¼m":10079,"ĠHolding":10080,"ĠDekor":10081,"oks":10082,"Ġrandevu":10083,"Ã¢yet":10084,"ĠattÄ±ÄŁÄ±":10085,"ĠgÃ¶rÃ¼ntÃ¼len":10086,"ĠAziz":10087,"ĠBon":10088,"ĠolmanÄ±z":10089,"ĠdÃ¼nyadaki":10090,"ĠÅŁansÄ±":10091,"ĠtÄ±bbi":10092,"ecilik":10093,"Ã¼ntÃ¼":10094,"ĠmaÄŁlup":10095,"Ġkalitesini":10096,"mosyon":10097,"ĠÃľret":10098,"ĠhafÄ±z":10099,"Ġrejim":10100,"ĠvirÃ¼s":10101,"Tur":10102,"ĠdetaylarÄ±":10103,"ĠGÃ¶nder":10104,"Ġkula":10105,"lenerek":10106,"Ġtoplanan":10107,"ĠTatil":10108,"Ġveril":10109,"ĠyarÄ±sÄ±":10110,"madÄ±m":10111,"eveyn":10112,"ĠAdnan":10113,"lanmaz":10114,"Ġyoldan":10115,"Ġiktid":10116,"ĠNumar":10117,"ellef":10118,"Ġatmosfer":10119,"ĠOnur":10120,"Ġsinyal":10121,"ORU":10122,"cal":10123,"ĠÄ°laÃ§":10124,"ĠCilt":10125,"ĠsÃ¼rdÃ¼":10126,"ĠdÃ¶nÃ¼k":10127,"ĠHatay":10128,"erin":10129,"omuz":10130,"ĠinsanlÄ±k":10131,"Ġstil":10132,"ĠyaptÄ±ÄŁÄ±m":10133,"ĠsayÄ±sÄ±nÄ±":10134,"ĠEdirne":10135,"amda":10136,"Ġadli":10137,"Ġedilecektir":10138,"ijyen":10139,"mran":10140,"500":10141,"Ġnci":10142,"alaxy":10143,"ĠÃ¶ÄŁle":10144,"Ġkeyfini":10145,"ĠSim":10146,"ĠbaÅŁlay":10147,"Ġdinley":10148,"ĠsektÃ¶rÃ¼n":10149,"56":10150,"Ã¢nÄ±":10151,"ĠdÃ¼nyasÄ±nda":10152,"Ġimar":10153,"Ġkimin":10154,"ĠsaÄŁladÄ±ÄŁÄ±":10155,"hid":10156,"Ġ@":10157,"ĠAlÄ±ÅŁ":10158,"ĠihtiyacÄ±nÄ±z":10159,"obi":10160,"Ġadresinden":10161,"aliman":10162,"Ġmimari":10163,"Ġmarket":10164,"Ġpatron":10165,"ĠtaÅŁÄ±macÄ±lÄ±k":10166,"ĠVad":10167,"ĠbasÄ±nÃ§":10168,"Ġboru":10169,"ont":10170,"ĠSÄ±nÄ±r":10171,"ĠâĨĴ":10172,"gelen":10173,"ĠmeÅŁru":10174,"ĠHazret":10175,"Ġfikr":10176,"Ġtarafta":10177,"ĠÅŁehirde":10178,"ĠsÃ¼rdÃ¼ren":10179,"YukarÄ±":10180,"ĠKitab":10181,"lediÄŁini":10182,"ĠKadir":10183,"lini":10184,"ĠiÃ§erisindeki":10185,"ĠsÄ±nÄ±fÄ±":10186,"ĠðŁĻĤ":10187,"ĠdÃ¼ÅŁÃ¼nen":10188,"Ġanlata":10189,"lediÄŁiniz":10190,"ĠÅŁiddetli":10191,"lÃ¼ÄŁÃ¼nde":10192,"ĠSamsung":10193,"Ġkasab":10194,"Ã§uklu":10195,"ĠartÄ±ÅŁÄ±":10196,"ĠgeliÅŁmeleri":10197,"ĠÃ¶nder":10198,"osunu":10199,"ticaret":10200,"ĠgÃ¶rÃ¼ldÃ¼":10201,"ĠMilletler":10202,"ĠÃĩÃ¶zÃ¼m":10203,"ĠTÃ¼rkÃ§":10204,"ĠkitaplarÄ±":10205,"ĠTerc":10206,"ĠÅŁÃ¼pheli":10207,"Ġdet":10208,"ĠolayÄ±n":10209,"Ġbilgilendirme":10210,"ĠgereÄŁince":10211,"Ġetmekte":10212,"ĠbaÄŁlant":10213,"Hat":10214,"ĠaldÄ±ÄŁÄ±m":10215,"ĠistediÄŁim":10216,"ĠSc":10217,"ĠIP":10218,"Ġhoca":10219,"ĠÄ°ST":10220,"ĠbakÄ±ldÄ±ÄŁÄ±nda":10221,"Ġheykel":10222,"ĠTa":10223,"Ġkedi":10224,"ĠTv":10225,"Ġevli":10226,"astam":10227,"Ġmuayene":10228,"ĠyazÄ±n":10229,"Ġbelirlenir":10230,"oid":10231,"ĠdÃ¼zel":10232,"eceÄŁimiz":10233,"ĠÃ¶ÄŁrencinin":10234,"Ġmelek":10235,"vanÄ±":10236,"Å¸":10237,"ĠyaÅŁandÄ±":10238,"ĠÃ§alÄ±ÅŁÄ±rken":10239,"ĠTuran":10240,"Ä±ysa":10241,"ãģĤãģĤãģĤãģĤãģĤãģĤãģĤãģĤãģĤãģĤãģĤãģĤãģĤãģĤãģĤãģĤ":10242,"lerince":10243,"ĠUÃ§":10244,"-)":10245,"Ġmezunu":10246,"ongul":10247,"ĠÃ§eyr":10248,"ĠDirektÃ¶rÃ¼":10249,"ĠTÃ¼rkler":10250,"leÅŁmiÅŁ":10251,"Ġsitede":10252,"enci":10253,"Ã¼mde":10254,"Ġyerin":10255,"ĠDub":10256,"amadÄ±":10257,"faiye":10258,"ĠKÄ±zÄ±":10259,"Ġsalonu":10260,"saÄŁ":10261,"ĠyapÄ±ÅŁ":10262,"acaksÄ±nÄ±z":10263,"ĠbaÅŁarÄ±yla":10264,"Ġbirbirlerine":10265,"ĠtÄ±klayarak":10266,"Ġfrag":10267,"Ġgelmez":10268,"ĠkullanÄ±ma":10269,"ĠÃ¼yelerinin":10270,"ĠdÃ¶rdÃ¼ncÃ¼":10271,"ĠgÃ¼mÃ¼ÅŁ":10272,"onguldak":10273,"ĠdiÄŁeri":10274,"ĠHÄ±zlÄ±":10275,"ĠÃ¶rneÄŁin":10276,"Ġmuhtar":10277,"Ġmerdiven":10278,"ĠÄ°liÅŁkiler":10279,"Ġbilmek":10280,"ĠÃ§im":10281,"lack":10282,"Ġbirimi":10283,"peryal":10284,"AynÄ±":10285,"ĠGeliÅŁtirme":10286,"Ġyazmak":10287,"ĠGerÃ§ekten":10288,"Ġgazeteci":10289,"Ġokuyucu":10290,"ĠyazÄ±sÄ±":10291,"Ab":10292,"limat":10293,"Ġperiy":10294,"ĠBaÅŁkanÄ±mÄ±z":10295,"ĠÄ°Ã§iÅŁleri":10296,"ĠsÄ±klÄ±kla":10297,"lerimizden":10298,"Ġkitaplar":10299,"ĠyÃ¼kselen":10300,"ĠÅŁirketler":10301,"Ġeyalet":10302,"Ġsevilen":10303,"Ġmuhalefet":10304,"emektedir":10305,"ĠmesleÄŁ":10306,"ĠÃ¶ykÃ¼":10307,"ĠmÃ¼sabak":10308,"Ġoyuna":10309,"ĠyaptÄ±rmak":10310,"ĠsorumluluÄŁ":10311,"ĠKullanÄ±m":10312,"Ġformu":10313,"ĠkullanÄ±ldÄ±ÄŁÄ±":10314,"ÄŁÄ±n":10315,"ĠkullanÄ±lacak":10316,"Ġdeg":10317,"Ġerkeklerin":10318,"ĠkarÄ±ÅŁÄ±k":10319,"Ġtopar":10320,"LA":10321,"Ġrica":10322,"2009":10323,"ĠBÃ¼y":10324,"adiÅŁ":10325,"Ġzorla":10326,"lant":10327,"Ġ56":10328,"ĠyanlÄ±":10329,"Ġkendinize":10330,"ĠbahÃ§e":10331,"EFA":10332,"ĠmÃ¼lt":10333,"ĠKiÅŁisel":10334,"Ġeks":10335,"YÃ¼ksek":10336,"ĠmÃ¼j":10337,"ĠToplantÄ±sÄ±":10338,"Ġkuvvetli":10339,"ĠTrafik":10340,"ĠuygulanmasÄ±":10341,"Ġgarip":10342,"Ġyang":10343,"ĠkuruluÅŁu":10344,"ĠKanununun":10345,"ĠGider":10346,"tisiz":10347,"ff":10348,"Ġsorgu":10349,"Ġtarihe":10350,"Hz":10351,"Ġdeneme":10352,"Ġsayfada":10353,"ĠDN":10354,"ĠayÄ±nÄ±n":10355,"Ġispat":10356,"Ã¼stri":10357,"Ġhaberine":10358,"Ġpik":10359,"ĠulaÅŁan":10360,"Ġsordu":10361,"Ġcinsiyet":10362,"ĠVen":10363,"Ã¼mÃ¼zÃ¼":10364,"Ġtespiti":10365,"ĠMarka":10366,"ĠdÃ¼nyasÄ±nÄ±n":10367,"maraÅŁ":10368,"ith":10369,"ĠBilgiler":10370,"ĠHedef":10371,"ĠÅŁirketlerin":10372,"coin":10373,"OC":10374,"izmi":10375,"ĠduÅŁ":10376,"Ġima":10377,"Ġfatura":10378,"ĠaÅŁamada":10379,"ĠÃ¶nemini":10380,"ersek":10381,"Ġtrav":10382,"Ġfikri":10383,"ĠCo":10384,"Ġhormon":10385,"Ġlastik":10386,"ĠtÃ¼zel":10387,"ĠdoÄŁrusu":10388,"leÅŁen":10389,"ĠsayfasÄ±nda":10390,"Ġpartner":10391,"ĠgerÃ§ekleÅŁtirdiÄŁi":10392,"mayacaktÄ±r":10393,"Ġreferandum":10394,"ĠSÃ¼t":10395,"ĠYerel":10396,"grama":10397,"ĠPet":10398,"urdu":10399,"ĠÃĩel":10400,"ĠKatÄ±lÄ±m":10401,"ĠgÃ¶Ã§men":10402,"ĠfÄ±rÄ±n":10403,"ĠsÄ±navÄ±":10404,"Ġlimon":10405,"dirme":10406,"ĠsÃ¶zlÃ¼":10407,"Ġetmeden":10408,"ĠgÃ¼lÃ¼m":10409,"ĠHukuku":10410,"ÄŁday":10411,"Ġgereksiz":10412,"Ġsitemizde":10413,"ĠKurumsal":10414,"ĠaÃ§ar":10415,"ĠarÄ±za":10416,"ĠÅŀeker":10417,"Ġ52":10418,"ĠedildiÄŁini":10419,"ĠsaÄŁlayacaktÄ±r":10420,"Rusya":10421,"Ġkurdu":10422,"ĠMor":10423,"Ġetek":10424,"ĠSuÃ§":10425,"ĠisteÄŁi":10426,"Ġmotoru":10427,"ĠSÄ±cak":10428,"Ġiktis":10429,"Ġnelerdir":10430,"mesin":10431,"Ġcar":10432,"ĠBelg":10433,"ĠbÃ¶lgesel":10434,"ĠtecrÃ¼be":10435,"ĠGB":10436,"BÃ¼tÃ¼n":10437,"82":10438,"ĠBakanlar":10439,"ĠbÃ¶lgedeki":10440,"Ġ2001":10441,"Ġpasaport":10442,"ĠStandart":10443,"Ġkanaat":10444,"Ġbitti":10445,"ĠetkinliÄŁi":10446,"ĠmekÃ¢n":10447,"pas":10448,"ĠperformansÄ±":10449,"ĠtaÅŁÄ±nmaz":10450,"ĠSeb":10451,"ĠkurulmasÄ±":10452,"onomi":10453,"ĠÃĸdÃ¼lÃ¼":10454,"ĠSekreteri":10455,"DK":10456,"malarda":10457,"ĠtadÄ±nÄ±":10458,"Ġanlatmak":10459,"Ġtavan":10460,"ĠFÄ±rat":10461,"Ã¼sÃ¼nde":10462,"Ġaleyh":10463,"ANLI":10464,"ĠarttÄ±":10465,"ĠDa":10466,"Ġizmir":10467,"emde":10468,"barat":10469,"ĠrÃ¶portaj":10470,"Ġverebilir":10471,"ĠatÃ¶ly":10472,"Ġnereden":10473,"ĠanlamÄ±yla":10474,"ĠÃ§oÄŁunlukla":10475,"ĠbÃ¶lgelerde":10476,"ĠdÃ¼kkan":10477,"ĠMÃ¼n":10478,"ĠGeri":10479,"Ġhissettir":10480,"Ġinanc":10481,"fÃ¶y":10482,"Ġliraya":10483,"ĠOlarak":10484,"Ġolabiliyor":10485,"ĠIII":10486,"The":10487,"ĠsÃ¶zcÃ¼":10488,"ĠSendik":10489,"Ġboyutu":10490,"ĠcÃ¼mle":10491,"ĠkurallarÄ±":10492,"Ġdersleri":10493,"Ġedilemez":10494,"ĠMis":10495,"Ġakrab":10496,"inler":10497,"ĠÃ§Ä±rp":10498,"SM":10499,"ĠverdiÄŁini":10500,"Ġhastane":10501,"Ġeksiksiz":10502,"Ġpap":10503,"Ġgetirilmesi":10504,"TI":10505,"ĠTekirdaÄŁ":10506,"Ġhareketli":10507,"ĠkÃ¼ltÃ¼rÃ¼":10508,"ĠTelekom":10509,"ĠKodu":10510,"Ġbaraj":10511,"aracak":10512,"Ġoturan":10513,"ĠaÄŁrÄ±sÄ±":10514,"baÄŁ":10515,"Ġmetro":10516,"ĠbaÅŁvurusu":10517,"ita":10518,"Ġhikaye":10519,"ĠgeÃ§ecek":10520,"ĠKurs":10521,"melerine":10522,"Ġetkinlikleri":10523,"ĠkÄ±lÄ±":10524,"Ġmesl":10525,"Ġag":10526,"ĠMesaj":10527,"Ġetmeleri":10528,"Ġtesti":10529,"ĠgitmiÅŁ":10530,"Ġresmen":10531,"ĠGece":10532,"ĠyÃ¼kseldi":10533,"iyorsanÄ±z":10534,"ĠdevamÄ±":10535,"ĠBalkan":10536,"ĠverdiÄŁimiz":10537,"oban":10538,"Ġboyunda":10539,"beyaz":10540,"tiÅŁ":10541,"duklarÄ±nÄ±":10542,"feri":10543,"ĠPla":10544,"Ġsarf":10545,"Ä°B":10546,"ĠaÃ§tÄ±ÄŁÄ±":10547,"BaÅŁbakan":10548,"astamonu":10549,"ĠÃľnlÃ¼":10550,"Ġhedefi":10551,"EÅŀ":10552,"ĠÃ§iÄŁ":10553,"ĠbÃ¶lÃ¼mÃ¼nÃ¼":10554,"Ġzafer":10555,"ĠyÄ±llarÄ±n":10556,"ĠbaÄŁlÄ±dÄ±r":10557,"parta":10558,"Ġvarsay":10559,"ATI":10560,"ĠHesap":10561,"LEM":10562,"ĠÃ¶len":10563,"ilmesinin":10564,"Ġsebze":10565,"Ġteminat":10566,"ĠvarlÄ±ÄŁÄ±nÄ±":10567,"ĠMilliyet":10568,"ĠhÃ¢lÃ¢":10569,"Ġyemin":10570,"ĠÅŀÃ¼ph":10571,"ĠkÄ±zlar":10572,"ĠkadÄ±na":10573,"Ġdonat":10574,"mil":10575,"ĠkullanÄ±yor":10576,"ahil":10577,"lash":10578,"kay":10579,"Ġsec":10580,"ason":10581,"Ġzorlan":10582,"takÄ±m":10583,"elerimiz":10584,"ĠDersin":10585,"ĠTep":10586,"ĠiÃ§e":10587,"ĠÃ¶ncÃ¼":10588,"ĠQu":10589,"Say":10590,"Ġmat":10591,"ĠOnlarÄ±n":10592,"Ġgezeg":10593,"GerÃ§":10594,"abol":10595,"Ġbakmak":10596,"ĠaydÄ±nlat":10597,"Ġmidir":10598,"ĠkazÄ±":10599,"SayÄ±n":10600,"cunun":10601,"tikleri":10602,"Ġbeyler":10603,"Ġvesile":10604,"Ġbelirlenmesi":10605,"ĠyÃ¼zme":10606,"ĠilÃ§esine":10607,"ĠsÃ¶zlerini":10608,"medim":10609,"ĠÃ§amaÅŁÄ±r":10610,"Ġrestoran":10611,"Ġelbise":10612,"ikler":10613,"Ġmuc":10614,"Ġbulunmayan":10615,"ĠÃ§ekerek":10616,"Ġankara":10617,"Ġkendisinden":10618,"ĠgenÃ§lerin":10619,"ĠkÃ¶yÃ¼":10620,"Ġsade":10621,"Ġgirerek":10622,"YK":10623,"Ãĸncelikle":10624,"ebileceÄŁini":10625,"ĠBekir":10626,"ademi":10627,"ĠmÃ¼thiÅŁ":10628,"Ġgeldim":10629,"ĠArda":10630,"ĠFuar":10631,"amÄ±zÄ±n":10632,"TM":10633,"Ġoyunda":10634,"ĠÃ¼rÃ¼nlerini":10635,"ĠÅŁÃ¼phesiz":10636,"Adana":10637,"ĠkeÃ§":10638,"SaÄŁlÄ±k":10639,"ĠnÃ¼kleer":10640,"ĠboÅŁalt":10641,"lasÄ±":10642,"Ġsevdik":10643,"berg":10644,"luyor":10645,"Ġasans":10646,"ĠiÅŁken":10647,"ĠartmasÄ±":10648,"larÄ±nÄ±zda":10649,"ĠOL":10650,"ĠcÃ¼z":10651,"ĠDanÄ±ÅŁ":10652,"ĠNATO":10653,"Ġelektrikli":10654,"orld":10655,"ĠhazÄ±rladÄ±ÄŁÄ±":10656,"ĠyapÄ±ya":10657,"hisar":10658,"51":10659,"Ġkurucu":10660,"Ġdurak":10661,"ilmiÅŁti":10662,"over":10663,"ĠÅŁartlar":10664,"ĠCom":10665,"Ġtutk":10666,"ĠyaÄŁlÄ±":10667,"Ġkopy":10668,"ĠDeÄŁerlendirme":10669,"ĠElem":10670,"ĠdolandÄ±r":10671,"ĠrazÄ±":10672,"ĠtasarlanmÄ±ÅŁ":10673,"LERÄ°N":10674,"Ġifadesi":10675,"Ġoyuncusu":10676,"losuz":10677,"ĠMesleki":10678,"ĠRaporu":10679,"ĠStar":10680,"Ġyapabilecek":10681,"Ġkoyup":10682,"ĠDavut":10683,"ĠEfendi":10684,"ĠyazÄ±lan":10685,"kender":10686,"ĠcanÄ±m":10687,"ĠGeÃ§miÅŁ":10688,"Herk":10689,"YÃ¶n":10690,"ĠMardin":10691,"Ġdk":10692,"eten":10693,"dy":10694,"ĠbaÅŁa":10695,"ĠÅŀiir":10696,"ĠdÃ¶nen":10697,"ĠyapÄ±landÄ±r":10698,"Ġemlak":10699,"melerde":10700,"ames":10701,"ĠYrd":10702,"SYM":10703,"ĠkiÅŁiden":10704,"Ã¼lÃ¼ÄŁ":10705,"Ġfiltr":10706,"ĠCengiz":10707,"Ġfilmleri":10708,"GeÃ§tiÄŁimiz":10709,"Ġmuhabbet":10710,"ID":10711,"uÅŁtuÄŁ":10712,"cilerin":10713,"eleme":10714,"ĠoruÃ§":10715,"GeÃ§en":10716,"Ġolurlar":10717,"lediÄŁimiz":10718,"Yer":10719,"ĠolsaydÄ±":10720,"epyeni":10721,"ĠDili":10722,"ĠgeÃ§tiÄŁi":10723,"piyat":10724,"amanÄ±n":10725,"ĠtÃ¼ketici":10726,"Ġtoplama":10727,"ĠaÃ§Ä±ÄŁa":10728,"ree":10729,"asal":10730,"ĠFaaliyet":10731,"Ġ<":10732,"ĠBoÅŁ":10733,"Ġ54":10734,"Ġtitr":10735,"ĠYAP":10736,"Ġtavuk":10737,"Ġvitamini":10738,"Ġolgu":10739,"ĠÄ°ncel":10740,"ĠgeÃ§irdi":10741,"ĠetmiÅŁti":10742,"ĠYÄ±k":10743,"OÄŀLU":10744,"Ġgerilim":10745,"ĠaÅŁÄ±":10746,"ĠyayÄ±nlandÄ±":10747,"EF":10748,"Ġkaleme":10749,"ĠgÃ¶rÃ¼nÃ¼r":10750,"ĠpolitikasÄ±":10751,"Cumhuriyet":10752,"Ġ43":10753,"Ã¼yorum":10754,"Ġpaz":10755,"ĠResim":10756,"ĠdÃ¼nyasÄ±":10757,"incan":10758,"ĠsÄ±nava":10759,"ĠoÄŁlum":10760,"ĠÃ¶ldÃ¼":10761,"ĠGelir":10762,"ĠZeyn":10763,"ĠihtiyaÃ§larÄ±":10764,"ĠCey":10765,"ĠhakkÄ±na":10766,"karahisar":10767,"ĠhayatÄ±nÄ±n":10768,"ĠgeÃ§irdiÄŁi":10769,"ĠÃ§alÄ±ÅŁmalarÄ±nÄ±n":10770,"kif":10771,"nci":10772,"ĠtecavÃ¼z":10773,"âĢĿ.":10774,"ĠBakÄ±r":10775,"Ġtahsis":10776,"Ġyetkilileri":10777,"Ġharek":10778,"buki":10779,"ĠÃ§evrim":10780,"Ġlimit":10781,"ĠbaÅŁlayarak":10782,"Ġgezi":10783,"ĠbazÄ±nda":10784,"ĠEsen":10785,"ĠKesin":10786,"ÅŁun":10787,"ĠElazÄ±ÄŁ":10788,"ĠAnabilim":10789,"ĠProt":10790,"faf":10791,"Ġgev":10792,"Ġdog":10793,"ĠBizans":10794,"Ġoksi":10795,"Ġtakib":10796,"ĠboÅŁan":10797,"Okul":10798,"val":10799,"ĠiÅŁlemlerini":10800,"ĠartÄ±rmak":10801,"Ġduyulan":10802,"ĠBaÄŁÄ±m":10803,"ĠBahÃ§e":10804,"Ġkurucusu":10805,"Ġisyan":10806,"dunuz":10807,"ĠbÄ±rakÄ±p":10808,"ĠModern":10809,"Sar":10810,"antolon":10811,"2008":10812,"Ġyolun":10813,"ĠHikay":10814,"Ġsaatlik":10815,"Ġgun":10816,"Ġdalga":10817,"ĠkarÄ±n":10818,"ĠsavaÅŁÄ±":10819,"ington":10820,"BaÅŁkan":10821,"ĠKoz":10822,"Ġrot":10823,"Ġbulgu":10824,"ĠyaÅŁamÄ±ÅŁ":10825,"ĠdaÄŁÄ±lÄ±m":10826,"aciÄŁer":10827,"olata":10828,"ĠMÃ¼hendislik":10829,"ĠkurduÄŁu":10830,"ĠyÃ¶netmelik":10831,"ĠÃľskÃ¼dar":10832,"Ġlev":10833,"ĠyÃ¼kÃ¼mlÃ¼lÃ¼k":10834,"ĠgiriÅŁi":10835,"ĠaldÄ±ÄŁÄ±nÄ±z":10836,"ĠGr":10837,"ĠkurulmuÅŁtur":10838,"DÃ¼nyanÄ±n":10839,"ĠIÅŀÄ°D":10840,"amlar":10841,"ĠFizik":10842,"ĠYapÄ±mÄ±":10843,"Bar":10844,"ĠoluÅŁuyor":10845,"mÃ¼":10846,"urun":10847,"ĠvarmÄ±ÅŁ":10848,"Ġotopark":10849,"ĠÃĸnemli":10850,"ĠkatÄ±lmak":10851,"mÃ¼ÅŁtÃ¼":10852,"ĠHil":10853,"ĠUY":10854,"ĠdirektÃ¶r":10855,"ĠsÃ¶zleÅŁmesi":10856,"ĠpiÅŁman":10857,"Ġliman":10858,"tÄ±ÄŁÄ±nda":10859,"ĠÃ§if":10860,"ĠgÃ¶rÃ¼ntÃ¼l":10861,"Ġkapsayan":10862,"ĠNitekim":10863,"yaÄŁ":10864,"ĠDu":10865,"Ġtarihsel":10866,"lerimizde":10867,"ational":10868,"ayÄ±cÄ±":10869,"âĢº":10870,"Ġtoptan":10871,"Ġhaberdar":10872,"dilik":10873,"Ġpis":10874,"ĠhaklarÄ±nÄ±":10875,"ĠyÃ¼klÃ¼":10876,"erez":10877,"Ġihtimali":10878,"ralya":10879,"ĠmÄ±dÄ±r":10880,"ĠyapacaÄŁÄ±nÄ±z":10881,"Ġdostu":10882,"ĠkÃ¼p":10883,"ĠÃ§Ã¼r":10884,"elikop":10885,"98":10886,"erleri":10887,"ĠkapÄ±sÄ±":10888,"Ġetmey":10889,"acaÄŁÄ±na":10890,"ĠgenÃ§lik":10891,"Ġhepimiz":10892,"Ġsaptan":10893,"ĠimkansÄ±z":10894,"Tak":10895,"Ġilim":10896,"Ġbelirtmek":10897,"ĠBiliÅŁim":10898,"anyol":10899,"ĠSayÄ±sÄ±":10900,"Ġortala":10901,"Ġreform":10902,"tiy":10903,"ĠeÄŁlenc":10904,"ĠDEÄŀ":10905,"Ġva":10906,"ĠJe":10907,"amÄ±za":10908,"Ġburun":10909,"ĠarÄ±yorum":10910,"ileriyle":10911,"Ġyahut":10912,"Ġ64":10913,"ĠFiyatlarÄ±":10914,"ĠMahal":10915,"ArkadaÅŁ":10916,"ĠKiÅŁi":10917,"ĠkalmasÄ±":10918,"ĠiÃ§ten":10919,"Ġnitelikli":10920,"64":10921,"ĠgeÃ§erlidir":10922,"ĠÃ¶ncelikli":10923,"ĠTeknolojileri":10924,"Ġbilmeyen":10925,"eneral":10926,"ĠYÃ¶netmeliÄŁi":10927,"ĠdÃ¼":10928,"ĠGiz":10929,"Ġmemnuniyeti":10930,"ĠBize":10931,"Ġadi":10932,"eÄŁim":10933,"ĠyazÄ±lmÄ±ÅŁ":10934,"ĠÃ§alÄ±ÅŁmalara":10935,"ĠkatÄ±lma":10936,"halde":10937,"ĠaÃ§Ä±lmasÄ±":10938,"ĠÃ§ekilen":10939,"Ġetkisiyle":10940,"Ġistedikleri":10941,"Ġvergisi":10942,"uvarÄ±":10943,"larÄ±dÄ±r":10944,"ĠkoltuÄŁ":10945,"Ġkanseri":10946,"ĠRize":10947,"ANK":10948,"ĠAÃ§ma":10949,"HAL":10950,"ĠnÃ¶bet":10951,"Ġdegil":10952,"ĠolabileceÄŁini":10953,"Ġnazar":10954,"Ġettiklerini":10955,"keme":10956,"ranÄ±":10957,"ĠfotoÄŁraflarÄ±":10958,"Ġekstra":10959,"aklar":10960,"ĠaÃ§Ä±klamaya":10961,"ĠbaÅŁlatÄ±lan":10962,"Ġfiz":10963,"ĠDevamÄ±":10964,"ĠyaÅŁar":10965,"Ġolursak":10966,"ĠeÄŁitime":10967,"Ġokulu":10968,"ĠtÄ±pkÄ±":10969,"ĠdeÄŁerler":10970,"isp":10971,"Fir":10972,"Ġmevki":10973,"Ãĸte":10974,"ĠbaÅŁkanlÄ±k":10975,"Ġmiras":10976,"ĠdeÄŁerini":10977,"Ã¼nc":10978,"ĠalÄ±ndÄ±ÄŁÄ±":10979,"ĠbÄ±raktÄ±":10980,"ĠKÃ¼rd":10981,"ĠRadyo":10982,"vil":10983,"ĠfazlasÄ±yla":10984,"fir":10985,"iyo":10986,"Ġneyse":10987,"Ġseviyesinde":10988,"Ġikiye":10989,"ĠKaymakamÄ±":10990,"irkin":10991,"eksi":10992,"ĠiÅŁley":10993,"eceÄŁine":10994,"ĠgÃ¶nderildi":10995,"ĠTAR":10996,"Ġ68":10997,"ĠgÃ¼ndÃ¼r":10998,"ĠsÄ±kÃ§a":10999,"Ã¼nÃ¼zÃ¼":11000,"Ana":11001,"Ã§Ã¼":11002,"Ġposta":11003,"ĠartÄ±yor":11004,"Ġsponsor":11005,"ĠCemal":11006,"ĠyÃ¶nlÃ¼":11007,"ĠÃ§Ä±karÄ±lan":11008,"ĠSoru":11009,"ĠsÄ±ÄŁÄ±n":11010,"ĠdediÄŁimiz":11011,"ĠbaÅŁlamak":11012,"Ġekleyin":11013,"ĠSekreter":11014,"elin":11015,"ĠSiyah":11016,"utu":11017,"ĠsÄ±ral":11018,"à¤":11019,"amil":11020,"ĠkÄ±smÄ±na":11021,"Ġkendimizi":11022,"Ġklas":11023,"ĠtÃ¼p":11024,"Ġokulda":11025,"Ġgor":11026,"aÄŁÄ±ndan":11027,"Ġ53":11028,"ĠÃ§ub":11029,"fab":11030,"miyorum":11031,"Ġetkisini":11032,"ĠAdÄ±yaman":11033,"losu":11034,"Ġuygundur":11035,"ehr":11036,"bÃ¼r":11037,"ĠÃ¼ncÃ¼":11038,"tuÄŁrul":11039,"ĠÄ°nsanlar":11040,"Ġartarak":11041,"63":11042,"Ãľniversit":11043,"DER":11044,"lamanÄ±n":11045,"Mah":11046,"iriz":11047,"ĠHÃ¼k":11048,"ĠmenÃ¼":11049,"nce":11050,"ÙĨ":11051,"Ġaya":11052,"Ä°st":11053,"ĠalÄ±na":11054,"Ġintihar":11055,"ĠUsul":11056,"ciÄŁer":11057,"hak":11058,"ĠÃ§Ä±ÄŁ":11059,"Ä°kinci":11060,"ĠPolat":11061,"ĠaraÃ§larÄ±n":11062,"ĠayrÄ±c":11063,"Kullan":11064,"ĠSy":11065,"ĠKDV":11066,"ĠVekili":11067,"pro":11068,"ĠÃĸzellikleri":11069,"ĠÃĩam":11070,"amÄ±zÄ±":11071,"ĠbaÅŁrol":11072,"ĠtaÅŁÄ±t":11073,"Ġilerlem":11074,"raj":11075,"Ġseviyesi":11076,"Ġilgisi":11077,"St":11078,"ĠnoktalarÄ±":11079,"ĠhÃ¼kÃ¼meti":11080,"ĠTap":11081,"ĠgÃ¼b":11082,"ĠLog":11083,"ĠNef":11084,"Ã¶rler":11085,"Ġsantral":11086,"ĠSelÃ§uklu":11087,"ĠkullanÄ±n":11088,"Ġlif":11089,"ĠdeÄŁiÅŁtirme":11090,"ĠvakÄ±f":11091,"Ġ(%":11092,"ĠÃĸte":11093,"ĠGiriÅŁim":11094,"td":11095,"»¿":11096,"---":11097,"Pol":11098,"RA":11099,"ĠÃ¶yk":11100,"Ġverdikleri":11101,"Ġredded":11102,"Ã±":11103,"ĠYolu":11104,"Ġtaht":11105,"ĠyapÄ±lmasÄ±nÄ±":11106,"adiÅŁah":11107,"ĠSite":11108,"app":11109,"Ġboyutlu":11110,"ĠkÄ±zar":11111,"Ġedebilecek":11112,"Ġgelebilir":11113,"Ġplanlanan":11114,"ĠyÃ¶neticileri":11115,"ĠKahv":11116,"ĠYIL":11117,"ĠUkrayna":11118,"ĠÅŁuan":11119,"ĠuzaklaÅŁ":11120,"ĠÄ°nÅŁallah":11121,"ĠgÃ¶zÃ¼":11122,"ĠkÄ±lavuz":11123,"ĠgerÃ§ekleÅŁecek":11124,"ĠÅŁartÄ±":11125,"iteli":11126,"Ġolas":11127,"ĠbaÅŁlandÄ±":11128,"Ġmenfaat":11129,"lab":11130,"ĠanÄ±m":11131,"ĠPazarlama":11132,"ĠTev":11133,"ahattin":11134,"ĠÃ§alÄ±ÅŁanlarÄ±":11135,"ĠAta":11136,"ĠGit":11137,"ĠFel":11138,"ĠPlanÄ±":11139,"uÅŁtum":11140,"ens":11141,"ĠBi":11142,"ĠyenilikÃ§i":11143,"ĠsandÄ±k":11144,"abey":11145,"ĠMuÄŁla":11146,"memektedir":11147,"Ġ1999":11148,"ĠÃ§ektir":11149,"ĠyaÅŁamaya":11150,"Ġmotosiklet":11151,"Ġkonul":11152,"eteriner":11153,"viÃ§re":11154,"ĠKum":11155,"ĠÃ¼ste":11156,"saray":11157,"Ðº":11158,"ĠÃĩocuklar":11159,"ĠoluÅŁtu":11160,"ĠolacaksÄ±nÄ±z":11161,"ĠyaptÄ±klarÄ±nÄ±":11162,"ĠKlima":11163,"ĠdeÄŁiÅŁtirmek":11164,"ĠadamlarÄ±":11165,"ĠpÄ±r":11166,"Ġhassasiyet":11167,"Tem":11168,"ĠkurumlarÄ±":11169,"ĠÃ§atÄ±ÅŁma":11170,"Ġnadir":11171,"Ġsahibinin":11172,"Ġarazi":11173,"ĠtÄ±rman":11174,"ĠRef":11175,"iliÄŁinden":11176,"DEN":11177,"Ġtetik":11178,"Ġbelirlem":11179,"lÃ¢h":11180,"Ä±labilecek":11181,"Ġgebelik":11182,"YÄ°":11183,"Ġvas":11184,"Ġartar":11185,"ĠkÃ¶ylÃ¼":11186,"ĠTÃ¼ket":11187,"ĠyÃ¼kÃ¼mlÃ¼":11188,"ĠÅŀarkÄ±":11189,"etle":11190,"ERK":11191,"Ġgelecekte":11192,"ĠgÃ¶stergesi":11193,"ĠMag":11194,"ĠherÅŁey":11195,"ĠbuluÅŁtu":11196,"ĠdeÄŁilse":11197,"ĠAkÅŁam":11198,"Ġbelgesel":11199,"ĠparayÄ±":11200,"ĠyayÄ±nlan":11201,"ĠÃĩukur":11202,"ĠKKTC":11203,"ehri":11204,"Ġatmak":11205,"ĠdÃ¼zeni":11206,"Ġunvan":11207,"ĠTRT":11208,"Ġkonforlu":11209,"Ġrivayet":11210,"ĠbasÄ±":11211,"Ġaramak":11212,"ĠbaÄŁlamda":11213,"Ġailesinin":11214,"sede":11215,"Ġsatan":11216,"Ġekleyip":11217,"GÃ¶n":11218,"ĠÃĸÄŀR":11219,"Ġ000":11220,"labilir":11221,"Ä±rh":11222,"Ġproblemi":11223,"ĠÃĸN":11224,"menize":11225,"ĠtecrÃ¼beli":11226,"Ġdolap":11227,"ĠElbette":11228,"Ġmahkum":11229,"Gazi":11230,"ĠCor":11231,"ĠNormal":11232,"ĠsÃ¼recinin":11233,"ĠsaÄŁladÄ±":11234,"Ġoyuncular":11235,"ĠyapmÄ±ÅŁtÄ±r":11236,"Ġkucak":11237,"cim":11238,"ĠyapÄ±lmalÄ±dÄ±r":11239,"enizin":11240,"ĠUzak":11241,"atan":11242,"ĠkatÄ±lacak":11243,"ĠKurban":11244,"Yine":11245,"emedim":11246,"arya":11247,"ĠyaÅŁadÄ±":11248,"Ġbo":11249,"ĠÃ¼lkeyi":11250,"Ġemanet":11251,"ĠkÃ¶ÅŁe":11252,"Ġdiyebiliriz":11253,"ĠÃ¼retici":11254,"ĠolabileceÄŁi":11255,"ĠmÃ¼ÅŁterilerine":11256,"koz":11257,"Ġ67":11258,"Ġpatent":11259,"antaj":11260,"acasÄ±":11261,"Ġ800":11262,"ĠÅŁiirleri":11263,"ĠFeth":11264,"Ġdaim":11265,"ĠsevdiÄŁi":11266,"ĠTurkcell":11267,"ĠsÄ±rasÄ±yla":11268,"ĠhastanÄ±n":11269,"delik":11270,"oni":11271,"Ġmineral":11272,"ĠadÄ±mlar":11273,"Ġreddet":11274,"GÃ¶z":11275,"ĠvermiÅŁtir":11276,"LARIN":11277,"ULU":11278,"ĠCin":11279,"fez":11280,"Ġanlaya":11281,"Gir":11282,"SÃ¼r":11283,"Ġevlat":11284,"ĠÃľye":11285,"tenj":11286,"dÄ±zÄ±":11287,"Ġgelmek":11288,"Ġdayanan":11289,"ĠGÃ¼mrÃ¼k":11290,"Ġant":11291,"arda":11292,"Ã§ika":11293,"Ġveriliyor":11294,"ĠgÃ¶revleri":11295,"Ġ59":11296,"Ġhastanede":11297,"ĠArapÃ§a":11298,"ĠaÃ§Ä±p":11299,"ĠCol":11300,"ĠayrÄ±ldÄ±":11301,"evre":11302,"Ġceh":11303,"ĠbulunmamaktadÄ±r":11304,"ĠÃ§iÃ§":11305,"ĠsÃ¼rdÃ¼rÃ¼yor":11306,"ĠKAY":11307,"ruklu":11308,"ĠyÃ¶nÃ¼nden":11309,"Ġdurumunu":11310,"ĠemeÄŁi":11311,"Ġitiraf":11312,"graf":11313,"ĠYapan":11314,"Ġkesintisiz":11315,"ĠtanÄ±nan":11316,"ĠkararÄ±nÄ±":11317,"Ġetsin":11318,"ier":11319,"siyle":11320,"ĠNes":11321,"ĠgÃ¼ler":11322,"ĠMit":11323,"Ġstaj":11324,"Ġkurma":11325,"ĠÃ¼nit":11326,"Ã¢s":11327,"irse":11328,"Ġked":11329,"Ġfrek":11330,"enlerin":11331,"ĠbardaÄŁÄ±":11332,"Ġdiyorlar":11333,"ografi":11334,"zir":11335,"Ġyapmadan":11336,"ĠHad":11337,"ĠyÃ¼rÃ¼ttÃ¼":11338,"Ġsahada":11339,"Hayat":11340,"ĠDeÄŁiÅŁiklik":11341,"steri":11342,"ĠbaÄŁlantÄ±sÄ±":11343,"ĠilaÃ§lama":11344,"fan":11345,"ĠbaÅŁlÄ±":11346,"ĠUnut":11347,"ĠkaldÄ±m":11348,"ĠgruplarÄ±":11349,"liliÄŁini":11350,"ÄŁinde":11351,"ĠOrada":11352,"ĠAyÅŁe":11353,"ĠDikkat":11354,"ĠsorumluluÄŁu":11355,"ĠGÃľ":11356,"ĠAhÅŁap":11357,"ĠHerhangi":11358,"ĠAsker":11359,"ĠÃ¢yet":11360,"ĠMekan":11361,"Ġme":11362,"ĠsatÄ±lan":11363,"Ġyuvarlak":11364,"mÄ±ÅŁlar":11365,"ĠPo":11366,"usa":11367,"ĠUSB":11368,"ĠBrezil":11369,"Ġkusursuz":11370,"Ġsitesinden":11371,"Ġnolu":11372,"ĠYeter":11373,"Tel":11374,"yumu":11375,"ergah":11376,"Ġsiteler":11377,"navut":11378,"ĠkÃ¢r":11379,"Ġcal":11380,"ÃľÃ§":11381,"Ġerdi":11382,"Ġsaray":11383,"ĠGelin":11384,"Ġcerrahi":11385,"GÃ¼zel":11386,"ĠmÃ¼d":11387,"ĠSalon":11388,"mraniye":11389,"CO":11390,"ĠbaktÄ±ÄŁÄ±mÄ±zda":11391,"ĠsevdiÄŁim":11392,"ĠYalÃ§Ä±n":11393,"avv":11394,"ĠhaftasÄ±nda":11395,"KÄ±s":11396,"ĠtÃ¼rleri":11397,"Ġkira":11398,"ĠKÄ±rÄ±m":11399,"ĠsayÄ±lan":11400,"ĠAntik":11401,"ĠKÄ±rmÄ±zÄ±":11402,"Ġhel":11403,"emedi":11404,"Ġmerkezleri":11405,"Ġkimseler":11406,"ĠhÃ¢kim":11407,"ĠKomutanÄ±":11408,"ĠAvusturya":11409,"ĠGalaxy":11410,"ĠbabasÄ±nÄ±n":11411,"ĠDiyanet":11412,"Ġnihayet":11413,"cm":11414,"oskova":11415,"enleri":11416,"ung":11417,"Ġgelsin":11418,"Et":11419,"ĠBuz":11420,"Ġaskerlik":11421,"Ġhur":11422,"Ġuf":11423,"ĠiÅŁÃ§iler":11424,"Ġsevinirim":11425,"Â°":11426,"ĠtamamÄ±nÄ±":11427,"ĠyorumlarÄ±":11428,"Ġzihinsel":11429,"ĠÃľzerine":11430,"gÄ±tay":11431,"ĠtÃ¶reni":11432,"Ġyapt":11433,"Ġbilgiyi":11434,"ĠkaldÄ±rÄ±ldÄ±":11435,"ĠbilinÃ§li":11436,"ĠmutluluÄŁ":11437,"Ġsi":11438,"ĠMuharrem":11439,"enizde":11440,"osun":11441,"ĠErdem":11442,"ĠsÃ¶yleyerek":11443,"ĠaralÄ±ÄŁ":11444,"ĠVakÄ±f":11445,"Ġ95":11446,"ĠBurak":11447,"Ġbitkiler":11448,"bab":11449,"Ġdokuz":11450,"iliÄŁe":11451,"ĠkonuÅŁmada":11452,"sk":11453,"main":11454,"Ä±yaka":11455,"df":11456,"ĠGu":11457,"ĠOna":11458,"Ġpatates":11459,"ĠMusa":11460,"ĠbebeÄŁin":11461,"ĠgeleceÄŁe":11462,"ĠyapÄ±lacaÄŁÄ±":11463,"ĠKiralama":11464,"Ġtemizleme":11465,"ĠBahar":11466,"ÃľrÃ¼n":11467,"ĠkeÅŁfed":11468,"valar":11469,"ï¿½,":11470,"Ġatarak":11471,"ĠsÄ±nÄ±rÄ±":11472,"fone":11473,"Ġilke":11474,"Ġbam":11475,"Ġbabam":11476,"âĢ¦âĢ¦":11477,"Ġsisteminde":11478,"ĠyÄ±ÄŁ":11479,"ĠnamazÄ±":11480,"ĠÄ°ktis":11481,"Ġalmadan":11482,"amay":11483,"Ġmasal":11484,"ĠTurgut":11485,"Ġiyilik":11486,"Ġberek":11487,"bolu":11488,"Ġfabrika":11489,"ĠBasketbol":11490,"ĠÄ°hracat":11491,"Ġistemiyorum":11492,"tra":11493,"ĠÃ§adÄ±r":11494,"Ġresimler":11495,"Ġmisyon":11496,"Ġparamet":11497,"ĠtanrÄ±":11498,"ĠilaÃ§lar":11499,"ĠbaÅŁlattÄ±":11500,"Ġepey":11501,"Ġkuran":11502,"Ġinsani":11503,"Ġburadaki":11504,"ĠgÃ¼ncellem":11505,"ĠTelevizyon":11506,"ĠKeÅŁ":11507,"ï¿½.":11508,"ĠyatÄ±rÄ±mcÄ±":11509,"ĠaydÄ±nlatma":11510,"Ġifadesini":11511,"BÃ¶yle":11512,"ekke":11513,"ĠhÃ¼cre":11514,"Ġsep":11515,"ĠgÃ¼nÃ¼mÃ¼z":11516,"ĠsÄ±kÄ±ÅŁ":11517,"ĠKÄ±lav":11518,"Ġ81":11519,"Ġdomates":11520,"ĠZafer":11521,"Ġalman":11522,"ĠadaylarÄ±n":11523,"maktadÄ±rlar":11524,"ĠkÄ±rsal":11525,"ĠÄ°sveÃ§":11526,"ĠgÃ¼Ã§leri":11527,"ĠES":11528,"lerimizle":11529,"Ġfaaliyetlerini":11530,"Ġharicinde":11531,"Ġje":11532,"ĠmÃ¼kellef":11533,"izin":11534,"Ġbuldum":11535,"AslÄ±nda":11536,"Ñĥ":11537,"ĠyardÄ±mcÄ±sÄ±":11538,"Sadece":11539,"ĠÄ°hale":11540,"ĠÅŀer":11541,"Ġyollar":11542,"lÃ¼kte":11543,"ĠadlandÄ±rÄ±lan":11544,"TAL":11545,"Ä±lmasÄ±nÄ±n":11546,"Ġenerjisi":11547,"ĠgeÃ§mesi":11548,"Ġdizayn":11549,"Ã¼rler":11550,"Ġvurgulan":11551,"Ġseviyesine":11552,"ĠPiyasasÄ±":11553,"ĠBÄ°LGÄ°":11554,"ĠEvren":11555,"ĠFaruk":11556,"Ġdul":11557,"ĠNil":11558,"ĠUN":11559,"ArtÄ±k":11560,"ĠtutarÄ±":11561,"ĠtanÄ±ma":11562,"Ġkaydedildi":11563,"lÃ¼t":11564,"Ġmt":11565,"ĠeÄŁilim":11566,"ĠdÃ¼zeyinde":11567,"ĠBelediyespor":11568,"ĠkaÃ§Ä±nÄ±lmaz":11569,"ĠAÄŁrÄ±":11570,"ĠOR":11571,"ĠakÄ±n":11572,"61":11573,"Ġverilerine":11574,"ĠAmerikalÄ±":11575,"ĠbÃ¼yÃ¼yen":11576,"akkak":11577,"ĠTamam":11578,"Ä°yi":11579,"ĠSÃ¶y":11580,"Ġetkinlikler":11581,"Ġtabir":11582,"Ġpiyasada":11583,"ĠÃ§ekme":11584,"Ġtehlike":11585,"Ġdinlem":11586,"ĠkampanyasÄ±":11587,"Ġmuhalif":11588,"Ġfes":11589,"atÄ±lÄ±k":11590,"ĠÄ°ÃĩÄ°N":11591,"ÃĤ":11592,"ĠkaygÄ±":11593,"Ġbakarak":11594,"Ġbilinmektedir":11595,"ĠfakÃ¼lt":11596,"yazÄ±lÄ±":11597,"IC":11598,"ĠCas":11599,"ĠkullanÄ±ÅŁlÄ±":11600,"resel":11601,"Almanya":11602,"iÃ§in":11603,"ĠbirtakÄ±m":11604,"ĠÄ°p":11605,"Ġgiriyor":11606,"ĠÃ§alÄ±ÅŁanlarÄ±n":11607,"Tab":11608,"ĠPap":11609,"ĠyÃ¼zÃ¼ne":11610,"Ġdetaylara":11611,"ĠTanÄ±tÄ±m":11612,"ĠÃĸy":11613,"sc":11614,"ĠKPSS":11615,"Ġ180":11616,"ĠGÃľN":11617,"ĠÅŀey":11618,"ĠsÃ¼recini":11619,"Ġfiil":11620,"Ġkongr":11621,"po":11622,"Ġmuhtemelen":11623,"ĠgeliÅŁtirilmesi":11624,"ĠYunus":11625,"melisiniz":11626,"FF":11627,"uzel":11628,"ĠbaÅŁlÄ±ca":11629,"ĠDam":11630,"Ġfacebook":11631,"alamaya":11632,"Ġizliyor":11633,"ĠAfrin":11634,"ĠÅŁehirler":11635,"ĠKiralÄ±k":11636,"ĠkardeÅŁim":11637,"ĠdÄ±ÅŁarÄ±dan":11638,"ĠBAK":11639,"Ġbakter":11640,"Ġzorunludur":11641,"Ġdiyoruz":11642,"Ġkonunun":11643,"ĠÃĩiz":11644,"arka":11645,"Ġidrar":11646,"Ġprop":11647,"ĠAnt":11648,"Ġkayd":11649,"osman":11650,"Ġesir":11651,"outube":11652,"baba":11653,"ĠkÃ¼m":11654,"ilmeli":11655,"âĢ¦âĢĿ":11656,"Ġkoydu":11657,"naf":11658,"ness":11659,"yaÄŁÄ±":11660,"Ġ1980":11661,"Ġarayarak":11662,"ĠAlanya":11663,"2019":11664,"ĠDA":11665,"ĠDurumu":11666,"ĠEkip":11667,"ĠmÃ¼cadelesi":11668,"ĠgittiÄŁi":11669,"ĠkavuÅŁtur":11670,"ĠGÃ¼ler":11671,"ĠFay":11672,"ĠbÃ¶cek":11673,"falt":11674,"ĠanÄ±lan":11675,"ĠBunlarÄ±":11676,"Ġprogramlar":11677,"Ġediyordu":11678,"ENÄ°":11679,"ĠMavi":11680,"ĠcoÄŁrafy":11681,"RE":11682,"ĠhÃ¼kÃ¼mlerine":11683,"ĠTablo":11684,"Ġreak":11685,"ĠEh":11686,"Ġmodeller":11687,"ĠÄ±ÅŁÄ±n":11688,"ĠÅŁimdiye":11689,"lana":11690,"idin":11691,"ĠolmaksÄ±zÄ±n":11692,"ĠherÅŁ":11693,"Ġtarafa":11694,"siyesi":11695,"ĠBÃ¼t":11696,"rÃ¼":11697,"ĠÃ§ekt":11698,"ĠalÄ±nmÄ±ÅŁtÄ±r":11699,"Ġkopar":11700,"Ġkilometr":11701,"Ã¼zÃ¼n":11702,"ĠtÃ¼ketimi":11703,"ĠiÅŁyeri":11704,"ĠÃĸlÃ¼m":11705,"ĠKongre":11706,"Ġyaban":11707,"ĠNak":11708,"Ġded":11709,"ĠtaÅŁÄ±r":11710,"Ġodaklan":11711,"ĠpuanÄ±":11712,"eron":11713,"mazlar":11714,"ĠuyandÄ±r":11715,"ĠalacaÄŁÄ±":11716,"Ġotob":11717,"bulans":11718,"ĠkavramÄ±":11719,"Ġyepyeni":11720,"aÅŁehir":11721,"Ġbasketbol":11722,"Ġoranla":11723,"ĠdirenÃ§":11724,"Trabz":11725,"ĠØ§":11726,"Ġhek":11727,"ĠbaÅŁÄ±nÄ±":11728,"luÄŁunun":11729,"layÄ±":11730,"85":11731,"ĠyakÄ±nda":11732,"ĠSilahlÄ±":11733,"HiÃ§":11734,"ĠTas":11735,"Ġsiteye":11736,"ĠÃĸzdemir":11737,"ĠgÃ¶receksiniz":11738,"indek":11739,"Ġyirmi":11740,"ĠsatÄ±cÄ±":11741,"ĠmÃ¼c":11742,"ĠMÃ¼steÅŁ":11743,"alÄ±lar":11744,"ĠaÃ§Ä±klanan":11745,"ĠFatma":11746,"ĠyÄ±kan":11747,"umda":11748,"Ġfilmler":11749,"ĠatÄ±ÅŁ":11750,"Ġinsanlarla":11751,"barek":11752,"ĠBÄ°RÄ°NCÄ°":11753,"gatif":11754,"ĠgeleceÄŁini":11755,"Ġkader":11756,"Ġmantar":11757,"Ġvideoyu":11758,"ĠMakinesi":11759,"ĠKafkas":11760,"Fa":11761,"Ġsergi":11762,"Ġbest":11763,"alisyon":11764,"Ġelden":11765,"ĠÅŀeyh":11766,"Ġnakit":11767,"ĠDak":11768,"ĠYum":11769,"ĠkÃ¼tÃ¼phan":11770,"Ġbitim":11771,"cular":11772,"ĠyaÅŁamÄ±":11773,"ĠPil":11774,"Ä°P":11775,"ĠDÃ¼ÄŁÃ¼n":11776,"arlÄ±k":11777,"Ġhaliyle":11778,"ĠkÄ±smen":11779,"ĠmÃ¼lkiyet":11780,"ĠgÃ¶rmez":11781,"Ġ51":11782,"luÄŁuna":11783,"Elekt":11784,"ĠSov":11785,"ĠgÃ¶rÃ¼ÅŁt":11786,"ĠÃ¶zelliÄŁini":11787,"ĠbakÄ±mdan":11788,"Ġpeynir":11789,"ĠAdet":11790,"ĠDijital":11791,"Ġdevrimci":11792,"Ð»":11793,"aÄŁan":11794,"ĠVeli":11795,"Ġverirken":11796,"ĠpeÅŁinde":11797,"kurmay":11798,"ettin":11799,"Ġaynen":11800,"ĠÃ§alÄ±ÅŁÄ±yorum":11801,"ĠsahasÄ±":11802,"Ġsoya":11803,"Ġgruplar":11804,"ĠkarÅŁÄ±lamak":11805,"ÌĨ":11806,"Ġoynat":11807,"Ã»r":11808,"Ġhavada":11809,"Ġbuzdola":11810,"ĠKursu":11811,"Ġsitenin":11812,"ĠgÃ¶stererek":11813,"ĠDÃ¶nemi":11814,"SeÃ§":11815,"daha":11816,"ĠkadÄ±nlara":11817,"gir":11818,"ĠÃ§Ã¶zÃ¼nÃ¼r":11819,"ĠDÃ¶nÃ¼ÅŁ":11820,"ĠBanyo":11821,"Ġate":11822,"Ġfilmde":11823,"Ġileride":11824,"Ġkonsept":11825,"ĠkÃ¶tÃ¼lÃ¼k":11826,"76":11827,"ĠkanÄ±":11828,"Ġcon":11829,"Ġkentin":11830,"hep":11831,"Ġklav":11832,"atin":11833,"ĠBoya":11834,"ĠPC":11835,"istanbul":11836,"ĠSermaye":11837,"Ġmuam":11838,"ĠyÃ¼kseliÅŁ":11839,"dÃ®":11840,"ĠÃ§Ä±kmÄ±ÅŁtÄ±r":11841,"ĠsonuÃ§larÄ±nÄ±":11842,"ĠÄ±ÅŁÄ±":11843,"ĠgerÃ§ekleÅŁtirmek":11844,"71":11845,"YÃ¼z":11846,"Ġhijyen":11847,"Ġhareketleri":11848,"ĠaÃ§Ä±klamasÄ±nda":11849,"larÄ±mÄ±n":11850,"basÄ±":11851,"Ġby":11852,"ĠalkÄ±ÅŁ":11853,"limi":11854,"ĠyanÄ±l":11855,"masya":11856,"ĠLED":11857,"Ġtakibi":11858,"ĠmaÃ§Ä±n":11859,"ĠbaÅŁardÄ±":11860,"http":11861,"ĠgelmiÅŁti":11862,"Ġordus":11863,"ĠpÃ¼r":11864,"ĠÃ§Ä±kmaktadÄ±r":11865,"ĠeÄŁil":11866,"Ã¶zel":11867,"ĠÅŀehircilik":11868,"))":11869,"hem":11870,"landÄ±ÄŁÄ±nÄ±":11871,"ehmet":11872,"BÃ¶lÃ¼m":11873,"ĠyÃ¼zyÄ±lda":11874,"ĠFÄ±k":11875,"Ã¼cel":11876,"Anadolu":11877,"uhaf":11878,"ĠmÃ¼ÅŁterilerimize":11879,"ĠBaÅŁbakanÄ±":11880,"ĠgÃ¶rÃ¼lebilir":11881,"Ġkarara":11882,"ĠÅŀÃ¼k":11883,"ĠsaÄŁlanÄ±r":11884,"ĠGENEL":11885,"Ġsars":11886,"Haf":11887,"ĠHayvancÄ±lÄ±k":11888,"rev":11889,"Ġmuhtemel":11890,"Ġyelpaz":11891,"ĠLevent":11892,"Hem":11893,"Ġdoz":11894,"Ã½l":11895,"ĠÃ¶dÃ¼lÃ¼":11896,"ilmi":11897,"ĠÃ¼lkeden":11898,"Ġetmeyen":11899,"ĠÃ§oÄŁunluÄŁu":11900,"Ã¼sÃ¼ne":11901,"dÃ¼ÄŁÃ¼nde":11902,"ĠKapalÄ±":11903,"Ġnitelendir":11904,"AtatÃ¼rk":11905,"Ġmadalya":11906,"ĠÃľz":11907,"ĠsÃ¼rdÃ¼rdÃ¼":11908,"ĠÃ¶ÄŁretmenler":11909,"Ġmuayen":11910,"une":11911,"ĠgeÃ§miÅŁte":11912,"ĠKonak":11913,"Ġbilinmeyen":11914,"ĠfigÃ¼r":11915,"ĠkalmadÄ±":11916,"ĠsÃ¶ylediÄŁi":11917,"ĠsayfasÄ±":11918,"ikleri":11919,"ĠsakÄ±n":11920,"ĠDuvar":11921,"ĠgeÃ§in":11922,"Ġfakir":11923,"aydÄ±n":11924,"ĠKey":11925,"ĠgÃ¶revlisi":11926,"ĠolaylarÄ±n":11927,"Ġefend":11928,"Ã¼ÄŁÃ¼nÃ¼":11929,"Ġduyuru":11930,"ĠkararlarÄ±":11931,"ĠÃ¶tesinde":11932,"ĠÃ§Ä±karan":11933,"ĠFirma":11934,"Ġdeyip":11935,"ĠrÃ¼ya":11936,"leks":11937,"ĠAS":11938,"ĠbiÃ§imi":11939,"Ä°nternet":11940,"ĠakÅŁamÄ±":11941,"ĠkullanÄ±lÄ±yor":11942,"ĠaltÄ±ndan":11943,"ĠKolay":11944,"ĠalÄ±ÅŁkanlÄ±k":11945,"ĠÃĩor":11946,"ĠÃ§Ä±lgÄ±n":11947,"aci":11948,"Ġyaratmak":11949,"Ġpet":11950,"ĠayÄ±n":11951,"ĠÅŀef":11952,"ĠvuruÅŁ":11953,"Ġekledi":11954,"ĠyÃ¶nelt":11955,"ĠyaptÄ±ktan":11956,"ĠaklÄ±ma":11957,"ĠGem":11958,"Ġsenaryo":11959,"ilat":11960,"ĠsÃ¼recek":11961,"BÄ°T":11962,"Ġhuzurlu":11963,"Ġhain":11964,"Ġkuz":11965,"Ġyil":11966,"ĠbaÅŁlaya":11967,"Ġkeskin":11968,"ĠyaÅŁamÄ±n":11969,"Ġ1990":11970,"ĠdÃ¼ÅŁÃ¼nceler":11971,"Ä°slam":11972,"Ġfav":11973,"Ġiv":11974,"ĠYarÄ±ÅŁmasÄ±":11975,"ĠYÃ¼ce":11976,"Ġgeleni":11977,"Ã½nda":11978,"Ġmesafede":11979,"hh":11980,"adÄ±ÄŁÄ±nÄ±":11981,"Ġpasta":11982,"Ġ--":11983,"Ġolduktan":11984,"Ġmerhaba":11985,"ĠGenellikle":11986,"ĠyazÄ±lar":11987,"Ġkentinde":11988,"Kah":11989,"kesi":11990,"Ġedelim":11991,"ĠaydÄ±r":11992,"ĠgÃ¶zleri":11993,"ĠgÃ¶rdÃ¼ÄŁÃ¼nÃ¼z":11994,"ĠÃľmit":11995,"gÃ¼cÃ¼":11996,"ĠÃ§alÄ±ÅŁacak":11997,"Ġzarf":11998,"Ġsezonu":11999,"ĠaklÄ±m":12000,"ĠtÃ¼f":12001,"ĠOlim":12002,"ĠAnayas":12003,"Ġebeveyn":12004,"elikopter":12005,"BaÄŁ":12006,"ĠÃ§ilingir":12007,"adam":12008,"Ġ700":12009,"ĠvasÄ±tasÄ±yla":12010,"ĠolduÄŁumu":12011,"ĠKanada":12012,"ĠgiriÅŁimi":12013,"Ġgrev":12014,"ĠolacaÄŁ":12015,"Ä¢":12016,"dÄ±ÄŁÄ±n":12017,"Ġteslimat":12018,"ĠbÃ¶brek":12019,"oza":12020,"Ġkast":12021,"Ġbuhar":12022,"ĠYÃ¶ntem":12023,"Ġunutulmaz":12024,"IF":12025,"ĠayÄ±na":12026,"juv":12027,"ĠRah":12028,"ultu":12029,"âĢĭ":12030,"ĠateÅŁli":12031,"saspor":12032,"ĠKuran":12033,"ĠbaÅŁlamadan":12034,"ĠÄ°sa":12035,"ART":12036,"ĠModa":12037,"ĠÃ§alÄ±ÅŁmanÄ±n":12038,"Ġmutlak":12039,"Ġdileriz":12040,"ĠplakalÄ±":12041,"ĠÄ°stiklal":12042,"Ġoynama":12043,"Ġtakvim":12044,"NE":12045,"Ġvesil":12046,"ĠEur":12047,"ĠiÅŁareti":12048,"72":12049,"ĠEbu":12050,"Ġderhal":12051,"Ġtopluma":12052,"ĠTeÅŁekkÃ¼r":12053,"Ġtencer":12054,"Ġeti":12055,"Ġvermez":12056,"Ġhastalar":12057,"ĠÃ¼cretleri":12058,"ĠGÃ¶nÃ¼l":12059,"ĠEvi":12060,"odafone":12061,"Ġpoli":12062,"Ã¶rleri":12063,"Ġsebz":12064,"Ġkot":12065,"Ä°SÄ°":12066,"Ġanayas":12067,"ĠyaÅŁÄ±na":12068,"ĠamatÃ¶r":12069,"ĠiÅŁsizlik":12070,"Ġdetaylar":12071,"ĠhÃ¼kÃ¼metin":12072,"ĠtopraÄŁa":12073,"inat":12074,"ĠkuruÅŁ":12075,"Ġhalini":12076,"Ġserin":12077,"Ġparsel":12078,"Hep":12079,"Ġ85":12080,"ĠoluÅŁturuyor":12081,"ĠseÃ§imleri":12082,"ĠyukarÄ±daki":12083,"lerinizin":12084,"Ġcehenn":12085,"rand":12086,"ĠbÃ¼rok":12087,"ĠiyileÅŁ":12088,"ĠsÃ¼recin":12089,"ĠseÃ§men":12090,"ĠBerlin":12091,"AÄŁ":12092,"ĠkÄ±t":12093,"Ġyuk":12094,"Ġyolla":12095,"ĠOlaÄŁan":12096,"Ġistediklerini":12097,"ĠkaydÄ±yla":12098,"Ġseminer":12099,"ĠÃ§et":12100,"Ġcumhuriyet":12101,"ĠaÃ§Ä±lÄ±r":12102,"ĠtabanlÄ±":12103,"ĠgÃ¼zergah":12104,"ĠÅŁekillendir":12105,"ĠdavasÄ±":12106,"ĠdÃ¼ÅŁÃ¼nÃ¼yoruz":12107,"cuz":12108,"ahan":12109,"port":12110,"Ġduyan":12111,"ĠgerÃ§ekleÅŁtiren":12112,"ĠsÃ¼rÃ¼ÅŁ":12113,"ĠErtuÄŁrul":12114,"Ġetmesini":12115,"ĠÄ°dari":12116,"hir":12117,"Ġhikayesi":12118,"ĠgideceÄŁ":12119,"Ġbirde":12120,"Ġzan":12121,"Ã§Ä±nÄ±n":12122,"Ġhizmetini":12123,"ĠiÅŁÃ§ilerin":12124,"ĠiÃ§me":12125,"ĠmÃ¼ziÄŁi":12126,"general":12127,"ĠkurumlarÄ±n":12128,"ÃĩÃ¼nkÃ¼":12129,"sten":12130,"ibil":12131,"ĠMemur":12132,"Ġkuruldu":12133,"ĠBulun":12134,"ĠniteliÄŁinde":12135,"Ã§iliÄŁi":12136,"ĠsorunlarÄ±nÄ±":12137,"ĠBl":12138,"ETME":12139,"Ġkelimeler":12140,"ĠsÃ¶yleÅŁ":12141,"ĠdÃ¼zenledi":12142,"Ã§ekmece":12143,"Ġkef":12144,"ĠCami":12145,"Kaz":12146,"ĠasÄ±r":12147,"Ġslogan":12148,"ĠÃ§oÄŁal":12149,"onlar":12150,"ĠgÃ¶rÃ¼ldÃ¼ÄŁÃ¼":12151,"ĠyazÄ±lÄ±mÄ±":12152,"lenmektedir":12153,"KÃ¼Ã§Ã¼k":12154,"mÄ±ÅŁlardÄ±r":12155,"ĠHarek":12156,"ĠPal":12157,"Ġkomb":12158,"ĠettiÄŁim":12159,"ĠdireniÅŁ":12160,"ever":12161,"ĠKomitesi":12162,"Ġitem":12163,"ĠEvde":12164,"ĠsavaÅŁÃ§Ä±":12165,"Ã½k":12166,"larÄ±mla":12167,"ĠBirleÅŁmiÅŁ":12168,"ĠHekim":12169,"Ġvakti":12170,"barÄ±":12171,"Ġpersonelin":12172,"Ġetkisiz":12173,"etk":12174,"ĠkazanÄ±r":12175,"ĠtuÅŁuna":12176,"Ġvan":12177,"ikli":12178,"ĠÄ°pek":12179,"ĠkarÄ±ÅŁÄ±m":12180,"ĠYÃ¶r":12181,"Ġtamamlayan":12182,"Ġplanlama":12183,"ãĢ":12184,"ĠEyÃ¼p":12185,"lov":12186,"ĠbÃ¶lÃ¼mÃ¼nden":12187,"HayÄ±r":12188,"mayÄ±nÄ±z":12189,"Ġpaketi":12190,"ref":12191,"istir":12192,"ĠAlevi":12193,"ĠkadÄ±nlarÄ±":12194,"Ġmilletvekilleri":12195,"!)":12196,"ĠBerk":12197,"Ġokut":12198,"Ġolu":12199,"Ġ63":12200,"\".":12201,"ĠyaÅŁandÄ±ÄŁÄ±":12202,"ĠÃ§alÄ±ÅŁanlar":12203,"Ġeuro":12204,"Peki":12205,"Ġnegatif":12206,"Ġgetirecek":12207,"ĠbinasÄ±":12208,"Ġseslendir":12209,"lenmiÅŁtir":12210,"Ġberaberlik":12211,"ĠaÅŁam":12212,"ĠaÄŁac":12213,"ĠiÅŁlemlerinin":12214,"88":12215,"tes":12216,"giltere":12217,"ĠkÄ±smÄ±nÄ±n":12218,"ozgat":12219,"Ġkep":12220,"Ġilde":12221,"ĠbaÅŁlÄ±klarÄ±":12222,"ĠkÄ±ymetli":12223,"ĠMete":12224,"eyz":12225,"ĠaÄŁÄ±":12226,"langÄ±Ã§":12227,"ĠOs":12228,"ĠalanÄ±n":12229,"ĠgÃ¼venc":12230,"ĠMilyon":12231,"Ġkilis":12232,"ĠOtobÃ¼s":12233,"ekler":12234,"ĠSÃ¼rekli":12235,"ĠyaÅŁta":12236,"tayÄ±m":12237,"],":12238,"Ġtir":12239,"tifika":12240,"ĠtebliÄŁ":12241,"Ġkib":12242,"ĠEkran":12243,"ĠDolar":12244,"Ġkasa":12245,"ĠdÃ¼zenlemeler":12246,"Ġmetrekar":12247,"HY":12248,"Ot":12249,"liydi":12250,"ĠyÄ±p":12251,"Ġbireylerin":12252,"ĠÅŁehrinde":12253,"ĠAP":12254,"ĠÄ°f":12255,"uyuz":12256,"ĠsarÄ±ÅŁÄ±n":12257,"Ùħ":12258,"Ġbasamak":12259,"ĠÃĸÄŁrenciler":12260,"ĠyoÄŁurt":12261,"ĠAlanÄ±":12262,"Ġaktaran":12263,"Ġiseniz":12264,"eliyiz":12265,"Ġgazetesi":12266,"Ġokudum":12267,"ĠKabul":12268,"ĠbakanlÄ±k":12269,"Ġsolunum":12270,"ĠmÃ¼dÃ¼rÃ¼":12271,"geler":12272,"Ġpantolon":12273,"adar":12274,"ĠDÃ¶rt":12275,"artÄ±n":12276,"Ġedilmesini":12277,"ĠPatent":12278,"ĠkiÅŁileri":12279,"iÄŁini":12280,"ĠTemizlik":12281,"Ã¶f":12282,"ĠFull":12283,"Ġkenti":12284,"ĠhaftanÄ±n":12285,"ĠgeÃ§irilen":12286,"INDA":12287,"ĠtÄ±kla":12288,"ĠiÅŁlerini":12289,"ilmesinde":12290,"ĠmÃ¼ddet":12291,"ĠÄ°mparatorluÄŁu":12292,"Net":12293,"ĠÃ§alÄ±ÅŁmalarÄ±nda":12294,"ĠBaÅŁakÅŁehir":12295,"Ġhd":12296,"ĠzamanÄ±n":12297,"mazlÄ±k":12298,"ĠdeÄŁerlendirilmesi":12299,"ĠMakine":12300,"Ġkimdir":12301,"ĠSuriyeli":12302,"ĠMutlu":12303,"ĠNok":12304,"Ġcihazlar":12305,"TÃľRK":12306,"ĠKi":12307,"ĠPir":12308,"kileri":12309,"Ġfed":12310,"ĠyakalandÄ±":12311,"Ġzeka":12312,"ĠBÃ¶ylelikle":12313,"ars":12314,"ĠHab":12315,"ĠyÃ¼zÃ¼nÃ¼":12316,"ĠYardÄ±mcÄ±":12317,"ĠÃ§erÃ§evede":12318,"Hak":12319,"unt":12320,"ĠiÅŁsiz":12321,"ĠLok":12322,"Ġdefalarca":12323,"deler":12324,"ĠGÃ¼len":12325,"SAN":12326,"ĠolanlarÄ±":12327,"Ġkapasitesi":12328,"Merkez":12329,"PD":12330,"ĠyazÄ±mÄ±zda":12331,"ĠÃľnal":12332,"Ä°k":12333,"ĠTrak":12334,"Ġverilerin":12335,"ĠaktÃ¶r":12336,"Ø±":12337,"ÙĬ":12338,"evÃ®":12339,"ĠÅŁekeri":12340,"ĠAjans":12341,"ĠiÅŁlemini":12342,"ĠEng":12343,"ĠnoktasÄ±na":12344,"marÄ±m":12345,"ĠHaftasÄ±":12346,"feksiyon":12347,"Ġkalmaz":12348,"alanan":12349,"ĠTatlÄ±":12350,"ĠRÄ±za":12351,"ĠgÃ¶nl":12352,"Ġdinle":12353,"ĠAhmed":12354,"ĠSarayÄ±":12355,"ĠyaÅŁadÄ±klarÄ±":12356,"Fran":12357,"Ã§ay":12358,"ĠbaÅŁlayÄ±p":12359,"ĠÃ§Ä±kmaya":12360,"ĠEndek":12361,"ĠKombi":12362,"ĠDemirtaÅŁ":12363,"ĠMoskova":12364,"Ġgrubun":12365,"ilemez":12366,"ĠCD":12367,"Ġhissi":12368,"ĠGÃ¶khan":12369,"Ġyetmez":12370,"taydÄ±":12371,"ĠyapalÄ±m":12372,"ĠuÄŁ":12373,"ĠBirbir":12374,"ĠEtik":12375,"Ġbilinir":12376,"dÃ¼kten":12377,"ĠAVM":12378,"ĠTEM":12379,"osa":12380,"ĠsÄ±kÄ±ÅŁtÄ±r":12381,"Ya":12382,"Ġumu":12383,"ĠverildiÄŁi":12384,"ĠsaÄŁlanan":12385,"Ä£":12386,"ĠanlatÄ±":12387,"........":12388,"ĠMikro":12389,"Ġkavga":12390,"Ġailesine":12391,"Ġhev":12392,"ĠMi":12393,"Ġalev":12394,"ĠYou":12395,"Ġsitesine":12396,"Ġrenkleri":12397,"ĠÅŁÃ¼phel":12398,"62":12399,"atÃ¼r":12400,"anlÄ±ÅŁ":12401,"Ġrakib":12402,"ĠdÃ¶nÃ¼p":12403,"ĠÃ¼cretli":12404,"ĠGÃ¶re":12405,"iyorsa":12406,"ĠRak":12407,"Ã¼sÃ¼nÃ¼n":12408,"ĠedeceÄŁini":12409,"ĠkanalÄ±":12410,"Ġekrana":12411,"aze":12412,"olarÄ±":12413,"eksel":12414,"ĠgÃ¼ncelleme":12415,"ule":12416,"ĠbÄ±rakmak":12417,"Not":12418,"Ġedemez":12419,"Ġtoplumu":12420,"ĠOfis":12421,"ĠardÄ±":12422,"ĠTol":12423,"Ġkoymak":12424,"ĠST":12425,"ĠSenin":12426,"ĠÅŁebek":12427,"Ġonar":12428,"Ġmasum":12429,"ĠBorÃ§":12430,"Ġeli":12431,"aleti":12432,"Ġetap":12433,"Ġ72":12434,"ĠsoÄŁutma":12435,"YE":12436,"ĠdÃ¼ÅŁÃ¼nÃ¼n":12437,"ĠMÃ¼dÃ¼rlÃ¼k":12438,"Ġlaboratuvar":12439,"Web":12440,"ĠbaÅŁlamÄ±ÅŁtÄ±":12441,"ĠsonlandÄ±r":12442,"ĠEndÃ¼str":12443,"ue":12444,"ĠAdem":12445,"ÙĲ":12446,"Ġfull":12447,"Ġserver":12448,"ĠHakkÄ±":12449,"CD":12450,"Ġteknikleri":12451,"ĠTed":12452,"lenin":12453,"ĠyazÄ±da":12454,"ĠÃ§in":12455,"Ġoldular":12456,"ĠyazÄ±yÄ±":12457,"ĠkeÅŁif":12458,"79":12459,"ĠKural":12460,"ĠdÄ±ÅŁÄ±ndan":12461,"dÃ¼zÃ¼":12462,"Ġkocaman":12463,"ĠNumaralÄ±":12464,"Ġsalat":12465,"ĠihtiyacÄ±nÄ±":12466,"ledikleri":12467,"Ġkurtulmak":12468,"Suriye":12469,"Ġhikmet":12470,"ĠbaskÄ±n":12471,"deÄŁer":12472,"Ġcem":12473,"ym":12474,"ĠyÄ±llarca":12475,"ĠErol":12476,"Ġbitkisel":12477,"tiÃ§i":12478,"ĠsaÄŁlama":12479,"ĠbildiÄŁi":12480,"dini":12481,"Ġkatil":12482,"Ġuygulanacak":12483,"DÄ±ÅŁ":12484,"Ġatom":12485,"ĠkÃ¶yÃ¼nde":12486,"ĠsayÄ±larÄ±":12487,"ĠMekt":12488,"Ġtalebinde":12489,"ĠSerdar":12490,"ĠsoÄŁan":12491,"Ġdergi":12492,"ĠAtak":12493,"Ġhamile":12494,"Ä±tÄ±r":12495,"ĠyÃ¶ntemler":12496,"ĠmodÃ¼l":12497,"Ġ99":12498,"ĠfazlasÄ±nÄ±":12499,"BeÅŁiktaÅŁ":12500,"Ġekim":12501,"ĠbaÄŁlantÄ±lÄ±":12502,"Ġcuma":12503,"kz":12504,"Ġatar":12505,"ĠKurtuluÅŁ":12506,"Ġsitesinin":12507,"Ġtank":12508,"ĠfotoÄŁrafÄ±":12509,"Ġsofr":12510,"ecekler":12511,"Ġmesai":12512,"Ġserp":12513,"ĠKÄ±rÄ±k":12514,"ĠAst":12515,"ĠÃ§Ã¶zÃ¼l":12516,"Ġkentsel":12517,"sÄ±nÄ±f":12518,"eck":12519,"ĠdilediÄŁiniz":12520,"Ġperakende":12521,"ĠhazÄ±rlanmÄ±ÅŁtÄ±r":12522,"ĠEst":12523,"ĠDÃ¼nyasÄ±":12524,"Ġcik":12525,"ĠÃ¼lkemize":12526,"ĠÃ¼rÃ¼nlerinin":12527,"ĠGeniÅŁ":12528,"ĠSaha":12529,"Ãĩin":12530,"ĠadaylarÄ±":12531,"BÄ°TAK":12532,"ction":12533,"Ġph":12534,"ĠartÄ±":12535,"ĠParla":12536,"Ġkeyfi":12537,"ĠdemiÅŁti":12538,"Ġafet":12539,"ĠsÃ¼recine":12540,"Ġeminim":12541,"iet":12542,"Ġmuhabir":12543,"Ġprensip":12544,"Ġlin":12545,"Ġkarg":12546,"ĠSÃ¶zleri":12547,"Ġseviyeye":12548,"Ġkatliam":12549,"ĠÅŁeklindeki":12550,"Ġanalizi":12551,"73":12552,"ĠYÃ¼ksekokulu":12553,"burnu":12554,"ĠÃ¶te":12555,"TO":12556,"Mev":12557,"ĠbarÄ±ndÄ±ran":12558,"ĠendÃ¼striyel":12559,"ĠgÃ¶vde":12560,"zÄ±":12561,"unuzda":12562,"eliÄŁin":12563,"ĠMalzemeleri":12564,"Ġkurut":12565,"deres":12566,"Ġtamiri":12567,"ĠvideolarÄ±":12568,"ĠtutuklandÄ±":12569,"DÃ¼z":12570,"ĠStok":12571,"Ġdilerim":12572,"civ":12573,"Ġmeselesi":12574,"ĠvÃ¼cudun":12575,"AÃĩ":12576,"oksi":12577,"Ġbelirlemek":12578,"Ġtakdim":12579,"Ġteknolojileri":12580,"dedi":12581,"ĠBizler":12582,"ALI":12583,"ĠvÃ¼cudu":12584,"ĠZeynep":12585,"ĠsÃ¼p":12586,"Ġborcu":12587,"ĠÃ¶ngÃ¶rÃ¼len":12588,"Ġetmeyin":12589,"ĠbÃ¶lgesindeki":12590,"ĠkullanÄ±cÄ±larÄ±":12591,"Ġplatformu":12592,"ĠÃ§eliÅŁ":12593,"ĠDes":12594,"ĠbulunduklarÄ±":12595,"ĠÃ§anta":12596,"ĠtÃ¼ken":12597,"lediklerini":12598,"ĠadÄ±nda":12599,"ĠUEFA":12600,"Ġoturup":12601,"Ġbenims":12602,"Ġmalzemesi":12603,"Ġmesafe":12604,"ĠAlp":12605,"ĠDevam":12606,"ĠÃĩelebi":12607,"ĠkÄ±lan":12608,"Ġert":12609,"fesÃ¶r":12610,"ĠgÃ¶rÃ¼ntÃ¼ler":12611,"Ġbirikim":12612,"inizdeki":12613,"ĠDevamÄ±nÄ±":12614,"fe":12615,"Ġaldat":12616,"Ġbelirsiz":12617,"ĠsaÄŁlayarak":12618,"ĠMÃ¼l":12619,"Ġkolon":12620,"baz":12621,"ĠdoÄŁumlu":12622,"ĠHazine":12623,"abb":12624,"ĠMari":12625,"ĠRed":12626,"ĠÅŀif":12627,"ĠLef":12628,"ĠkÄ±zÄ±m":12629,"Ġdenli":12630,"Ġbomba":12631,"hendisi":12632,"Ġbelirley":12633,"ĠsevinÃ§":12634,"ĠbinanÄ±n":12635,"ĠkullanÄ±mÄ±na":12636,"ÅŁir":12637,"ĠTOP":12638,"amadÄ±m":12639,"Ġsark":12640,"Ġhayvanlar":12641,"Ġzira":12642,"ĠzÄ±rh":12643,"ĠgÃ¶nderdi":12644,"ĠyaÅŁÄ±yoruz":12645,"Ġkenara":12646,"ĠgetirmiÅŁ":12647,"Ġyeterlidir":12648,"Ġevrensel":12649,"TP":12650,"Ġvideosu":12651,"tum":12652,"oterapi":12653,"ĠÃ¶zlem":12654,"ĠÃĸzcan":12655,"ĠyÃ¼rÃ¼tÃ¼l":12656,"ĠVergisi":12657,"Â²":12658,"Ġsesini":12659,"taur":12660,"ĠÃľlkemizde":12661,"ErdoÄŁan":12662,"ĠuyuÅŁ":12663,"Ġkendinden":12664,"ĠGÃ¶lÃ¼":12665,"Ã¶ÄŁ":12666,"Ġfiyatlarla":12667,"lil":12668,"adÃ¼f":12669,"Ġkayak":12670,"Ġetkileyici":12671,"ĠyapÄ±nÄ±n":12672,"ĠÅŁeri":12673,"Ġprosed":12674,"Ġharam":12675,"ĠmeÅŁgul":12676,"UB":12677,"gov":12678,"ĠsÃ¶yledik":12679,"ĠseÃ§imlerde":12680,"ĠPak":12681,"oth":12682,"ĠarasÄ±ndadÄ±r":12683,"ĠSivil":12684,"ĠLaborat":12685,"Ġbuluyor":12686,"Ġfiyata":12687,"ĠSerbest":12688,"Ġzihn":12689,"Ġrah":12690,"ĠGÃ¶rÃ¼nt":12691,"ĠbuÄŁday":12692,"Ġ69":12693,"ĠgÃ¶rÃ¼yorum":12694,"Ġdostluk":12695,"Program":12696,"ĠÄ±ÅŁÄ±ÄŁÄ±":12697,"Az":12698,"Olay":12699,"Galatasaray":12700,"aÃ§Ä±k":12701,"Ġtayin":12702,"KÄ±":12703,"ĠBelir":12704,"Ġkurumu":12705,"ĠYazÄ±cÄ±":12706,"pazarÄ±":12707,"ĠtaÅŁÄ±maktadÄ±r":12708,"ĠimalatÄ±":12709,"koÅŁ":12710,"Ġeserleri":12711,"Ġcenaze":12712,"ĠkÃ¶mÃ¼r":12713,"ĠSEO":12714,"ĠtamamlandÄ±":12715,"ĠkÃ¶klÃ¼":12716,"atih":12717,"ĠPop":12718,"ĠAnlat":12719,"eliÄŁine":12720,"EÅŁ":12721,"ĠEvleri":12722,"ĠBulgaristan":12723,"Ġveriyorum":12724,"Ġkaba":12725,"ĠtÃ¼n":12726,"ĠsuÃ§lu":12727,"ĠSÃ¶zcÃ¼sÃ¼":12728,"ĠyaptÄ±lar":12729,"ĠKahramanmaraÅŁ":12730,"Der":12731,"Ġherhalde":12732,"Ġfiziki":12733,"YapÄ±lan":12734,"Ġediniz":12735,"emeye":12736,"Ġilgisini":12737,"Ġdersler":12738,"Ġyararlanmak":12739,"sÃ¶z":12740,"ĠgÃ¼nlerinde":12741,"ĠfarkÄ±na":12742,"Ġmobily":12743,"ĠMimarlÄ±k":12744,"ĠSad":12745,"ĠdÃ¼ÅŁÃ¼yor":12746,"ĠedeceÄŁi":12747,"con":12748,"Ġinternette":12749,"ĠoranÄ±nÄ±n":12750,"ĠGeÃ§tiÄŁimiz":12751,"MK":12752,"Ġvaran":12753,"Ġdenildi":12754,"Ä±nÄ±p":12755,"Ġgenetik":12756,"ĠhazÄ±rlamak":12757,"ĠdosyalarÄ±":12758,"ĠendiÅŁe":12759,"onim":12760,"iÅŁik":12761,"ĠkonuÅŁmasÄ±nda":12762,"Ġtalepleri":12763,"afak":12764,"ĠanlÄ±k":12765,"ĠVeri":12766,"Ġkorum":12767,"daa":12768,"Ġatma":12769,"Ġyoksun":12770,"ĠÅŁartlarda":12771,"Ġmakale":12772,"aganda":12773,"ĠkurÅŁun":12774,"iger":12775,"ĠÃ¶demeler":12776,"Ġminimum":12777,"ĠÅŁeffaf":12778,"imizdeki":12779,"Ã¼lecek":12780,"ĠMaltepe":12781,"Ġizleyic":12782,"ĠliralÄ±k":12783,"Ġbine":12784,"masa":12785,"Ġhizmetlerin":12786,"2007":12787,"ĠhazÄ±rlanÄ±yor":12788,"ĠcevabÄ±nÄ±":12789,"ĠasansÃ¶r":12790,"Ġyeme":12791,"Ġadil":12792,"Ġilkokul":12793,"ĠÄ°smet":12794,"ĠcoÄŁrafi":12795,"âĢ²":12796,"ĠsahasÄ±nda":12797,"Ġceb":12798,"ĠmÃ¼hendislik":12799,"ĠniÅŁan":12800,"Ġdiyalog":12801,"oyun":12802,"Ã½z":12803,"ĠbÃ¶lÃ¼mÃ¼ne":12804,"ĠSonrasÄ±nda":12805,"ĠÃĩavuÅŁoÄŁlu":12806,"Ma":12807,"ĠHÃ¼rriyet":12808,"ĠZirv":12809,"ĠfotoÄŁraflar":12810,"Ġrenkler":12811,"ĠarayÃ¼z":12812,"ingÃ¶l":12813,"atlarÄ±":12814,"ĠProfesyonel":12815,"ĠHatip":12816,"Ġkonumunda":12817,"ĠÃ§Ä±plak":12818,"Ġfas":12819,"ĠyaÅŁÄ±ndan":12820,"ĠResul":12821,"ĠrolÃ¼":12822,"Ġkokusu":12823,"SL":12824,"ĠÄ°mar":12825,"ulab":12826,"ĠÃĩakÄ±r":12827,"ĠÃ§ektiÄŁi":12828,"Ġhayati":12829,"baÅŁka":12830,"ĠsÃ¼tÃ¼":12831,"Ġsorusu":12832,"ĠZiya":12833,"ĠMini":12834,"Ġlazer":12835,"luyum":12836,"âĢĻ,":12837,"ĠMekke":12838,"ĠFabrik":12839,"ĠÃ¼mit":12840,"ĠyÃ¶nden":12841,"ĠÄ°sviÃ§re":12842,"Ġkomik":12843,"Merhabalar":12844,"ĠMy":12845,"Ġetnik":12846,"Ã¼phe":12847,"ĠÄ°skender":12848,"Ġprogramda":12849,"ĠÃĸnder":12850,"ory":12851,"Ġtoplumda":12852,"ĠÃ¶zelliklere":12853,"ĠTebliÄŁ":12854,"Ġbant":12855,"Ġata":12856,"Ġeserler":12857,"allÄ±":12858,"Ġsorusuna":12859,"Ġkabar":12860,"ĠyÃ¼rek":12861,"Ġvermekteyiz":12862,"aktif":12863,"ĠLib":12864,"Ġdamla":12865,"GÃ¼nÃ¼mÃ¼zde":12866,"Ġibaresi":12867,"ĠÄ°Z":12868,"ĠkalkÄ±ÅŁ":12869,"ĠPlatformu":12870,"ĠAfgan":12871,"iÄŁit":12872,"Ġkitapta":12873,"ĠÃ§Ä±karma":12874,"Ġkurtarma":12875,"Mut":12876,"Ġbet":12877,"ersen":12878,"ĠRehber":12879,"Ġdinin":12880,"ĠZeki":12881,"ĠbÃ¶lÃ¼mleri":12882,"Ġyapanlar":12883,"Ġbankalar":12884,"ĠyalÄ±tÄ±m":12885,"ashington":12886,"Ġyut":12887,"ike":12888,"Ġgelmiyor":12889,"ĠgeÃ§ip":12890,"ĠÃ¼zÃ¼l":12891,"Ġnasip":12892,"ĠÃ¶mrÃ¼":12893,"ds":12894,"dinilen":12895,"ĠuzmanlÄ±k":12896,"Ġdepresyon":12897,"FenerbahÃ§e":12898,"asay":12899,"ĠÄ°c":12900,"Ġanayasa":12901,"Ġuyu":12902,"Ġeskiden":12903,"Ä±ÅŁÄ±klÄ±":12904,"kisi":12905,"lediÄŁim":12906,"Ġemeklilik":12907,"ĠpoÅŁ":12908,"ĠsayÄ±n":12909,"ĠeÄŁitimini":12910,"ĠÃ¶ldÃ¼rÃ¼l":12911,"Ġbireyler":12912,"ojen":12913,"ĠbaÄŁÄ±rsak":12914,"mayÄ±p":12915,"ĠSanatlar":12916,"FotoÄŁraf":12917,"ĠgÃ¶rÃ¼p":12918,"Ġiyisi":12919,"cileri":12920,"ĠkarÅŁÄ±nÄ±za":12921,"ĠKonser":12922,"Ġfelaket":12923,"ĠKÃ¼tahya":12924,"Koca":12925,"ĠhÃ¼r":12926,"ĠMc":12927,"Ġdurumdan":12928,"AÅŁaÄŁÄ±":12929,"Tam":12930,"ĠkalÄ±ntÄ±":12931,"ETÄ°":12932,"beyli":12933,"sÄ±nÄ±":12934,"mamÄ±zÄ±":12935,"ĠBelÃ§ika":12936,"Ġpres":12937,"king":12938,"que":12939,"urat":12940,"Ã§in":12941,"Ġnerde":12942,"aiz":12943,"Ġvarken":12944,"iyenin":12945,"Ġplanla":12946,"ĠeksikliÄŁi":12947,"Mak":12948,"biye":12949,"ĠaÅŁan":12950,"Ġistiyordum":12951,"ĠfiÅŁ":12952,"ĠdurumlarÄ±":12953,"ĠÅŁeytan":12954,"Ġgerektirir":12955,"Un":12956,"MHP":12957,"ĠKastamonu":12958,"ĠLin":12959,"ĠÃ§eker":12960,"ĠnumarasÄ±nÄ±n":12961,"ĠAvustralya":12962,"eybol":12963,"ĠYarÄ±":12964,"diki":12965,"ĠeÄŁitimin":12966,"ĠÄ°stih":12967,"ĠyÄ±ldÃ¶n":12968,"Ġadama":12969,"Ġmaddesine":12970,"larÄ±nÄ±zla":12971,"ĠTedavi":12972,"ĠSAN":12973,"Ġkitle":12974,"ript":12975,"aklarÄ±":12976,"Ġmerhamet":12977,"Ã§o":12978,"âĢĶ":12979,"Ġisabet":12980,"Ġhepimizin":12981,"Ġduyul":12982,"ĠbaÅŁladÄ±ÄŁÄ±nÄ±":12983,"ĠsaklÄ±":12984,"ling":12985,"dest":12986,"ĠHy":12987,"ĠiÃ§indir":12988,"Ã¼phane":12989,"Ġelit":12990,"ĠAkademi":12991,"ĠsavcÄ±":12992,"ĠKarabÃ¼k":12993,"ÅŁa":12994,"ĠDER":12995,"Ġdestekleyen":12996,"Ġtaciz":12997,"ild":12998,"ĠÃ§Ä±kardÄ±ÄŁÄ±":12999,"Ġcephe":13000,"Ġsent":13001,"ĠiliÅŁkili":13002,"Ġkelimesi":13003,"Ġdeplasmanda":13004,"Ġdib":13005,"Ġnice":13006,"ĠBildir":13007,"lÄ±nÄ±n":13008,"Ġbirebir":13009,"FETÃĸ":13010,"Ġ050":13011,"ĠmuhtaÃ§":13012,"ĠSAY":13013,"Ġstandar":13014,"ĠaldÄ±r":13015,"Ġistismar":13016,"Ġmiting":13017,"ĠsaÄŁlayabilirsiniz":13018,"ĠburasÄ±":13019,"ederasyon":13020,"Ġhissede":13021,"BM":13022,"Ġsipar":13023,"ĠDÃ¼nyada":13024,"Ġmuz":13025,"ĠÃ¼zÃ¼m":13026,"ĠLir":13027,"Ġkesme":13028,"ĠServer":13029,"Yani":13030,"ĠIr":13031,"ĠBulut":13032,"ĠSinema":13033,"ĠkaldÄ±rÄ±lmasÄ±":13034,"tÄ±ysa":13035,"Ġprograma":13036,"Ġsulama":13037,"mekt":13038,"ĠgÃ¶rmeye":13039,"Ġpartinin":13040,"Ġdiyebilirim":13041,"Ġpromosyon":13042,"ĠdÃ¶neme":13043,"Ġambulans":13044,",âĢĿ":13045,"ĠalanÄ±ndaki":13046,"ĠkÄ±skan":13047,"ĠyÃ¶netiminin":13048,"Ġhayv":13049,"Bilg":13050,"Ġklinik":13051,"Ġgelecektir":13052,"ĠkullanÄ±lmÄ±ÅŁtÄ±r":13053,"Ġimparator":13054,"ĠMevcut":13055,"Yal":13056,"ĠKaÄŁÄ±t":13057,"Ġertesi":13058,"ua":13059,"alÄ±dÄ±r":13060,"ĠKelim":13061,"Ġetmenin":13062,"ĠDevrim":13063,"ĠkÄ±n":13064,"eddin":13065,"ĠEÅŁya":13066,"ĠhastalÄ±ÄŁÄ±n":13067,"Bas":13068,"Ġaralar":13069,"Ġizn":13070,"Ġihbar":13071,"ĠÄ°Ã§eri":13072,"ĠgÃ¼":13073,"ĠYÃ¼ksekÃ¶ÄŁretim":13074,"ÅŁu":13075,"ĠdÄ±ÅŁarÄ±da":13076,"ĠtÄ±rnak":13077,"mod":13078,"ĠÃ¶dev":13079,"Ġapartman":13080,"Ġveda":13081,"Ġtutarak":13082,"Ġbilerek":13083,"ĠDolandÄ±rÄ±cÄ±":13084,",...":13085,"ĠKÃ¶k":13086,"ĠTÃ¼rklerin":13087,"Ġekm":13088,"Ġharik":13089,"no":13090,"Ġtahliye":13091,"ĠyaÅŁadÄ±ÄŁÄ±mÄ±z":13092,"ĠKars":13093,"Ġ1998":13094,"ĠÅŀampiyonlar":13095,"OJ":13096,"ĠAkif":13097,"ĠNas":13098,"ĠyÃ¼rÃ¼ten":13099,"Ġmekanik":13100,"ĠgerektiÄŁine":13101,"kiye":13102,"ĠbelirlenmiÅŁ":13103,"ĠoluÅŁturmaktadÄ±r":13104,"Ġerit":13105,"ĠToplu":13106,"ĠayÄ±rt":13107,"Ali":13108,"ĠerkeÄŁin":13109,"ĠdÃ¼zenleyen":13110,"ĠValiliÄŁi":13111,"ĠhÄ±rsÄ±z":13112,"aden":13113,"Ġkazanma":13114,"amÄ±zdan":13115,"ĠYÃ¶netmeliÄŁin":13116,"lenmesine":13117,"Ġkont":13118,"Ġbron":13119,"ĠRa":13120,"ĠbayanÄ±m":13121,"Ġlav":13122,"Ġoperasyonu":13123,"lilere":13124,"ysanÄ±z":13125,"Ġcari":13126,"ĠHo":13127,"off":13128,"Ġbirisidir":13129,"74":13130,"ĠNor":13131,"ĠMerkezleri":13132,"sor":13133,"ĠÃ§oktan":13134,"ĠBilin":13135,"ĠZonguldak":13136,"memiÅŁtir":13137,"Ġmuaf":13138,"ĠkorkunÃ§":13139,"ĠdoÄŁrultu":13140,"ĠkazanmÄ±ÅŁ":13141,"lass":13142,"eyla":13143,"ĠinÃ§":13144,"Ġruhsal":13145,"Ġemperyal":13146,"ĠcihazlarÄ±":13147,"ĠYargÄ±tay":13148,"ĠBinali":13149,"fiye":13150,"ĠaldÄ±ktan":13151,"ĠiÅŁine":13152,"ĠziyaretÃ§":13153,"ĠFinansal":13154,"tiniz":13155,"ĠLtd":13156,"ĠseÃ§ildi":13157,"ĠAvrup":13158,"Ġkurallar":13159,"ĠYem":13160,"Ġvadede":13161,"esten":13162,"ĠortaÄŁÄ±":13163,"ĠfaydalarÄ±":13164,"ĠhesabÄ±ndan":13165,"Ġsuyunu":13166,"haf":13167,"Ã¶rek":13168,"Ġasfalt":13169,"ulabilir":13170,"ĠYahudi":13171,"Bit":13172,"ĠbÃ¶lgelerinde":13173,"Ġvermeyi":13174,"ĠÄ°spanyol":13175,"Ġkoyan":13176,"ĠiddialÄ±":13177,"Ġkontenj":13178,"Ġyara":13179,"idd":13180,"ĠdeÄŁiliz":13181,"ĠOtur":13182,"Ġolanlara":13183,"Ġ053":13184,"ĠdosyasÄ±":13185,"ĠdÃ¶kÃ¼m":13186,"Ġgelmeye":13187,"ĠÃ¶nÃ¼ndeki":13188,"Ġkursu":13189,"ĠÃ§alÄ±ÅŁmalarda":13190,"Ġatama":13191,"Ġalerj":13192,"ĠAmatÃ¶r":13193,"ĠgÃ¶rÃ¼ntÃ¼leri":13194,"Ġakademisyen":13195,"ANS":13196,"ĠGenÃ§ler":13197,"izma":13198,"Ä±mÄ±zla":13199,"odik":13200,"ĠkimliÄŁi":13201,"Ġsaatler":13202,"ĠWe":13203,"lanmaya":13204,"usuyla":13205,"ĠÃ§Ä±ktÄ±ÄŁÄ±nÄ±":13206,"ĠgÃ¶zle":13207,"ĠkÄ±lÄ±n":13208,"Ver":13209,"ĠtarafÄ±na":13210,"ĠteÅŁeb":13211,"ĠgÃ¶nderdiÄŁi":13212,"LAH":13213,"ĠÃĸzkan":13214,"ĠgeÃ§irildi":13215,"Ġanlatmaya":13216,"ĠÃ§Ã¶zÃ¼mleri":13217,"ĠAngel":13218,"Ġkendiniz":13219,"Ġsahiplerinin":13220,"ĠalÄ±yoruz":13221,"ĠPaket":13222,"ĠCity":13223,"Ġ----":13224,"Ġderler":13225,"Ã¤":13226,"ĠfaÅŁ":13227,"ĠEsnaf":13228,"omi":13229,"ĠaÃ§Ä±lacak":13230,"Ġolmam":13231,"ĠgÃ¶kyÃ¼z":13232,"Ġyetkisi":13233,"ĠMacar":13234,"ĠÅŁarap":13235,"Ġfos":13236,"ĠÃĸSYM":13237,"ĠarkasÄ±ndan":13238,"atik":13239,"ĠDevletleri":13240,"ĠsÃ¼reyle":13241,"ĠsÃ¶zde":13242,"ULLAN":13243,"ĠHÄ±rist":13244,"Ġacel":13245,"Ġnun":13246,"ĠayaÄŁa":13247,"ĠÅŀar":13248,"Ġaksi":13249,"Ġtarihin":13250,"ĠYayÄ±nevi":13251,"ĠBlog":13252,"ĠSahip":13253,"ĠbaÅŁkanlÄ±ÄŁÄ±nda":13254,"Tal":13255,"nem":13256,"Ġkontr":13257,"Ġtesisi":13258,"ĠAkÅŁ":13259,"Ġinceleyebilirsiniz":13260,"ĠyollarÄ±nÄ±":13261,"ĠsanÄ±":13262,"Ġsevimli":13263,"ĠharÃ§":13264,"ĠbaÅŁladÄ±lar":13265,"Ġyemekleri":13266,"iirt":13267,"ĠsoÄŁut":13268,"ĠDanÄ±ÅŁmanlÄ±k":13269,"ĠcoÅŁk":13270,"atma":13271,"Ġyatan":13272,"ĠMax":13273,"ĠÃ§alÄ±ÅŁmaktadÄ±r":13274,"Ġnedenlerle":13275,"ĠÃ¶neriler":13276,"BalÄ±k":13277,"ĠÃ§irkin":13278,"ĠÄ±sÄ±n":13279,"ĠyÃ¼zyÄ±lÄ±n":13280,"ĠFetvalar":13281,"Sal":13282,"Ġfan":13283,"ĠdeÄŁiÅŁir":13284,"ĠsÃ¶yleyebiliriz":13285,"ekiz":13286,"ĠistemiÅŁ":13287,"ĠalbÃ¼mÃ¼":13288,"ĠTEKN":13289,"ĠGezi":13290,"eÄŁen":13291,"edia":13292,"Ġtahta":13293,"ĠistediÄŁimiz":13294,"Yazar":13295,"iral":13296,"iyeler":13297,"Ġabi":13298,"ĠdÃ¼ÅŁÃ¼nerek":13299,"Ġyatay":13300,"ĠhatÄ±rlatan":13301,"ĠkÃ¶kenli":13302,"ĠalmanÄ±z":13303,"Ġilgil":13304,"Ġederse":13305,"ĠteÅŁhis":13306,"ĠmaÄŁaza":13307,"Ġsistemde":13308,"ĠtÃ¼rb":13309,"ĠkullanÄ±cÄ±lara":13310,"ĠAlÄ±ÅŁveriÅŁ":13311,"Ã¼nt":13312,"ilmekte":13313,"Ġgene":13314,"ĠÃ¶lÃ¼mÃ¼":13315,"ĠÄ°statistik":13316,"ĠModelleri":13317,"ÙĴ":13318,"itli":13319,"ĠiÅŁlemlerin":13320,"irmen":13321,"Ã¼nist":13322,"Ġistikbal":13323,"ĠfarkÄ±ndalÄ±k":13324,"ĠnumaralarÄ±":13325,"ĠniteliÄŁi":13326,"Uzman":13327,"ĠolmayacaktÄ±r":13328,"ĠkazanÄ±m":13329,"taurant":13330,"linin":13331,"Ġkis":13332,"Ġgirmesi":13333,"Ġgizle":13334,"ĠÃ§alÄ±ÅŁmada":13335,"Ġlitre":13336,"Kom":13337,"cik":13338,"last":13339,"ĠPamuk":13340,"Ġbeyn":13341,"ĠkuruluÅŁlar":13342,"MB":13343,"Ġdern":13344,"Ġaileler":13345,"Ġkala":13346,"ĠÃĩocuÄŁ":13347,"Ġbulunacak":13348,"Ġpartisi":13349,"ĠKarÅŁÄ±yaka":13350,"Ġvaj":13351,"Ġbulup":13352,"Ä±yordum":13353,"Ġmuhasebe":13354,"ĠgeliÅŁmesi":13355,"ĠSinop":13356,"ĠdeÄŁerlendirmek":13357,"feransÄ±":13358,"ĠgÃ¶rÃ¼leb":13359,"Ġstad":13360,"Ġnar":13361,"ĠyapÄ±lar":13362,"ĠÃ§alÄ±ÅŁarak":13363,"ĠIÅŁ":13364,"siyum":13365,"hissel":13366,"Ġaradan":13367,"ĠyÃ¼ce":13368,"Ã¼cÃ¼k":13369,"ĠbuÃ§uk":13370,"Ġbursa":13371,"ĠSeyahat":13372,"Ġyama":13373,"ĠbaÅŁvurularÄ±":13374,"ĠbÃ¶lgeler":13375,"onuÃ§":13376,"hael":13377,"Ġfeth":13378,"Ġaksiyon":13379,"ĠparasÄ±":13380,"Ġgitar":13381,"inip":13382,"ĠolursanÄ±z":13383,"ĠoluÅŁturma":13384,"Ġodalar":13385,"Ġgereksinim":13386,"Ġyerlerden":13387,"ĠEfendimiz":13388,"Â®":13389,"OBÄ°":13390,"GÃ¼ven":13391,"larsa":13392,"ty":13393,"Ġtarihini":13394,"Ġmakul":13395,"ĠÃ§eyrek":13396,"ĠhastalÄ±klar":13397,"Ġproblemleri":13398,"ĠOtomobil":13399,"matÄ±":13400,"ĠÃ§ocuklarÄ±nÄ±n":13401,"ĠAskeri":13402,"mine":13403,"larÃ½":13404,"aspor":13405,"Ġzann":13406,"ĠÃ§ocuÄŁa":13407,"==":13408,"dine":13409,"Re":13410,"Ġsezonunda":13411,"Ġbursadaki":13412,"ĠAlb":13413,"ĠayrÄ±calÄ±k":13414,"ĠÄ°lah":13415,"iha":13416,"ĠKÃ¶ÅŁ":13417,"Ġnitelikte":13418,"ĠBaskÄ±":13419,"ĠArk":13420,"ovadaki":13421,"emediÄŁi":13422,"ezya":13423,"ĠÃ§alÄ±ÅŁtÄ±m":13424,"Ġoturt":13425,"ĠyÃ¼rÃ¼":13426,"Ġbelirtiliyor":13427,"ĠMÃ¼ÅŁ":13428,"ĠkaraciÄŁer":13429,"ĠyazmÄ±ÅŁ":13430,"Ġkesint":13431,"EÃĩ":13432,"Hakk":13433,"ĠgÃ¼nÃ¼ne":13434,"idor":13435,"Ġhavaliman":13436,"Ġdikkatini":13437,"Ġmuhakkak":13438,"temiz":13439,"ĠÄ°YÄ°":13440,"ĠÃĩorum":13441,"lish":13442,"ĠkurtuluÅŁ":13443,"ĠAÅŁaÄŁÄ±daki":13444,"ĠVER":13445,"Ã®m":13446,"ĠBende":13447,"Ġistikamet":13448,"UY":13449,"ĠkararÄ±nÄ±n":13450,"ĠBilecik":13451,"ĠyazdÄ±r":13452,"ĠanlaÅŁÄ±lÄ±r":13453,"GRAM":13454,"opar":13455,"sada":13456,"ĠBed":13457,"Ġoksijen":13458,"ĠbÃ¶lgesine":13459,"Ġtedavisinde":13460,"ĠÃ¢lem":13461,"Åŀirket":13462,"ĠkalÃ§":13463,"ĠyaÅŁÄ±":13464,"ĠyÃ¶netiminde":13465,"ĠFiyatÄ±":13466,"okop":13467,"likdÃ¼zÃ¼":13468,"Ġmuhat":13469,"!!!":13470,"Kas":13471,"cÄ±mÄ±z":13472,"iper":13473,"ĠÃľlke":13474,"Ġyi":13475,"ĠoluÅŁturulmasÄ±":13476,"ĠÃ§eviri":13477,"ĠfÃ¼z":13478,"ĠEz":13479,"ahit":13480,"ĠGÃĸR":13481,"ĠbaÅŁkent":13482,"Ġeksen":13483,"ĠgÃ¼Ã§lÃ¼k":13484,"Ġulus":13485,"KiÅŁ":13486,"ĠTÃ¼rkistan":13487,"ĠHaberler":13488,"ĠÃ¶dÃ¼n":13489,"Ġpencere":13490,"ĠkoÅŁullarda":13491,"Ġsamim":13492,"ĠÃĸÄŁ":13493,"Ġsuda":13494,"Orta":13495,"ĠÅŁube":13496,"ĠTeh":13497,"ĠarÄ±ndÄ±r":13498,"ĠkatkÄ±sÄ±":13499,"ader":13500,"ĠyapÄ±lÄ±rken":13501,"Ol":13502,"Ġhelikopter":13503,"iÄŁde":13504,"Ġekipler":13505,"ĠtoplantÄ±ya":13506,"ĠÄ°htiy":13507,"ila":13508,"ĠiOS":13509,"istal":13510,"ĠdÃ¶kÃ¼l":13511,"avir":13512,"elerindeki":13513,"ĠMarmar":13514,"ĠÃ§arpÄ±cÄ±":13515,"Ġkonumda":13516,"Mod":13517,"nesi":13518,"Ġ78":13519,"Ġbutonuna":13520,"cektir":13521,"ĠSIN":13522,"Ã¢k":13523,"ĠSÃ¶zleÅŁmesi":13524,"YO":13525,"cÄ±ÄŁ":13526,"miÅŁtim":13527,"Ġbirbirini":13528,"Ä±lmalÄ±":13529,"ĠkatÄ±nda":13530,"ĠseÃ§imlerinde":13531,"Ġtersine":13532,"ediyesi":13533,"ERKEZ":13534,"keli":13535,"uzun":13536,"ĠsuÃ§undan":13537,"ĠimkÃ¢nÄ±":13538,"ĠMÃ¼k":13539,"etimi":13540,"Ġturu":13541,"ĠAdres":13542,"Ġtarifleri":13543,"ĠsÃ¶ndÃ¼r":13544,"tiz":13545,"Ã§eli":13546,"Ġhele":13547,"ĠnÃ¼fusu":13548,"ĠPaylaÅŁ":13549,"ĠAF":13550,"ĠUmut":13551,"Ġsunacak":13552,"ĠsavaÅŁÄ±n":13553,"ĠÃ§ikolata":13554,"Ġvaat":13555,"isy":13556,"Ġokulun":13557,"ĠsigortasÄ±":13558,"alik":13559,"ĠBEL":13560,"ĠÅŁap":13561,"ĠYur":13562,"ĠaÃ§Ä±ktÄ±r":13563,"Ġvermey":13564,"ĠDÃ¶v":13565,"madde":13566,"ĠPlus":13567,"ĠEren":13568,"ĠmantÄ±klÄ±":13569,"omen":13570,"ĠgerÃ§ekÃ§i":13571,"Ġsalonunda":13572,"ĠMarket":13573,"ĠÃĸÄŁretmenleri":13574,"ĠTuzla":13575,"ĠbÄ±r":13576,"ĠalÄ±ndÄ±ÄŁÄ±nda":13577,"Ġkonudaki":13578,"ĠbankacÄ±lÄ±k":13579,"Ġq":13580,"ĠÃ¶nemine":13581,"Ġ98":13582,"ĠtakÄ±mlarÄ±":13583,"ĠsÄ±caklÄ±ÄŁÄ±":13584,"mun":13585,"lenebilir":13586,"ĠkapsamÄ±ndaki":13587,"GUL":13588,"lm":13589,"ĠyapÄ±sÄ±nÄ±":13590,"ĠsayÄ±sÄ±z":13591,"Ġetmiyor":13592,"gÃ¶l":13593,"ited":13594,"ĠokÅŁ":13595,"ĠhastalarÄ±n":13596,"Ġekonomisi":13597,"ĠInternet":13598,"ney":13599,"lendiÄŁi":13600,"Ġhizmetin":13601,"ÃľM":13602,"Ġtermin":13603,"Ġokullar":13604,"ĠnumaranÄ±n":13605,"ĠÅŁofÃ¶r":13606,"ĠvatandaÅŁÄ±":13607,"Ġdereceye":13608,"Ã»lullah":13609,"ĠseÃ§kin":13610,"Ġhususunda":13611,"ĠfaydasÄ±":13612,"box":13613,"Fakat":13614,"ĠaktardÄ±":13615,"Ã¼nÃ¼ze":13616,"Ä°srail":13617,"Ġolmamak":13618,"akta":13619,"ĠgÃ¶rÃ¼ÅŁÃ¼":13620,"ĠsorularÄ±nÄ±":13621,"Ġertel":13622,"Ġoperasyonda":13623,"ĠÃ¶zenle":13624,"ĠMobilya":13625,"ansa":13626,"Ġ62":13627,"OsmanlÄ±":13628,"ĠKÃ¼rdistan":13629,"iÅŁimi":13630,"Ġpropaganda":13631,"udum":13632,"olsun":13633,"ĠRestor":13634,"Ġsahiplerine":13635,"Ġmemuru":13636,"Ġkurb":13637,"Ä±nÄ±zdaki":13638,"Ġmevs":13639,"EKÄ°":13640,"ĠBatman":13641,"mon":13642,"ebilme":13643,"oba":13644,"Ġmetabol":13645,"Ġkadrosu":13646,"ĠPe":13647,"Ġkare":13648,"ĠkullanÄ±yorum":13649,"ĠTeklif":13650,"ĠTeÅŁkilatÄ±":13651,"dis":13652,"Ġkoalisyon":13653,"Ġokullarda":13654,"ĠHizmetler":13655,"kurt":13656,"ĠUsta":13657,"ĠÃľmraniye":13658,"ALAR":13659,"fice":13660,"ĠhayvanlarÄ±n":13661,"ĠMenderes":13662,"teb":13663,"ĠYÄ±llÄ±k":13664,"ĠYollarÄ±":13665,"Ġyazmaya":13666,"leÅŁtirilmiÅŁ":13667,"ĠsÄ±Ã§":13668,"Ġsorumludur":13669,"Ġdenge":13670,"ĠgÃ¶zlerini":13671,"Ġinternetten":13672,"iÅŁan":13673,"ĠtaraflÄ±":13674,"Ġengellemek":13675,"ĠiddiasÄ±yla":13676,"Ġlistesinde":13677,"ĠihtiyacÄ±mÄ±z":13678,"ayollarÄ±":13679,"'m":13680,"Ġucu":13681,"ĠprogramÄ±nÄ±":13682,"ĠOrganize":13683,"ĠAkademisi":13684,"Ġotuz":13685,"Ġisteriz":13686,"Ġnefis":13687,"ayeti":13688,"ĠfÄ±ndÄ±k":13689,"ĠsaygÄ±n":13690,"ĠAlÄ±m":13691,"ĠOne":13692,"mekteyiz":13693,"ĠKod":13694,"ĠmÃ¼f":13695,"Ġhelal":13696,"ĠHint":13697,"ĠPÄ±nar":13698,"Ä±lmadan":13699,"Ä±zda":13700,"Ġnur":13701,"ĠÃ¾":13702,"Ġkarab":13703,"ĠbaktÄ±m":13704,"ĠsÄ±kÄ±nt":13705,"ĠÅŀÃ¼phesiz":13706,"ĠbiÅŁ":13707,"Ġkatma":13708,"diÄŁine":13709,"ĠTekrar":13710,"ĠinanÄ±yorsanÄ±z":13711,"ĠakciÄŁer":13712,"ĠbÄ±rakan":13713,"ovasyon":13714,"ĠÅŁen":13715,"Ġverdiler":13716,"ĠyÄ±ldÄ±zÄ±":13717,"Ġbilgisay":13718,"ota":13719,"Ġtelaf":13720,"ĠbakÄ±mlÄ±":13721,"ĠDemirel":13722,"ĠBeden":13723,"ĠEL":13724,"ĠNÃ¼f":13725,"ideki":13726,"Ġmilleti":13727,"tedir":13728,"Ġedilmez":13729,"Ġsesleri":13730,"Ġokumaya":13731,"Ġpamuk":13732,"way":13733,"ĠMÃ¼t":13734,"ilmem":13735,"ĠkullanÄ±lmÄ±ÅŁ":13736,"Ġkronik":13737,"ĠTanÄ±mlar":13738,"arm":13739,"Ġsef":13740,"ics":13741,"iÄŁinin":13742,"ĠazdÄ±r":13743,"ĠgittiÄŁ":13744,"yem":13745,"ĠbulaÅŁÄ±k":13746,"Ġitfaiye":13747,"Ġhakikat":13748,"ĠKimya":13749,"Ġmoral":13750,"Ġtemp":13751,"ĠBurcu":13752,"Ä°RME":13753,"ĠNihat":13754,"ĠÃĩeÅŁitli":13755,"ĠYeniden":13756,"ĠkendiliÄŁinden":13757,"Ġzordur":13758,"ĠfÄ±rÃ§":13759,"yani":13760,"Ġsura":13761,"hy":13762,"ĠvereceÄŁi":13763,"ĠdÃ¼nyasÄ±na":13764,"ĠAlex":13765,"Ġmac":13766,"ĠsÄ±ralarÄ±nda":13767,"ĠdesteÄŁiyle":13768,"Ġvurdu":13769,"ĠÃĩoÄŁu":13770,"ĠArnavut":13771,"Ġhesaba":13772,"Kitap":13773,"ĠkaplÄ±":13774,"Ã§Ä±larÄ±":13775,"ĠgerektiÄŁinde":13776,"Google":13777,"ĠaÅŁaÄŁÄ±ya":13778,"ĠCEO":13779,"Ġbulunmakta":13780,"Ġbirimleri":13781,"ĠÃ§alÄ±ÅŁmasÄ±nÄ±":13782,"ĠTemsilcisi":13783,"ĠKÃ¶prÃ¼sÃ¼":13784,"Ġceviz":13785,"abilitasyon":13786,"ĠtakÄ±lan":13787,"Ġfrekans":13788,"ĠBlu":13789,"Ġpast":13790,"Ä±nÄ±zla":13791,"Ġevler":13792,"ĠÄ°lkÃ¶ÄŁretim":13793,"ĠMadrid":13794,"ĠArtvin":13795,"au":13796,"ĠAdasÄ±":13797,"Ġaram":13798,"ĠkadarÄ±yla":13799,"ĠsarÄ±m":13800,"ĠdeyiÅŁ":13801,"ĠBirkaÃ§":13802,"ĠÃ§ocukluk":13803,"ĠkolaylÄ±k":13804,"ĠHasta":13805,"incisi":13806,"ico":13807,"Ġyapmakta":13808,"ĠKalp":13809,"Ġ1995":13810,"ĠMÃ¼slÃ¼manlar":13811,"Ġninja":13812,"ĠMahkeme":13813,"ĠmeraklÄ±":13814,"ĠmÃ¼sait":13815,"ĠkalmÄ±ÅŁtÄ±r":13816,"Ġkayg":13817,"ĠheyecanlÄ±":13818,"ĠIsparta":13819,"eza":13820,"ĠSGK":13821,"ĠFas":13822,"ĠgÃ¶revine":13823,"Ġdeh":13824,"ĠaÃ§Ä±lmÄ±ÅŁ":13825,"deÄŁ":13826,"Ä±rda":13827,"Ġcom":13828,"laÅŁmaya":13829,"ĠÄ°nÃ¶nÃ¼":13830,"Ġita":13831,"ĠKÃ¼l":13832,"ĠYel":13833,"ĠyapÄ±yorlar":13834,"Yan":13835,"ms":13836,"insan":13837,"ĠstÃ¼":13838,"Ġarsa":13839,"Ġkarakteri":13840,"Oyun":13841,"ĠKÃ¢":13842,"Ġandan":13843,"ĠyazÄ±larÄ±":13844,"Ġmaks":13845,"Ġlar":13846,"ĠSana":13847,"ĠÄ°Ã§inde":13848,"Ġotomotiv":13849,"ĠbebeÄŁ":13850,
[...]
